{
  "version": "1.0",
  "truncation": {
    "direction": "Right",
    "max_length": 128,
    "strategy": "LongestFirst",
    "stride": 0
  },
  "padding": {
    "strategy": {
      "Fixed": 128
    },
    "direction": "Right",
    "pad_to_multiple_of": null,
    "pad_id": 1,
    "pad_type_id": 0,
    "pad_token": "<pad>"
  },
  "added_tokens": [
    {
      "id": 0,
      "content": "<unk>",
      "single_word": false,
      "lstrip": false,
      "rstrip": false,
      "normalized": false,
      "special": true
    },
    {
      "id": 1,
      "content": "<pad>",
      "single_word": false,
      "lstrip": false,
      "rstrip": false,
      "normalized": false,
      "special": true
    },
    {
      "id": 2,
      "content": "<bos>",
      "single_word": false,
      "lstrip": false,
      "rstrip": false,
      "normalized": false,
      "special": true
    },
    {
      "id": 3,
      "content": "<eos>",
      "single_word": false,
      "lstrip": false,
      "rstrip": false,
      "normalized": false,
      "special": true
    }
  ],
  "normalizer": {
    "type": "Sequence",
    "normalizers": [
      {
        "type": "Lowercase"
      }
    ]
  },
  "pre_tokenizer": {
    "type": "Whitespace"
  },
  "post_processor": null,
  "decoder": {
    "type": "WordPiece",
    "prefix": "##",
    "cleanup": true
  },
  "model": {
    "type": "WordPiece",
    "unk_token": "<unk>",
    "continuing_subword_prefix": "##",
    "max_input_chars_per_word": 100,
    "vocab": {
      "<unk>": 0,
      "<pad>": 1,
      "<bos>": 2,
      "<eos>": 3,
      "!": 4,
      "\"": 5,
      "#": 6,
      "$": 7,
      "%": 8,
      "&": 9,
      "'": 10,
      "(": 11,
      ")": 12,
      "*": 13,
      "+": 14,
      ",": 15,
      "-": 16,
      ".": 17,
      "/": 18,
      "0": 19,
      "1": 20,
      "2": 21,
      "3": 22,
      "4": 23,
      "5": 24,
      "6": 25,
      "7": 26,
      "8": 27,
      "9": 28,
      ":": 29,
      "<": 30,
      "=": 31,
      ">": 32,
      "?": 33,
      "@": 34,
      "[": 35,
      "]": 36,
      "^": 37,
      "_": 38,
      "`": 39,
      "a": 40,
      "b": 41,
      "c": 42,
      "d": 43,
      "e": 44,
      "f": 45,
      "g": 46,
      "h": 47,
      "i": 48,
      "j": 49,
      "k": 50,
      "l": 51,
      "m": 52,
      "n": 53,
      "o": 54,
      "p": 55,
      "q": 56,
      "r": 57,
      "s": 58,
      "t": 59,
      "u": 60,
      "v": 61,
      "w": 62,
      "x": 63,
      "y": 64,
      "z": 65,
      "{": 66,
      "|": 67,
      "}": 68,
      "~": 69,
      "": 70,
      "£": 71,
      "¤": 72,
      "¥": 73,
      "§": 74,
      "°": 75,
      "²": 76,
      "³": 77,
      "´": 78,
      "·": 79,
      "¹": 80,
      "º": 81,
      "»": 82,
      "¼": 83,
      "¾": 84,
      "×": 85,
      "ß": 86,
      "à": 87,
      "á": 88,
      "â": 89,
      "ã": 90,
      "ä": 91,
      "å": 92,
      "æ": 93,
      "ç": 94,
      "è": 95,
      "é": 96,
      "ê": 97,
      "ë": 98,
      "ì": 99,
      "í": 100,
      "ï": 101,
      "ð": 102,
      "ñ": 103,
      "ò": 104,
      "ó": 105,
      "ô": 106,
      "õ": 107,
      "ö": 108,
      "÷": 109,
      "ø": 110,
      "ù": 111,
      "ú": 112,
      "ü": 113,
      "ý": 114,
      "ÿ": 115,
      "ā": 116,
      "ą": 117,
      "ć": 118,
      "č": 119,
      "đ": 120,
      "ē": 121,
      "ė": 122,
      "ę": 123,
      "ě": 124,
      "ğ": 125,
      "ģ": 126,
      "ī": 127,
      "ı": 128,
      "ķ": 129,
      "ļ": 130,
      "ł": 131,
      "ń": 132,
      "ņ": 133,
      "ň": 134,
      "ŋ": 135,
      "ō": 136,
      "ő": 137,
      "ř": 138,
      "ś": 139,
      "ş": 140,
      "š": 141,
      "ū": 142,
      "ű": 143,
      "ź": 144,
      "ż": 145,
      "ž": 146,
      "ǎ": 147,
      "ș": 148,
      "ɔ": 149,
      "ɕ": 150,
      "ə": 151,
      "ɛ": 152,
      "ɾ": 153,
      "ʃ": 154,
      "ʊ": 155,
      "ʋ": 156,
      "ʻ": 157,
      "ˈ": 158,
      "ː": 159,
      "˝": 160,
      "̇": 161,
      "͡": 162,
      "ά": 163,
      "ή": 164,
      "ί": 165,
      "α": 166,
      "β": 167,
      "γ": 168,
      "ε": 169,
      "η": 170,
      "θ": 171,
      "ι": 172,
      "κ": 173,
      "λ": 174,
      "μ": 175,
      "ν": 176,
      "ο": 177,
      "π": 178,
      "ρ": 179,
      "σ": 180,
      "τ": 181,
      "ω": 182,
      "а": 183,
      "б": 184,
      "в": 185,
      "г": 186,
      "д": 187,
      "е": 188,
      "з": 189,
      "и": 190,
      "й": 191,
      "к": 192,
      "л": 193,
      "м": 194,
      "н": 195,
      "о": 196,
      "п": 197,
      "р": 198,
      "с": 199,
      "т": 200,
      "у": 201,
      "ф": 202,
      "ц": 203,
      "ч": 204,
      "ш": 205,
      "ы": 206,
      "ђ": 207,
      "ј": 208,
      "љ": 209,
      "ћ": 210,
      "א": 211,
      "ב": 212,
      "ג": 213,
      "ה": 214,
      "ט": 215,
      "י": 216,
      "כ": 217,
      "ל": 218,
      "מ": 219,
      "ע": 220,
      "ק": 221,
      "ר": 222,
      "ת": 223,
      "ء": 224,
      "ا": 225,
      "ب": 226,
      "د": 227,
      "ع": 228,
      "ل": 229,
      "ن": 230,
      "ي": 231,
      "​": 232,
      "‎": 233,
      "‐": 234,
      "—": 235,
      "‘": 236,
      "’": 237,
      "“": 238,
      "”": 239,
      "†": 240,
      "‡": 241,
      "•": 242,
      "…": 243,
      "′": 244,
      "″": 245,
      "›": 246,
      "⁄": 247,
      "€": 248,
      "₮": 249,
      "₱": 250,
      "™": 251,
      "←": 252,
      "↑": 253,
      "→": 254,
      "∞": 255,
      "≡": 256,
      "█": 257,
      "▲": 258,
      "▼": 259,
      "♦": 260,
      "♯": 261,
      "✝": 262,
      "ケ": 263,
      "ス": 264,
      "ッ": 265,
      "ト": 266,
      "バ": 267,
      "ボ": 268,
      "ル": 269,
      "ー": 270,
      "一": 271,
      "三": 272,
      "上": 273,
      "世": 274,
      "业": 275,
      "东": 276,
      "中": 277,
      "丰": 278,
      "之": 279,
      "云": 280,
      "京": 281,
      "代": 282,
      "会": 283,
      "体": 284,
      "作": 285,
      "佳": 286,
      "信": 287,
      "傑": 288,
      "元": 289,
      "光": 290,
      "全": 291,
      "八": 292,
      "具": 293,
      "冀": 294,
      "冰": 295,
      "北": 296,
      "华": 297,
      "南": 298,
      "博": 299,
      "口": 300,
      "台": 301,
      "同": 302,
      "吳": 303,
      "哈": 304,
      "啤": 305,
      "四": 306,
      "团": 307,
      "国": 308,
      "國": 309,
      "園": 310,
      "城": 311,
      "塁": 312,
      "壘": 313,
      "士": 314,
      "大": 315,
      "天": 316,
      "太": 317,
      "奔": 318,
      "女": 319,
      "子": 320,
      "学": 321,
      "學": 322,
      "宁": 323,
      "宇": 324,
      "安": 325,
      "山": 326,
      "岱": 327,
      "峰": 328,
      "川": 329,
      "州": 330,
      "工": 331,
      "平": 332,
      "年": 333,
      "广": 334,
      "庆": 335,
      "度": 336,
      "廠": 337,
      "建": 338,
      "張": 339,
      "彩": 340,
      "德": 341,
      "志": 342,
      "忠": 343,
      "手": 344,
      "捷": 345,
      "文": 346,
      "斯": 347,
      "新": 348,
      "方": 349,
      "日": 350,
      "时": 351,
      "晋": 352,
      "智": 353,
      "曦": 354,
      "曾": 355,
      "最": 356,
      "本": 357,
      "李": 358,
      "杯": 359,
      "林": 360,
      "桑": 361,
      "梯": 362,
      "権": 363,
      "欣": 364,
      "水": 365,
      "江": 366,
      "沈": 367,
      "河": 368,
      "泉": 369,
      "泥": 370,
      "泰": 371,
      "洋": 372,
      "津": 373,
      "济": 374,
      "浙": 375,
      "海": 376,
      "源": 377,
      "灣": 378,
      "爪": 379,
      "牛": 380,
      "牟": 381,
      "球": 382,
      "璞": 383,
      "田": 384,
      "甲": 385,
      "电": 386,
      "男": 387,
      "百": 388,
      "票": 389,
      "福": 390,
      "程": 391,
      "築": 392,
      "篮": 393,
      "納": 394,
      "红": 395,
      "级": 396,
      "纪": 397,
      "绅": 398,
      "联": 399,
      "肇": 400,
      "育": 401,
      "臺": 402,
      "苏": 403,
      "药": 404,
      "莞": 405,
      "華": 406,
      "营": 407,
      "行": 408,
      "衡": 409,
      "裕": 410,
      "西": 411,
      "豪": 412,
      "豫": 413,
      "豹": 414,
      "货": 415,
      "赛": 416,
      "辽": 417,
      "进": 418,
      "远": 419,
      "達": 420,
      "選": 421,
      "部": 422,
      "酒": 423,
      "金": 424,
      "銀": 425,
      "钢": 426,
      "铁": 427,
      "铅": 428,
      "长": 429,
      "門": 430,
      "队": 431,
      "阳": 432,
      "陳": 433,
      "隅": 434,
      "隆": 435,
      "集": 436,
      "雲": 437,
      "電": 438,
      "鬥": 439,
      "鱼": 440,
      "黑": 441,
      "鼎": 442,
      "龙": 443,
      "�": 444,
      "##e": 445,
      "##z": 446,
      "##o": 447,
      "##n": 448,
      "##j": 449,
      "##a": 450,
      "##r": 451,
      "##k": 452,
      "##m": 453,
      "##t": 454,
      "##v": 455,
      "##y": 456,
      "##p": 457,
      "##l": 458,
      "##d": 459,
      "##i": 460,
      "##g": 461,
      "##h": 462,
      "##s": 463,
      "##?": 464,
      "##f": 465,
      "##”": 466,
      "##u": 467,
      "##4": 468,
      "##c": 469,
      "##b": 470,
      "##x": 471,
      "##w": 472,
      "##8": 473,
      "##6": 474,
      "##1": 475,
      "##9": 476,
      "##7": 477,
      "##2": 478,
      "##3": 479,
      "##0": 480,
      "##5": 481,
      "##é": 482,
      "##ó": 483,
      "##ş": 484,
      "##灣": 485,
      "##銀": 486,
      "##行": 487,
      "##ń": 488,
      "##̇": 489,
      "##š": 490,
      "##ő": 491,
      "##†": 492,
      "##,": 493,
      "##q": 494,
      "##ć": 495,
      "##ñ": 496,
      "##›": 497,
      "##]": 498,
      "##)": 499,
      "##建": 500,
      "##南": 501,
      "##安": 502,
      "##ä": 503,
      "##[": 504,
      "##ë": 505,
      "##.": 506,
      "##á": 507,
      "##е": 508,
      "##с": 509,
      "##н": 510,
      "##к": 511,
      "##о": 512,
      "##\"": 513,
      "##ž": 514,
      "##/": 515,
      "##(": 516,
      "##ı": 517,
      "##ö": 518,
      "##ā": 519,
      "##-": 520,
      "##'": 521,
      "##í": 522,
      "##口": 523,
      "##东": 524,
      "##华": 525,
      "##沈": 526,
      "##部": 527,
      "##ï": 528,
      "##ū": 529,
      "##豫": 530,
      "##光": 531,
      "##金": 532,
      "##铅": 533,
      "##云": 534,
      "##_": 535,
      "##西": 536,
      "##宇": 537,
      "##晋": 538,
      "##ÿ": 539,
      "##ė": 540,
      "##и": 541,
      "##}": 542,
      "##|": 543,
      "##ú": 544,
      "##*": 545,
      "##$": 546,
      "##ł": 547,
      "##č": 548,
      "##ě": 549,
      "##â": 550,
      "##ß": 551,
      "##å": 552,
      "##α": 553,
      "##ν": 554,
      "##ε": 555,
      "##λ": 556,
      "##ή": 557,
      "##ι": 558,
      "##ο": 559,
      "##!": 560,
      "##:": 561,
      "##>": 562,
      "##ü": 563,
      "##ç": 564,
      "##{": 565,
      "##^": 566,
      "##ż": 567,
      "##è": 568,
      "##р": 569,
      "##т": 570,
      "##ћ": 571,
      "##đ": 572,
      "##日": 573,
      "##本": 574,
      "##大": 575,
      "##学": 576,
      "##バ": 577,
      "##ス": 578,
      "##ケ": 579,
      "##ッ": 580,
      "##ト": 581,
      "##ボ": 582,
      "##ー": 583,
      "##ル": 584,
      "##選": 585,
      "##手": 586,
      "##権": 587,
      "##会": 588,
      "##ô": 589,
      "##τ": 590,
      "##η": 591,
      "##γ": 592,
      "##ρ": 593,
      "##ί": 594,
      "##а": 595,
      "##б": 596,
      "##ļ": 597,
      "##隆": 598,
      "##納": 599,
      "##智": 600,
      "##捷": 601,
      "##龙": 602,
      "##江": 603,
      "##肇": 604,
      "##州": 605,
      "##丰": 606,
      "##绅": 607,
      "##à": 608,
      "##°": 609,
      "##=": 610,
      "##海": 611,
      "##方": 612,
      "##八": 613,
      "##爪": 614,
      "##鱼": 615,
      "##ą": 616,
      "##õ": 617,
      "##ī": 618,
      "##—": 619,
      "##ã": 620,
      "##л": 621,
      "##в": 622,
      "##+": 623,
      "##ř": 624,
      "##ǎ": 625,
      "##ː": 626,
      "##͡": 627,
      "##ɕ": 628,
      "##德": 629,
      "##斯": 630,
      "##ʊ": 631,
      "##ɔ": 632,
      "##ʃ": 633,
      "##ű": 634,
      "##ğ": 635,
      "##ý": 636,
      "##​": 637,
      "##壘": 638,
      "##莞": 639,
      "##新": 640,
      "##世": 641,
      "##纪": 642,
      "##д": 643,
      "##川": 644,
      "##时": 645,
      "##代": 646,
      "##冰": 647,
      "##远": 648,
      "##太": 649,
      "##平": 650,
      "##洋": 651,
      "##百": 652,
      "##货": 653,
      "##θ": 654,
      "##κ": 655,
      "##園": 656,
      "##築": 657,
      "##█": 658,
      "##º": 659,
      "##岱": 660,
      "##豪": 661,
      "##ы": 662,
      "##з": 663,
      "##度": 664,
      "##最": 665,
      "##佳": 666,
      "##鬥": 667,
      "##士": 668,
      "##•": 669,
      "##×": 670,
      "##一": 671,
      "##广": 672,
      "##博": 673,
      "##文": 674,
      "##具": 675,
      "##ל": 676,
      "##ē": 677,
      "##’": 678,
      "##學": 679,
      "##林": 680,
      "###": 681,
      "##ч": 682,
      "##ò": 683,
      "##ј": 684,
      "##啤": 685,
      "##酒": 686,
      "##ê": 687,
      "##у": 688,
      "##ņ": 689,
      "##ð": 690,
      "##三": 691,
      "##电": 692,
      "##梯": 693,
      "##љ": 694,
      "##ц": 695,
      "##鼎": 696,
      "##™": 697,
      "##ђ": 698,
      "##苏": 699,
      "##钢": 700,
      "##♯": 701,
      "##ì": 702,
      "##同": 703,
      "##曦": 704,
      "##雲": 705,
      "##豹": 706,
      "##国": 707,
      "##女": 708,
      "##子": 709,
      "##篮": 710,
      "##球": 711,
      "##甲": 712,
      "##级": 713,
      "##联": 714,
      "##赛": 715,
      "##ę": 716,
      "##й": 717,
      "##電": 718,
      "##<": 719,
      "##峰": 720,
      "##北": 721,
      "##冀": 722,
      "##水": 723,
      "##泥": 724,
      "##ק": 725,
      "##ט": 726,
      "##ר": 727,
      "##ה": 728,
      "##ň": 729,
      "##æ": 730,
      "##庆": 731,
      "##г": 732,
      "##宁": 733,
      "##衡": 734,
      "##业": 735,
      "##%": 736,
      "##ŋ": 737,
      "##ˈ": 738,
      "##ɛ": 739,
      "##ə": 740,
      "##ɾ": 741,
      "##之": 742,
      "##泉": 743,
      "##ø": 744,
      "##ș": 745,
      "##ل": 746,
      "##ا": 747,
      "##ء": 748,
      "##“": 749,
      "##泰": 750,
      "##כ": 751,
      "##ב": 752,
      "##י": 753,
      "##阳": 754,
      "##进": 755,
      "##門": 756,
      "##廠": 757,
      "##志": 758,
      "##傑": 759,
      "##ķ": 760,
      "##@": 761,
      "##男": 762,
      "##м": 763,
      "##ф": 764,
      "##忠": 765,
      "##体": 766,
      "##育": 767,
      "##彩": 768,
      "##票": 769,
      "##京": 770,
      "##隅": 771,
      "##长": 772,
      "##城": 773,
      "##‡": 774,
      "##哈": 775,
      "##药": 776,
      "##集": 777,
      "##团": 778,
      "##ب": 779,
      "##د": 780,
      "##ω": 781,
      "##ά": 782,
      "##μ": 783,
      "##華": 784,
      "##信": 785,
      "##元": 786,
      "##σ": 787,
      "##欣": 788,
      "##工": 789,
      "##程": 790,
      "##ن": 791,
      "##ي": 792,
      "##…": 793,
      "##津": 794,
      "##队": 795,
      "##红": 796,
      "##河": 797,
      "##奔": 798,
      "##牛": 799,
      "##济": 800,
      "##源": 801,
      "##铁": 802,
      "##ע": 803,
      "##▲": 804,
      "##▼": 805,
      "##β": 806,
      "##ʻ": 807,
      "##ù": 808,
      "##ź": 809,
      "##ג": 810,
      "##ת": 811,
      "##€": 812,
      "##ш": 813,
      "##ģ": 814,
      "##ʋ": 815,
      "##ō": 816,
      "##er": 817,
      "##on": 818,
      "th": 819,
      "##in": 820,
      "##00": 821,
      "the": 822,
      "##ar": 823,
      "##en": 824,
      "19": 825,
      "##or": 826,
      "##an": 827,
      "##st": 828,
      "##am": 829,
      "##al": 830,
      "##at": 831,
      "##ed": 832,
      "##es": 833,
      "##as": 834,
      "##ou": 835,
      "##nd": 836,
      "##ic": 837,
      "##it": 838,
      "in": 839,
      "##ll": 840,
      "##is": 841,
      "##ing": 842,
      "##et": 843,
      "st": 844,
      "##el": 845,
      "200": 846,
      "##ers": 847,
      "##la": 848,
      "##ion": 849,
      "to": 850,
      "##th": 851,
      "20": 852,
      "##ent": 853,
      "se": 854,
      "of": 855,
      "and": 856,
      "##ac": 857,
      "##re": 858,
      "##0000": 859,
      "##le": 860,
      "##ate": 861,
      "co": 862,
      "te": 863,
      "199": 864,
      "##ro": 865,
      "##ir": 866,
      "##ce": 867,
      "##ad": 868,
      "ch": 869,
      "##ig": 870,
      "201": 871,
      "re": 872,
      "##ol": 873,
      "##all": 874,
      "##ur": 875,
      "198": 876,
      "##ch": 877,
      "##ts": 878,
      "##ba": 879,
      "pla": 880,
      "gam": 881,
      "for": 882,
      "##il": 883,
      "##iv": 884,
      "con": 885,
      "##ard": 886,
      "play": 887,
      "on": 888,
      "an": 889,
      "##os": 890,
      "##ag": 891,
      "##mp": 892,
      "197": 893,
      "10": 894,
      "##ason": 895,
      "##ith": 896,
      "##ver": 897,
      "##ound": 898,
      "was": 899,
      "##and": 900,
      "##ot": 901,
      "##ke": 902,
      "##ill": 903,
      "he": 904,
      "##ay": 905,
      "as": 906,
      "##ow": 907,
      "##id": 908,
      "##im": 909,
      "team": 910,
      "##hi": 911,
      "##un": 912,
      "nba": 913,
      "season": 914,
      "##ick": 915,
      "state": 916,
      "le": 917,
      "de": 918,
      "##ut": 919,
      "##ber": 920,
      "##om": 921,
      "11": 922,
      "##ast": 923,
      "##ri": 924,
      "ne": 925,
      "with": 926,
      "game": 927,
      "at": 928,
      "be": 929,
      "##ra": 930,
      "##fer": 931,
      "car": 932,
      "po": 933,
      "##ge": 934,
      "##ca": 935,
      "##ul": 936,
      "##ck": 937,
      "12": 938,
      "##ter": 939,
      "##our": 940,
      "##ist": 941,
      "196": 942,
      "##amp": 943,
      "un": 944,
      "##igh": 945,
      "##ence": 946,
      "fir": 947,
      "##inal": 948,
      "##ton": 949,
      "##av": 950,
      "ro": 951,
      "first": 952,
      "bo": 953,
      "round": 954,
      "##cor": 955,
      "##ity": 956,
      "##son": 957,
      "sh": 958,
      "##est": 959,
      "mar": 960,
      "##caa": 961,
      "confer": 962,
      "poin": 963,
      "ncaa": 964,
      "##00000000": 965,
      "##ry": 966,
      "##ation": 967,
      "conference": 968,
      "champ": 969,
      "##ear": 970,
      "##ct": 971,
      "champion": 972,
      "##ia": 973,
      "##em": 974,
      "new": 975,
      "##us": 976,
      "13": 977,
      "all": 978,
      "sp": 979,
      "by": 980,
      "##ak": 981,
      "##ant": 982,
      "##ask": 983,
      "##ach": 984,
      "jo": 985,
      "##ue": 986,
      "##mpl": 987,
      "##uar": 988,
      "ar": 989,
      "195": 990,
      "##ie": 991,
      "##ets": 992,
      "##ston": 993,
      "##ern": 994,
      "##ich": 995,
      "bu": 996,
      "##ball": 997,
      "##mplate": 998,
      "##ond": 999,
      "his": 1000,
      "##asket": 1001,
      "##um": 1002,
      "year": 1003,
      "wh": 1004,
      "##ly": 1005,
      "los": 1006,
      "14": 1007,
      "##mer": 1008,
      "basket": 1009,
      "al": 1010,
      "##ff": 1011,
      "nor": 1012,
      "##ament": 1013,
      "##ain": 1014,
      "final": 1015,
      "basketball": 1016,
      "16": 1017,
      "cent": 1018,
      "##lle": 1019,
      "##inn": 1020,
      "##ans": 1021,
      "##pp": 1022,
      "15": 1023,
      "##ian": 1024,
      "##uke": 1025,
      "##ourn": 1026,
      "##if": 1027,
      "north": 1028,
      "colle": 1029,
      "##ina": 1030,
      "##se": 1031,
      "points": 1032,
      "##ft": 1033,
      "tourn": 1034,
      "##ov": 1035,
      "sec": 1036,
      "games": 1037,
      "##rom": 1038,
      "##te": 1039,
      "18": 1040,
      "tim": 1041,
      "##ward": 1042,
      "##ies": 1043,
      "##land": 1044,
      "college": 1045,
      "tournament": 1046,
      "##one": 1047,
      "17": 1048,
      "template": 1049,
      "champions": 1050,
      "center": 1051,
      "##iam": 1052,
      "from": 1053,
      "##oun": 1054,
      "##ost": 1055,
      "##ics": 1056,
      "##ap": 1057,
      "second": 1058,
      "##ect": 1059,
      "##gel": 1060,
      "##outh": 1061,
      "##ack": 1062,
      "##ors": 1063,
      "##ix": 1064,
      "player": 1065,
      "west": 1066,
      "##ok": 1067,
      "amer": 1068,
      "americ": 1069,
      "per": 1070,
      "cl": 1071,
      "194": 1072,
      "##hn": 1073,
      "2010": 1074,
      "fr": 1075,
      "angel": 1076,
      "carol": 1077,
      "##ive": 1078,
      "scor": 1079,
      "south": 1080,
      "dra": 1081,
      "carolina": 1082,
      "##art": 1083,
      "##ey": 1084,
      "##aw": 1085,
      "ind": 1086,
      "coach": 1087,
      "or": 1088,
      "##end": 1089,
      "angeles": 1090,
      "21": 1091,
      "##hip": 1092,
      "is": 1093,
      "##ight": 1094,
      "over": 1095,
      "##ere": 1096,
      "ass": 1097,
      "reg": 1098,
      "##uary": 1099,
      "22": 1100,
      "sch": 1101,
      "##ug": 1102,
      "john": 1103,
      "##ore": 1104,
      "stat": 1105,
      "##icks": 1106,
      "##ree": 1107,
      "san": 1108,
      "finals": 1109,
      "gu": 1110,
      "##akers": 1111,
      "##ague": 1112,
      "##ena": 1113,
      "##cord": 1114,
      "east": 1115,
      "##rad": 1116,
      "##ley": 1117,
      "##io": 1118,
      "2008": 1119,
      "com": 1120,
      "##ort": 1121,
      "that": 1122,
      "ag": 1123,
      "lakers": 1124,
      "2009": 1125,
      "record": 1126,
      "ph": 1127,
      "23": 1128,
      "##ld": 1129,
      "##ited": 1130,
      "##ames": 1131,
      "championship": 1132,
      "draft": 1133,
      "24": 1134,
      "2007": 1135,
      "league": 1136,
      "##old": 1137,
      "pr": 1138,
      "30": 1139,
      "##br": 1140,
      "##ord": 1141,
      "win": 1142,
      "atl": 1143,
      "##ior": 1144,
      "##ork": 1145,
      "det": 1146,
      "fe": 1147,
      "##ember": 1148,
      "none": 1149,
      "##orn": 1150,
      "ser": 1151,
      "2006": 1152,
      "##enn": 1153,
      "##elt": 1154,
      "##ool": 1155,
      "boston": 1156,
      "gre": 1157,
      "##ah": 1158,
      "pick": 1159,
      "##att": 1160,
      "25": 1161,
      "##ame": 1162,
      "kn": 1163,
      "bro": 1164,
      "##eer": 1165,
      "##ess": 1166,
      "##ivers": 1167,
      "##cc": 1168,
      "##ust": 1169,
      "26": 1170,
      "##ev": 1171,
      "##up": 1172,
      "##iss": 1173,
      "fi": 1174,
      "united": 1175,
      "arena": 1176,
      "ge": 1177,
      "ma": 1178,
      "##ons": 1179,
      "duke": 1180,
      "school": 1181,
      "states": 1182,
      "af": 1183,
      "##man": 1184,
      "##ational": 1185,
      "##eld": 1186,
      "reb": 1187,
      "atlant": 1188,
      "##ell": 1189,
      "big": 1190,
      "career": 1191,
      "##ab": 1192,
      "york": 1193,
      "high": 1194,
      "##ph": 1195,
      "76": 1196,
      "geor": 1197,
      "##lor": 1198,
      "##ens": 1199,
      "##ris": 1200,
      "##oc": 1201,
      "pro": 1202,
      "##oug": 1203,
      "will": 1204,
      "celt": 1205,
      "tw": 1206,
      "202": 1207,
      "2005": 1208,
      "celtics": 1209,
      "jun": 1210,
      "br": 1211,
      "##off": 1212,
      "sm": 1213,
      "##od": 1214,
      "guard": 1215,
      "##ks": 1216,
      "##bs": 1217,
      "2004": 1218,
      "univers": 1219,
      "##ington": 1220,
      "##ud": 1221,
      "bull": 1222,
      "rebound": 1223,
      "##ated": 1224,
      "##arl": 1225,
      "27": 1226,
      "1st": 1227,
      "##pg": 1228,
      "dav": 1229,
      "time": 1230,
      "their": 1231,
      "def": 1232,
      "me": 1233,
      "##elp": 1234,
      "out": 1235,
      "##ont": 1236,
      "28": 1237,
      "university": 1238,
      "mil": 1239,
      "000000000": 1240,
      "star": 1241,
      "after": 1242,
      "##ount": 1243,
      "point": 1244,
      "series": 1245,
      "##ision": 1246,
      "##qu": 1247,
      "2001": 1248,
      "2000": 1249,
      "##ular": 1250,
      "##iana": 1251,
      "),": 1252,
      "dur": 1253,
      "playoff": 1254,
      "war": 1255,
      "##ign": 1256,
      "national": 1257,
      "##vel": 1258,
      "hou": 1259,
      "four": 1260,
      "2003": 1261,
      "march": 1262,
      "##ory": 1263,
      "##zz": 1264,
      "fran": 1265,
      "comm": 1266,
      "193": 1267,
      "29": 1268,
      "div": 1269,
      "but": 1270,
      "##000000": 1271,
      "##ome": 1272,
      "it": 1273,
      "played": 1274,
      "##ish": 1275,
      "ex": 1276,
      "cle": 1277,
      "2011": 1278,
      "##ike": 1279,
      "rebounds": 1280,
      "##so": 1281,
      "had": 1282,
      "city": 1283,
      "forward": 1284,
      "mich": 1285,
      "##ub": 1286,
      "assist": 1287,
      "##erson": 1288,
      "not": 1289,
      "again": 1290,
      "regular": 1291,
      "won": 1292,
      "##lad": 1293,
      "two": 1294,
      "2002": 1295,
      "##ipp": 1296,
      "anton": 1297,
      "1996": 1298,
      "##ago": 1299,
      "three": 1300,
      "division": 1301,
      "houston": 1302,
      ".[": 1303,
      "wash": 1304,
      "bla": 1305,
      "were": 1306,
      "##ong": 1307,
      "##iami": 1308,
      "ad": 1309,
      "miami": 1310,
      "washington": 1311,
      "chic": 1312,
      "chicago": 1313,
      "pho": 1314,
      "sun": 1315,
      "go": 1316,
      "miss": 1317,
      "1999": 1318,
      "##hia": 1319,
      "##ise": 1320,
      "##ite": 1321,
      "1998": 1322,
      "##oot": 1323,
      "##ip": 1324,
      "warri": 1325,
      "rock": 1326,
      "antonio": 1327,
      "ut": 1328,
      "warriors": 1329,
      "##ille": 1330,
      "mad": 1331,
      "winn": 1332,
      "##pr": 1333,
      "##cks": 1334,
      "sem": 1335,
      "##hilad": 1336,
      "##hiladelp": 1337,
      "##hiladelphia": 1338,
      "cont": 1339,
      "philadelphia": 1340,
      "gold": 1341,
      "ok": 1342,
      "one": 1343,
      "##ird": 1344,
      "##wn": 1345,
      "##ance": 1346,
      "##ough": 1347,
      "##ine": 1348,
      "##wa": 1349,
      "also": 1350,
      "##uarter": 1351,
      "indiana": 1352,
      "##we": 1353,
      "trad": 1354,
      "2012": 1355,
      "jan": 1356,
      "31": 1357,
      "count": 1358,
      "1995": 1359,
      "six": 1360,
      "##iz": 1361,
      "1997": 1362,
      "quarter": 1363,
      "william": 1364,
      "##enix": 1365,
      "up": 1366,
      "##veland": 1367,
      "sen": 1368,
      "##urs": 1369,
      "##oma": 1370,
      "##bruary": 1371,
      "bob": 1372,
      "##uck": 1373,
      "phoenix": 1374,
      "##ansas": 1375,
      "cleveland": 1376,
      "bl": 1377,
      "lou": 1378,
      "february": 1379,
      "##lah": 1380,
      "ste": 1381,
      "##wauke": 1382,
      "##waukee": 1383,
      "america": 1384,
      "pac": 1385,
      "milwaukee": 1386,
      "pts": 1387,
      "##ins": 1388,
      "192": 1389,
      "##rac": 1390,
      "##age": 1391,
      "##als": 1392,
      "1992": 1393,
      "james": 1394,
      "tex": 1395,
      "##asts": 1396,
      "senior": 1397,
      "lead": 1398,
      "##ings": 1399,
      "2nd": 1400,
      "##ik": 1401,
      "00": 1402,
      "american": 1403,
      "they": 1404,
      "##ony": 1405,
      "1991": 1406,
      "during": 1407,
      "players": 1408,
      "##rebs": 1409,
      "bill": 1410,
      "##lahoma": 1411,
      "har": 1412,
      "32": 1413,
      "bulls": 1414,
      "pa": 1415,
      "charl": 1416,
      "teams": 1417,
      "##ota": 1418,
      "spurs": 1419,
      "oklahoma": 1420,
      ".\"": 1421,
      "ed": 1422,
      "##ould": 1423,
      "##nder": 1424,
      "heat": 1425,
      "january": 1426,
      "col": 1427,
      "##roit": 1428,
      "port": 1429,
      "##ifinal": 1430,
      "tra": 1431,
      "##ional": 1432,
      "bar": 1433,
      "minn": 1434,
      "1994": 1435,
      "detroit": 1436,
      "knicks": 1437,
      "jul": 1438,
      "mc": 1439,
      "award": 1440,
      "jack": 1441,
      "assists": 1442,
      "semifinal": 1443,
      "against": 1444,
      "utah": 1445,
      "##own": 1446,
      "dall": 1447,
      "golden": 1448,
      "2013": 1449,
      "pres": 1450,
      "##ace": 1451,
      "man": 1452,
      "lar": 1453,
      "scoring": 1454,
      "off": 1455,
      "sc": 1456,
      "##pt": 1457,
      "den": 1458,
      "rs": 1459,
      "1993": 1460,
      "ab": 1461,
      "haw": 1462,
      "##ier": 1463,
      "##og": 1464,
      "dallas": 1465,
      "val": 1466,
      "rockets": 1467,
      "portland": 1468,
      "johnson": 1469,
      "##ville": 1470,
      "##urr": 1471,
      "1990": 1472,
      "playoffs": 1473,
      "##cem": 1474,
      "kent": 1475,
      "most": 1476,
      "##unity": 1477,
      "sign": 1478,
      "williams": 1479,
      "head": 1480,
      "mike": 1481,
      "##00000": 1482,
      "texas": 1483,
      "##urn": 1484,
      "show": 1485,
      "en": 1486,
      "community": 1487,
      "we": 1488,
      "sel": 1489,
      "cav": 1490,
      "hist": 1491,
      "louis": 1492,
      "fin": 1493,
      "el": 1494,
      "suns": 1495,
      "##ali": 1496,
      "nov": 1497,
      "1989": 1498,
      "##ass": 1499,
      "how": 1500,
      "1984": 1501,
      "apr": 1502,
      "##ash": 1503,
      "##cember": 1504,
      "who": 1505,
      "1986": 1506,
      "2014": 1507,
      "cal": 1508,
      "eastern": 1509,
      "december": 1510,
      "april": 1511,
      "1988": 1512,
      "##ined": 1513,
      "##ler": 1514,
      "history": 1515,
      "atlanta": 1516,
      "1987": 1517,
      "ret": 1518,
      "##ther": 1519,
      "##rd": 1520,
      "1980": 1521,
      "##ett": 1522,
      "july": 1523,
      "george": 1524,
      "##gin": 1525,
      "ev": 1526,
      "field": 1527,
      "76ers": 1528,
      "shoot": 1529,
      "34": 1530,
      "##ium": 1531,
      "##ally": 1532,
      "##cl": 1533,
      "western": 1534,
      "cavali": 1535,
      "cavaliers": 1536,
      "june": 1537,
      "maver": 1538,
      "##pm": 1539,
      "nets": 1540,
      "pist": 1541,
      "33": 1542,
      "wil": 1543,
      "la": 1544,
      "su": 1545,
      "men": 1546,
      "1985": 1547,
      "pistons": 1548,
      "--": 1549,
      "mavericks": 1550,
      "smith": 1551,
      "country": 1552,
      "us": 1553,
      "75": 1554,
      "southern": 1555,
      "aver": 1556,
      "##esota": 1557,
      "minnesota": 1558,
      "would": 1559,
      "##ona": 1560,
      "hav": 1561,
      "which": 1562,
      "##ure": 1563,
      "##mar": 1564,
      "res": 1565,
      "kansas": 1566,
      "##ced": 1567,
      "##ucky": 1568,
      "##let": 1569,
      "years": 1570,
      "##ino": 1571,
      "mill": 1572,
      "1976": 1573,
      "79": 1574,
      "##ire": 1575,
      "1983": 1576,
      "only": 1577,
      "64": 1578,
      "atlantic": 1579,
      "35": 1580,
      "bec": 1581,
      "1979": 1582,
      "lost": 1583,
      "bucks": 1584,
      "##amed": 1585,
      "##igan": 1586,
      "kentucky": 1587,
      "november": 1588,
      "##ata": 1589,
      "denver": 1590,
      "vir": 1591,
      "gr": 1592,
      "##ersey": 1593,
      "73": 1594,
      "select": 1595,
      "##ki": 1596,
      "68": 1597,
      "69": 1598,
      "##oll": 1599,
      "blaz": 1600,
      "no": 1601,
      "ja": 1602,
      "day": 1603,
      "1982": 1604,
      "hawks": 1605,
      "##out": 1606,
      "##ince": 1607,
      "georg": 1608,
      "##erry": 1609,
      "74": 1610,
      "70": 1611,
      "##ous": 1612,
      "seed": 1613,
      "##ne": 1614,
      "000000000000000": 1615,
      "green": 1616,
      "may": 1617,
      "71": 1618,
      "wor": 1619,
      "##ition": 1620,
      "1970": 1621,
      "67": 1622,
      "##mph": 1623,
      "shooting": 1624,
      "flor": 1625,
      "##ial": 1626,
      "##ael": 1627,
      "3rd": 1628,
      "aug": 1629,
      "tor": 1630,
      "##ric": 1631,
      "77": 1632,
      "##apt": 1633,
      "66": 1634,
      "jersey": 1635,
      "##ble": 1636,
      "72": 1637,
      "start": 1638,
      "##ugg": 1639,
      "this": 1640,
      "data": 1641,
      "names": 1642,
      "august": 1643,
      "third": 1644,
      "36": 1645,
      "##bert": 1646,
      "michigan": 1647,
      "trail": 1648,
      "##ose": 1649,
      "so": 1650,
      "blazers": 1651,
      "made": 1652,
      "##ones": 1653,
      "78": 1654,
      "1975": 1655,
      "82": 1656,
      "##ott": 1657,
      "florid": 1658,
      "has": 1659,
      "winning": 1660,
      "mag": 1661,
      "1977": 1662,
      "coast": 1663,
      "50": 1664,
      "##ner": 1665,
      "ath": 1666,
      "63": 1667,
      "81": 1668,
      "##les": 1669,
      "wal": 1670,
      "nit": 1671,
      "1981": 1672,
      "1978": 1673,
      "clipp": 1674,
      "defe": 1675,
      "ft": 1676,
      "##ock": 1677,
      "mid": 1678,
      "2016": 1679,
      "clippers": 1680,
      "##ford": 1681,
      "1974": 1682,
      "##pace": 1683,
      "##ice": 1684,
      "detect": 1685,
      "app": 1686,
      "2015": 1687,
      "showall": 1688,
      "namespace": 1689,
      "##ves": 1690,
      "65": 1691,
      "000": 1692,
      "virgin": 1693,
      "home": 1694,
      "##mphis": 1695,
      "memphis": 1696,
      "62": 1697,
      "2017": 1698,
      "tech": 1699,
      "virginia": 1700,
      "##sp": 1701,
      "finish": 1702,
      ").": 1703,
      "##oy": 1704,
      "junior": 1705,
      "swe": 1706,
      "paul": 1707,
      "are": 1708,
      "##otte": 1709,
      "##attle": 1710,
      "##west": 1711,
      "bay": 1712,
      "dts": 1713,
      "eight": 1714,
      "##oci": 1715,
      "charlotte": 1716,
      "jackson": 1717,
      "37": 1718,
      "present": 1719,
      "##cent": 1720,
      "1971": 1721,
      "40": 1722,
      "jazz": 1723,
      "ac": 1724,
      "brown": 1725,
      "named": 1726,
      "##ary": 1727,
      "out2": 1728,
      "part": 1729,
      "min": 1730,
      "led": 1731,
      "wa": 1732,
      "60": 1733,
      "florida": 1734,
      "associ": 1735,
      "##onto": 1736,
      "00000000000000000": 1737,
      "##ang": 1738,
      "toronto": 1739,
      "##orts": 1740,
      "0000000000000000000000": 1741,
      "scored": 1742,
      "gri": 1743,
      "59": 1744,
      "80": 1745,
      "pacers": 1746,
      "2018": 1747,
      "mo": 1748,
      "57": 1749,
      "since": 1750,
      "athlet": 1751,
      "38": 1752,
      "61": 1753,
      "mcc": 1754,
      "83": 1755,
      "mon": 1756,
      "cam": 1757,
      "##leans": 1758,
      "overall": 1759,
      "orleans": 1760,
      "par": 1761,
      "42": 1762,
      "1972": 1763,
      "58": 1764,
      "pow": 1765,
      "##ired": 1766,
      "##ven": 1767,
      "1969": 1768,
      "56": 1769,
      "horn": 1770,
      "rook": 1771,
      "##ater": 1772,
      "seattle": 1773,
      "##tim": 1774,
      "92": 1775,
      "free": 1776,
      "missou": 1777,
      "magic": 1778,
      "##endance": 1779,
      "nugg": 1780,
      "run": 1781,
      "ear": 1782,
      "1973": 1783,
      "back": 1784,
      "averag": 1785,
      "##co": 1786,
      "nuggets": 1787,
      "##vin": 1788,
      "##ats": 1789,
      "2019": 1790,
      "##fore": 1791,
      "end": 1792,
      "stev": 1793,
      "kings": 1794,
      "mary": 1795,
      "chris": 1796,
      "##ale": 1797,
      "##able": 1798,
      "joined": 1799,
      "ill": 1800,
      "signed": 1801,
      "mv": 1802,
      "##op": 1803,
      "41": 1804,
      "##hio": 1805,
      "missouri": 1806,
      "84": 1807,
      "##oor": 1808,
      "before": 1809,
      "1967": 1810,
      "ohio": 1811,
      "##ank": 1812,
      "39": 1813,
      "david": 1814,
      "have": 1815,
      "qu": 1816,
      "former": 1817,
      "##ract": 1818,
      "##ić": 1819,
      "53": 1820,
      "##eron": 1821,
      "rookie": 1822,
      "85": 1823,
      "don": 1824,
      "##inc": 1825,
      "loss": 1826,
      "##ees": 1827,
      "54": 1828,
      "##rick": 1829,
      "##ath": 1830,
      "rece": 1831,
      "##itt": 1832,
      "rapt": 1833,
      "##thony": 1834,
      "##ood": 1835,
      "##lando": 1836,
      "##clud": 1837,
      "pre": 1838,
      "dan": 1839,
      "55": 1840,
      "fiba": 1841,
      "association": 1842,
      "raptors": 1843,
      "52": 1844,
      "86": 1845,
      "1968": 1846,
      "87": 1847,
      "its": 1848,
      "five": 1849,
      "when": 1850,
      "##ordan": 1851,
      "comp": 1852,
      "him": 1853,
      "uc": 1854,
      "##ights": 1855,
      "44": 1856,
      "##to": 1857,
      "45": 1858,
      "each": 1859,
      "sports": 1860,
      "orlando": 1861,
      "89": 1862,
      "contract": 1863,
      "##ents": 1864,
      "best": 1865,
      "43": 1866,
      "jim": 1867,
      "acc": 1868,
      "##use": 1869,
      "cup": 1870,
      "left": 1871,
      "##ib": 1872,
      "##ied": 1873,
      "georgia": 1874,
      "sk": 1875,
      "franch": 1876,
      "stad": 1877,
      "##tic": 1878,
      "4th": 1879,
      "##ob": 1880,
      "ben": 1881,
      "thu": 1882,
      "2020": 1883,
      "bid": 1884,
      "traded": 1885,
      "tit": 1886,
      "88": 1887,
      "##evin": 1888,
      "hornets": 1889,
      "mvp": 1890,
      "stadium": 1891,
      "##ferees": 1892,
      "sup": 1893,
      "semifinals": 1894,
      "last": 1895,
      "96": 1896,
      "now": 1897,
      "tr": 1898,
      "jordan": 1899,
      "oct": 1900,
      "davis": 1901,
      "sac": 1902,
      "##gan": 1903,
      "esp": 1904,
      "93": 1905,
      "includ": 1906,
      "kevin": 1907,
      "jones": 1908,
      "191": 1909,
      "##riz": 1910,
      "defeated": 1911,
      "power": 1912,
      "nc": 1913,
      "##inois": 1914,
      "51": 1915,
      "brook": 1916,
      "je": 1917,
      "anthony": 1918,
      "##bur": 1919,
      "michael": 1920,
      "##ived": 1921,
      "cameron": 1922,
      "rich": 1923,
      "##ober": 1924,
      "inter": 1925,
      "october": 1926,
      "became": 1927,
      "seasons": 1928,
      "##ny": 1929,
      "post": 1930,
      "ariz": 1931,
      "ten": 1932,
      "2021": 1933,
      "cons": 1934,
      "illinois": 1935,
      "##mond": 1936,
      "##olves": 1937,
      "small": 1938,
      "##row": 1939,
      "00pm": 1940,
      "rus": 1941,
      "##erm": 1942,
      "##ek": 1943,
      "1963": 1944,
      "##esse": 1945,
      "46": 1946,
      "91": 1947,
      "prof": 1948,
      "mark": 1949,
      "##ult": 1950,
      "thunder": 1951,
      "##ss": 1952,
      "score": 1953,
      "##cats": 1954,
      "sacr": 1955,
      "48": 1956,
      "98": 1957,
      "larry": 1958,
      "##go": 1959,
      "##ide": 1960,
      "sl": 1961,
      "place": 1962,
      "ann": 1963,
      "hall": 1964,
      "##hile": 1965,
      "wom": 1966,
      "##amento": 1967,
      "5th": 1968,
      "world": 1969,
      "franchise": 1970,
      "sacramento": 1971,
      "tom": 1972,
      "sweet": 1973,
      "95": 1974,
      "vic": 1975,
      "##ards": 1976,
      "pat": 1977,
      "sy": 1978,
      "tenn": 1979,
      "under": 1980,
      "percent": 1981,
      "90": 1982,
      "49": 1983,
      "fl": 1984,
      "while": 1985,
      "##ral": 1986,
      "appear": 1987,
      "##ations": 1988,
      "][": 1989,
      "can": 1990,
      "##east": 1991,
      "women": 1992,
      "##ollow": 1993,
      "sept": 1994,
      "september": 1995,
      "pm": 1996,
      "##arden": 1997,
      "valley": 1998,
      "timber": 1999,
      "##ane": 2000,
      "espn": 2001,
      "47": 2002,
      "indoor": 2003,
      "##wolves": 2004,
      "##ham": 2005,
      "op": 2006,
      "red": 2007,
      "mor": 2008,
      "calif": 2009,
      "##zzl": 2010,
      "follow": 2011,
      "nr": 2012,
      "##ison": 2013,
      "##for": 2014,
      "timberwolves": 2015,
      "cap": 2016,
      "rob": 2017,
      "minut": 2018,
      "##urrent": 2019,
      "seven": 2020,
      "mac": 2021,
      "californ": 2022,
      "##zzlies": 2023,
      "california": 2024,
      "grizzlies": 2025,
      "member": 2026,
      "##by": 2027,
      "pet": 2028,
      "07": 2029,
      "athletic": 2030,
      "##gr": 2031,
      "mem": 2032,
      "sal": 2033,
      "##essee": 2034,
      "conn": 2035,
      "box": 2036,
      "profess": 2037,
      "##referees": 2038,
      "tennessee": 2039,
      "colise": 2040,
      "08": 2041,
      "current": 2042,
      "rep": 2043,
      "trade": 2044,
      "coliseum": 2045,
      "cr": 2046,
      "##ensive": 2047,
      "dun": 2048,
      "pe": 2049,
      "##ald": 2050,
      "1966": 2051,
      "##attendance": 2052,
      "lu": 2053,
      "later": 2054,
      "1964": 2055,
      "1960": 2056,
      "dou": 2057,
      "09": 2058,
      "94": 2059,
      "vs": 2060,
      "selected": 2061,
      "more": 2062,
      "##are": 2063,
      "##ama": 2064,
      "##ara": 2065,
      "arizona": 2066,
      "then": 2067,
      "##ster": 2068,
      "97": 2069,
      "other": 2070,
      "##ney": 2071,
      "allen": 2072,
      "##jur": 2073,
      "finished": 2074,
      "professional": 2075,
      "loc": 2076,
      "##ron": 2077,
      "99": 2078,
      "mont": 2079,
      "injur": 2080,
      "1965": 2081,
      "##ating": 2082,
      "playing": 2083,
      "06": 2084,
      "jeff": 2085,
      "6th": 2086,
      "char": 2087,
      "brad": 2088,
      "wiz": 2089,
      "##template": 2090,
      "1962": 2091,
      "des": 2092,
      "##uro": 2093,
      "##bl": 2094,
      "minutes": 2095,
      "wizards": 2096,
      "long": 2097,
      "been": 2098,
      "att": 2099,
      "ke": 2100,
      "##ker": 2101,
      "am": 2102,
      "##ever": 2103,
      "losing": 2104,
      "##ely": 2105,
      "connect": 2106,
      "wn": 2107,
      "##ider": 2108,
      "pos": 2109,
      "ray": 2110,
      "03": 2111,
      "howard": 2112,
      "05": 2113,
      "##final": 2114,
      "##ourt": 2115,
      "##yn": 2116,
      "scott": 2117,
      "##ado": 2118,
      "thom": 2119,
      "return": 2120,
      "##ious": 2121,
      "euro": 2122,
      "exp": 2123,
      "percentage": 2124,
      "##ange": 2125,
      "thomas": 2126,
      "ever": 2127,
      "oly": 2128,
      "mal": 2129,
      "##lyn": 2130,
      "phil": 2131,
      "##rew": 2132,
      "club": 2133,
      "jerry": 2134,
      "ty": 2135,
      "following": 2136,
      "##osh": 2137,
      "##ment": 2138,
      "num": 2139,
      "tri": 2140,
      "cur": 2141,
      "tn": 2142,
      "youn": 2143,
      "both": 2144,
      "##ger": 2145,
      "##icut": 2146,
      "connecticut": 2147,
      "04": 2148,
      "however": 2149,
      "vict": 2150,
      "##teen": 2151,
      "way": 2152,
      "color": 2153,
      "1948": 2154,
      "##els": 2155,
      "##bers": 2156,
      "own": 2157,
      "rick": 2158,
      "##key": 2159,
      "into": 2160,
      "##ions": 2161,
      "gen": 2162,
      "1959": 2163,
      "##inson": 2164,
      "||": 2165,
      "iow": 2166,
      "wnba": 2167,
      "ca": 2168,
      "rights": 2169,
      "iowa": 2170,
      "top": 2171,
      "olymp": 2172,
      "##ana": 2173,
      "##yle": 2174,
      "1957": 2175,
      "##ade": 2176,
      "mov": 2177,
      "##anc": 2178,
      "dr": 2179,
      "where": 2180,
      "##ico": 2181,
      "##ved": 2182,
      "bri": 2183,
      "hal": 2184,
      "pan": 2185,
      "##ette": 2186,
      "tony": 2187,
      "##und": 2188,
      "##ati": 2189,
      "camp": 2190,
      "1958": 2191,
      "##aint": 2192,
      "went": 2193,
      "averaged": 2194,
      "steals": 2195,
      "roy": 2196,
      "1961": 2197,
      "1955": 2198,
      "frank": 2199,
      "tel": 2200,
      "defensive": 2201,
      "rod": 2202,
      "brooklyn": 2203,
      "tot": 2204,
      "##cut": 2205,
      "semifinalist": 2206,
      "##sell": 2207,
      "bird": 2208,
      "##way": 2209,
      "steve": 2210,
      "##ield": 2211,
      "superson": 2212,
      "supersonics": 2213,
      "##ola": 2214,
      "lb": 2215,
      "01": 2216,
      "1950": 2217,
      "##ind": 2218,
      "imp": 2219,
      "dom": 2220,
      "##olis": 2221,
      "louisville": 2222,
      "1956": 2223,
      "2022": 2224,
      "joe": 2225,
      "7th": 2226,
      "thr": 2227,
      "kr": 2228,
      "##ars": 2229,
      "##su": 2230,
      "##ought": 2231,
      "##ws": 2232,
      "being": 2233,
      "##ual": 2234,
      "##ze": 2235,
      "fres": 2236,
      "##lv": 2237,
      "##ull": 2238,
      "championships": 2239,
      "02": 2240,
      "court": 2241,
      "double": 2242,
      "##ano": 2243,
      "butler": 2244,
      "##ep": 2245,
      "hill": 2246,
      "sum": 2247,
      "##ific": 2248,
      "##burg": 2249,
      "##rist": 2250,
      "maryland": 2251,
      "##bi": 2252,
      "bet": 2253,
      "fa": 2254,
      "sixteen": 2255,
      "##bor": 2256,
      "her": 2257,
      "kg": 2258,
      "met": 2259,
      "##incinn": 2260,
      "set": 2261,
      "penn": 2262,
      "receive": 2263,
      "sa": 2264,
      "well": 2265,
      "1954": 2266,
      "hon": 2267,
      "born": 2268,
      "central": 2269,
      "cincinn": 2270,
      "med": 2271,
      "##reg": 2272,
      "##urray": 2273,
      "##time": 2274,
      "cash": 2275,
      "gar": 2276,
      "ron": 2277,
      "##iate": 2278,
      "regional": 2279,
      "did": 2280,
      "##cap": 2281,
      "mer": 2282,
      "##racuse": 2283,
      "1953": 2284,
      "cincinnati": 2285,
      "name": 2286,
      "quarterfinal": 2287,
      "through": 2288,
      "tro": 2289,
      "##atch": 2290,
      "str": 2291,
      "blo": 2292,
      ")[": 2293,
      "bry": 2294,
      "##isc": 2295,
      "ppg": 2296,
      "##kins": 2297,
      "ball": 2298,
      "murray": 2299,
      "list": 2300,
      "title": 2301,
      "wins": 2302,
      "##cutive": 2303,
      "##apolis": 2304,
      "consider": 2305,
      "dick": 2306,
      "tar": 2307,
      "bullets": 2308,
      "rem": 2309,
      "cro": 2310,
      "##sh": 2311,
      "sw": 2312,
      "##ve": 2313,
      "syracuse": 2314,
      "just": 2315,
      "white": 2316,
      "##reak": 2317,
      "##pe": 2318,
      "du": 2319,
      "marc": 2320,
      "sim": 2321,
      "ala": 2322,
      "##oud": 2323,
      "young": 2324,
      "conse": 2325,
      "along": 2326,
      "##ild": 2327,
      "1952": 2328,
      "leg": 2329,
      "add": 2330,
      "##berts": 2331,
      "##ase": 2332,
      "##field": 2333,
      "##ai": 2334,
      "open": 2335,
      "russell": 2336,
      "del": 2337,
      "dec": 2338,
      "southwest": 2339,
      "##til": 2340,
      "elite": 2341,
      "fg": 2342,
      "riv": 2343,
      "saint": 2344,
      "##right": 2345,
      "drake": 2346,
      "prev": 2347,
      "##bron": 2348,
      "##ann": 2349,
      "million": 2350,
      "announ": 2351,
      "neal": 2352,
      "curry": 2353,
      "1949": 2354,
      "fourth": 2355,
      "until": 2356,
      "ol": 2357,
      "runner": 2358,
      "##anov": 2359,
      "blocks": 2360,
      "foot": 2361,
      "##bama": 2362,
      "rel": 2363,
      "about": 2364,
      "aust": 2365,
      "throw": 2366,
      "artic": 2367,
      "inv": 2368,
      "robinson": 2369,
      "aba": 2370,
      "soph": 2371,
      "##he": 2372,
      "recap": 2373,
      "carl": 2374,
      "si": 2375,
      "##ada": 2376,
      "article": 2377,
      "ra": 2378,
      "sophom": 2379,
      "total": 2380,
      "lebron": 2381,
      "she": 2382,
      "blue": 2383,
      "hol": 2384,
      "na": 2385,
      "ucla": 2386,
      "bal": 2387,
      "waived": 2388,
      "sam": 2389,
      "awards": 2390,
      "compet": 2391,
      "##ius": 2392,
      "100": 2393,
      "##ils": 2394,
      "##season": 2395,
      "old": 2396,
      "##ines": 2397,
      "##can": 2398,
      "domin": 2399,
      "fac": 2400,
      "leon": 2401,
      "##lex": 2402,
      "##enc": 2403,
      "alabama": 2404,
      "sophomore": 2405,
      "pur": 2406,
      "including": 2407,
      "##kansas": 2408,
      "ot": 2409,
      "mex": 2410,
      "large": 2411,
      "rank": 2412,
      "##cis": 2413,
      "##orm": 2414,
      "goal": 2415,
      "offic": 2416,
      "amar": 2417,
      "##itz": 2418,
      "##gu": 2419,
      "madison": 2420,
      "held": 2421,
      "roberts": 2422,
      "ant": 2423,
      "##led": 2424,
      "miller": 2425,
      "carm": 2426,
      "started": 2427,
      "overtime": 2428,
      "arkansas": 2429,
      "##ical": 2430,
      "adv": 2431,
      "##ots": 2432,
      "times": 2433,
      "earn": 2434,
      "fred": 2435,
      "ii": 2436,
      "black": 2437,
      "edd": 2438,
      "rpg": 2439,
      "garden": 2440,
      "##rid": 2441,
      "cre": 2442,
      "ger": 2443,
      "1951": 2444,
      "than": 2445,
      "sport": 2446,
      "class": 2447,
      "##ving": 2448,
      "##onz": 2449,
      "francis": 2450,
      "dar": 2451,
      "bryant": 2452,
      "ny": 2453,
      "victory": 2454,
      "doug": 2455,
      "stars": 2456,
      "ham": 2457,
      "sant": 2458,
      "due": 2459,
      "##ania": 2460,
      "bobcats": 2461,
      "stan": 2462,
      "previous": 2463,
      "##gers": 2464,
      "sky": 2465,
      "tul": 2466,
      "##enny": 2467,
      "##uct": 2468,
      "pl": 2469,
      "##itch": 2470,
      "jam": 2471,
      "##ted": 2472,
      "dis": 2473,
      "help": 2474,
      "dave": 2475,
      "##19": 2476,
      "##ling": 2477,
      "1946": 2478,
      "die": 2479,
      "known": 2480,
      "low": 2481,
      "steph": 2482,
      "av": 2483,
      "1947": 2484,
      "stoud": 2485,
      "leads": 2486,
      "harris": 2487,
      "christ": 2488,
      "found": 2489,
      "fut": 2490,
      "jason": 2491,
      "##eg": 2492,
      "ta": 2493,
      "event": 2494,
      "fresh": 2495,
      "host": 2496,
      "coaches": 2497,
      "##aly": 2498,
      "number": 2499,
      "early": 2500,
      "##but": 2501,
      "opp": 2502,
      "jose": 2503,
      "southeast": 2504,
      "gl": 2505,
      "lew": 2506,
      "tnt": 2507,
      "result": 2508,
      "future": 2509,
      "began": 2510,
      "bradley": 2511,
      "##icip": 2512,
      "apg": 2513,
      "##her": 2514,
      "consecutive": 2515,
      "rec": 2516,
      "##mpson": 2517,
      "bow": 2518,
      "hard": 2519,
      "##der": 2520,
      "##onsin": 2521,
      "##isconsin": 2522,
      "roster": 2523,
      "##xt": 2524,
      "cham": 2525,
      "##zy": 2526,
      "main": 2527,
      "pacific": 2528,
      "announced": 2529,
      "##uel": 2530,
      "tied": 2531,
      "wisconsin": 2532,
      "##1000000": 2533,
      "diego": 2534,
      "assistant": 2535,
      "mexico": 2536,
      "##ander": 2537,
      "agent": 2538,
      "gp": 2539,
      "der": 2540,
      "tur": 2541,
      "sing": 2542,
      "dep": 2543,
      "##ka": 2544,
      "8th": 2545,
      "cla": 2546,
      "##ja": 2547,
      "next": 2548,
      "greg": 2549,
      "##au": 2550,
      "bel": 2551,
      "jay": 2552,
      "##nis": 2553,
      "stra": 2554,
      "temp": 2555,
      "il": 2556,
      "ri": 2557,
      "bord": 2558,
      "##na": 2559,
      "em": 2560,
      "##ec": 2561,
      "0000000000000001000000": 2562,
      "position": 2563,
      "##jo": 2564,
      "tho": 2565,
      "##err": 2566,
      "brand": 2567,
      "id": 2568,
      "##ee": 2569,
      "cra": 2570,
      "##int": 2571,
      "them": 2572,
      "durant": 2573,
      "border": 2574,
      "lam": 2575,
      "3p": 2576,
      "500": 2577,
      "rand": 2578,
      "members": 2579,
      "er": 2580,
      "##hou": 2581,
      "vill": 2582,
      "##boro": 2583,
      "usa": 2584,
      "pit": 2585,
      "##oster": 2586,
      "carter": 2587,
      "##etown": 2588,
      "sr": 2589,
      "manag": 2590,
      "jr": 2591,
      "retired": 2592,
      "##my": 2593,
      "##ko": 2594,
      "colorado": 2595,
      "spg": 2596,
      "bra": 2597,
      "##phy": 2598,
      "leonard": 2599,
      "anderson": 2600,
      "winner": 2601,
      "##oming": 2602,
      "dean": 2603,
      "morris": 2604,
      "pf": 2605,
      "##emire": 2606,
      "stoudemire": 2607,
      "freshman": 2608,
      "log": 2609,
      "190": 2610,
      "##quar": 2611,
      "maj": 2612,
      "##avier": 2613,
      "sur": 2614,
      "date": 2615,
      "king": 2616,
      "alex": 2617,
      "gs": 2618,
      "od": 2619,
      "##ased": 2620,
      "aud": 2621,
      "bpg": 2622,
      "turn": 2623,
      "mpg": 2624,
      "##ended": 2625,
      "van": 2626,
      "##bo": 2627,
      "##atur": 2628,
      "recorded": 2629,
      "down": 2630,
      "##aqu": 2631,
      "##ady": 2632,
      "pop": 2633,
      "##aga": 2634,
      "##sa": 2635,
      "##itor": 2636,
      "coll": 2637,
      "shot": 2638,
      "leading": 2639,
      "air": 2640,
      "##ubl": 2641,
      "stand": 2642,
      "eric": 2643,
      "my": 2644,
      "iv": 2645,
      "bru": 2646,
      "remain": 2647,
      "thompson": 2648,
      "foster": 2649,
      "half": 2650,
      "wild": 2651,
      "intern": 2652,
      "louisiana": 2653,
      "##ween": 2654,
      "between": 2655,
      "desp": 2656,
      "wright": 2657,
      "lewis": 2658,
      "##alo": 2659,
      "trip": 2660,
      "##zews": 2661,
      "injury": 2662,
      "far": 2663,
      "ren": 2664,
      "josh": 2665,
      "##ery": 2666,
      "perfor": 2667,
      "##aska": 2668,
      "##issipp": 2669,
      "squar": 2670,
      "oreg": 2671,
      "oregon": 2672,
      "duncan": 2673,
      "##ates": 2674,
      "pay": 2675,
      "##any": 2676,
      "county": 2677,
      "##house": 2678,
      "valu": 2679,
      "gian": 2680,
      "mississipp": 2681,
      "mississippi": 2682,
      "exch": 2683,
      "stephen": 2684,
      "ha": 2685,
      "mount": 2686,
      "krzy": 2687,
      "krzyzews": 2688,
      "malone": 2689,
      "##gram": 2690,
      "jer": 2691,
      "square": 2692,
      "xavier": 2693,
      "despite": 2694,
      "##ju": 2695,
      "inst": 2696,
      "##uer": 2697,
      "oh": 2698,
      "location": 2699,
      "##ez": 2700,
      "form": 2701,
      "exchange": 2702,
      "dre": 2703,
      "postseason": 2704,
      "acqu": 2705,
      "##emplate": 2706,
      "selection": 2707,
      "there": 2708,
      "straight": 2709,
      "nick": 2710,
      "##thers": 2711,
      "hay": 2712,
      "##ques": 2713,
      "francisco": 2714,
      "eddie": 2715,
      "30pm": 2716,
      "legend": 2717,
      "beat": 2718,
      "temple": 2719,
      "tig": 2720,
      "ir": 2721,
      "rest": 2722,
      "mart": 2723,
      "gener": 2724,
      "li": 2725,
      "krzyzewski": 2726,
      ".)": 2727,
      "##ips": 2728,
      "nash": 2729,
      "richmond": 2730,
      "stew": 2731,
      "charles": 2732,
      "brian": 2733,
      "richard": 2734,
      "shar": 2735,
      "enter": 2736,
      "valuable": 2737,
      "reach": 2738,
      "fam": 2739,
      "robert": 2740,
      "cor": 2741,
      "sg": 2742,
      "week": 2743,
      "##oel": 2744,
      "|-": 2745,
      "##ife": 2746,
      "took": 2747,
      "greens": 2748,
      "##ccess": 2749,
      "forest": 2750,
      "do": 2751,
      "hor": 2752,
      "wood": 2753,
      "auditor": 2754,
      "ho": 2755,
      "oak": 2756,
      "##imin": 2757,
      "auditorium": 2758,
      "##ingham": 2759,
      "##mpo": 2760,
      "tay": 2761,
      "##anova": 2762,
      "ken": 2763,
      "##etok": 2764,
      "greensboro": 2765,
      "##ounmpo": 2766,
      "antetok": 2767,
      "gary": 2768,
      "antetokounmpo": 2769,
      "ga": 2770,
      "wake": 2771,
      "##lain": 2772,
      "alb": 2773,
      "##rie": 2774,
      "baylor": 2775,
      "gonz": 2776,
      "##ark": 2777,
      "starting": 2778,
      "tigers": 2779,
      "lee": 2780,
      "success": 2781,
      "##idd": 2782,
      "winners": 2783,
      "deal": 2784,
      "particip": 2785,
      "##aking": 2786,
      "##mons": 2787,
      "tre": 2788,
      "northeast": 2789,
      "villanova": 2790,
      "bur": 2791,
      "call": 2792,
      "##ym": 2793,
      "##cast": 2794,
      "fort": 2795,
      "sil": 2796,
      "wayne": 2797,
      "##99": 2798,
      "sever": 2799,
      "law": 2800,
      "riley": 2801,
      "many": 2802,
      "pol": 2803,
      "##lin": 2804,
      "nik": 2805,
      "##ert": 2806,
      "montana": 2807,
      "oppon": 2808,
      "##won": 2809,
      "##ica": 2810,
      "##nes": 2811,
      "month": 2812,
      "wat": 2813,
      "##ublic": 2814,
      "considerations": 2815,
      "##ita": 2816,
      "gonzaga": 2817,
      "prov": 2818,
      "used": 2819,
      "##oughtry": 2820,
      "santa": 2821,
      "ju": 2822,
      "memor": 2823,
      "act": 2824,
      "tulsa": 2825,
      "ended": 2826,
      "joseph": 2827,
      "##lace": 2828,
      "mcd": 2829,
      "##ffalo": 2830,
      "wildcats": 2831,
      "picks": 2832,
      "program": 2833,
      "##las": 2834,
      "returned": 2835,
      "midd": 2836,
      "buffalo": 2837,
      "wade": 2838,
      "##act": 2839,
      "georgetown": 2840,
      "##ues": 2841,
      "##ily": 2842,
      "\",": 2843,
      "same": 2844,
      "northern": 2845,
      "contin": 2846,
      "statist": 2847,
      "##ys": 2848,
      "taylor": 2849,
      "##aun": 2850,
      "103": 2851,
      "match": 2852,
      "asian": 2853,
      "##ident": 2854,
      "mccoughtry": 2855,
      "##atemplate": 2856,
      "person": 2857,
      "austin": 2858,
      "1941": 2859,
      "##due": 2860,
      "days": 2861,
      "mi": 2862,
      "earned": 2863,
      "##bil": 2864,
      "chamber": 2865,
      "pitts": 2866,
      "aviv": 2867,
      "stewart": 2868,
      "tie": 2869,
      "tv": 2870,
      "impro": 2871,
      "##usk": 2872,
      "tx": 2873,
      "evans": 2874,
      "summer": 2875,
      "##vis": 2876,
      "##red": 2877,
      "rounds": 2878,
      "##ester": 2879,
      "##bc": 2880,
      "unc": 2881,
      "##olph": 2882,
      "lake": 2883,
      "norm": 2884,
      "##ances": 2885,
      "karl": 2886,
      "1942": 2887,
      "##emy": 2888,
      "fall": 2889,
      "douglas": 2890,
      "lo": 2891,
      "##rest": 2892,
      "davidson": 2893,
      "##ichael": 2894,
      "key": 2895,
      "ba": 2896,
      "chamberlain": 2897,
      "land": 2898,
      "spr": 2899,
      "101": 2900,
      "##rell": 2901,
      "good": 2902,
      "1945": 2903,
      "teamm": 2904,
      "##wards": 2905,
      "104": 2906,
      "giannis": 2907,
      "##ually": 2908,
      "##elo": 2909,
      "##burgh": 2910,
      "qual": 2911,
      "sixth": 2912,
      "single": 2913,
      "##elton": 2914,
      "quarterfinals": 2915,
      "missed": 2916,
      "dayton": 2917,
      "##adow": 2918,
      "lyn": 2919,
      "##ided": 2920,
      "fame": 2921,
      "##ense": 2922,
      "##ave": 2923,
      "dw": 2924,
      "##igned": 2925,
      "purdue": 2926,
      "drafted": 2927,
      "billy": 2928,
      "sf": 2929,
      "mass": 2930,
      "moved": 2931,
      "style": 2932,
      "##que": 2933,
      "ell": 2934,
      "unlv": 2935,
      "triple": 2936,
      "midwest": 2937,
      "##ending": 2938,
      "hen": 2939,
      "europe": 2940,
      "averaging": 2941,
      "az": 2942,
      "loy": 2943,
      "life": 2944,
      "##other": 2945,
      "##ention": 2946,
      "general": 2947,
      "##giate": 2948,
      "fif": 2949,
      "##ams": 2950,
      "ford": 2951,
      "harold": 2952,
      "mitch": 2953,
      "##wood": 2954,
      "102": 2955,
      "gym": 2956,
      "bud": 2957,
      "mountain": 2958,
      "charter": 2959,
      "est": 2960,
      "line": 2961,
      "inc": 2962,
      "##eapolis": 2963,
      "1944": 2964,
      "pal": 2965,
      "##aug": 2966,
      "##alen": 2967,
      "##str": 2968,
      "currently": 2969,
      "football": 2970,
      "##gie": 2971,
      "##haw": 2972,
      "mig": 2973,
      "os": 2974,
      "##ović": 2975,
      "campus": 2976,
      "pg": 2977,
      "##aho": 2978,
      "events": 2979,
      "broad": 2980,
      "merc": 2981,
      "##uc": 2982,
      "grant": 2983,
      "still": 2984,
      "nine": 2985,
      "bol": 2986,
      "pittsburgh": 2987,
      "##ism": 2988,
      "##ups": 2989,
      "##ury": 2990,
      "mu": 2991,
      "marqu": 2992,
      "-?": 2993,
      "great": 2994,
      "cit": 2995,
      "=\"": 2996,
      "duques": 2997,
      "duquesne": 2998,
      "beh": 2999,
      "another": 3000,
      "received": 3001,
      "##nett": 3002,
      "memorial": 3003,
      "ru": 3004,
      "1939": 3005,
      "stanford": 3006,
      "dame": 3007,
      "##day": 3008,
      "##timore": 3009,
      "##ining": 3010,
      "make": 3011,
      "acquired": 3012,
      "minneapolis": 3013,
      "##étic": 3014,
      "atlétic": 3015,
      "griff": 3016,
      "art": 3017,
      "##ather": 3018,
      "international": 3019,
      "any": 3020,
      "barry": 3021,
      "105": 3022,
      "##alth": 3023,
      "notre": 3024,
      "baltimore": 3025,
      "rival": 3026,
      "ref": 3027,
      "##abb": 3028,
      "walker": 3029,
      "moore": 3030,
      "odom": 3031,
      "##ef": 3032,
      "abc": 3033,
      "##je": 3034,
      "var": 3035,
      "abd": 3036,
      "##ittle": 3037,
      "came": 3038,
      "kidd": 3039,
      "##irk": 3040,
      "##eter": 3041,
      "##iac": 3042,
      "average": 3043,
      "pointers": 3044,
      "##ries": 3045,
      "##ized": 3046,
      "pass": 3047,
      "##wens": 3048,
      "##erd": 3049,
      "bc": 3050,
      "andre": 3051,
      "repla": 3052,
      "idaho": 3053,
      ",[": 3054,
      "sean": 3055,
      "official": 3056,
      "opponent": 3057,
      "##bro": 3058,
      "dev": 3059,
      "##onn": 3060,
      "performan": 3061,
      "titles": 3062,
      "##iled": 3063,
      "##pres": 3064,
      "wallace": 3065,
      "fans": 3066,
      "##iving": 3067,
      "capit": 3068,
      "several": 3069,
      "coaching": 3070,
      "fieldhouse": 3071,
      "marsh": 3072,
      "##ially": 3073,
      "##ility": 3074,
      "honor": 3075,
      "libert": 3076,
      "##med": 3077,
      "nev": 3078,
      "1940": 3079,
      "repres": 3080,
      "##ilton": 3081,
      "md": 3082,
      "debut": 3083,
      "major": 3084,
      "##uss": 3085,
      "some": 3086,
      "attendance": 3087,
      "records": 3088,
      "marcus": 3089,
      "indian": 3090,
      "colon": 3091,
      "dam": 3092,
      "grand": 3093,
      "macca": 3094,
      "island": 3095,
      "luc": 3096,
      "right": 3097,
      "00000000000000099": 3098,
      "0000000000000009900000": 3099,
      "featur": 3100,
      "1943": 3101,
      "##ridge": 3102,
      "##ement": 3103,
      "miguel": 3104,
      "maccabi": 3105,
      "##atic": 3106,
      "brun": 3107,
      "##get": 3108,
      "appearance": 3109,
      "bench": 3110,
      "rose": 3111,
      "orig": 3112,
      "1937": 3113,
      "##elson": 3114,
      "##bia": 3115,
      "ven": 3116,
      "streak": 3117,
      "unif": 3118,
      "marquette": 3119,
      "##utom": 3120,
      "##za": 3121,
      "##iff": 3122,
      "shaqu": 3123,
      "siena": 3124,
      "parker": 3125,
      "##obe": 3126,
      "cond": 3127,
      "##well": 3128,
      "##march": 3129,
      "afric": 3130,
      "##cept": 3131,
      "##pped": 3132,
      "little": 3133,
      "web": 3134,
      "shadow": 3135,
      "tal": 3136,
      "##stra": 3137,
      "##gest": 3138,
      "uniform": 3139,
      "block": 3140,
      "matt": 3141,
      "qualif": 3142,
      "##iven": 3143,
      "honors": 3144,
      "derrick": 3145,
      "sta": 3146,
      "##mon": 3147,
      "108": 3148,
      "##leston": 3149,
      "terry": 3150,
      "comb": 3151,
      "sub": 3152,
      "##ink": 3153,
      "##oney": 3154,
      "hun": 3155,
      "##ults": 3156,
      "sol": 3157,
      "##ese": 3158,
      "fifth": 3159,
      "##eros": 3160,
      "statistics": 3161,
      "public": 3162,
      "knight": 3163,
      "royals": 3164,
      "pier": 3165,
      "vot": 3166,
      "##ikos": 3167,
      "behind": 3168,
      "109": 3169,
      "106": 3170,
      "kyle": 3171,
      "union": 3172,
      "##temp": 3173,
      "results": 3174,
      "felton": 3175,
      "least": 3176,
      "loyola": 3177,
      "##sy": 3178,
      "pri": 3179,
      "harden": 3180,
      "shots": 3181,
      "martin": 3182,
      "called": 3183,
      "nevada": 3184,
      "tall": 3185,
      "buck": 3186,
      "son": 3187,
      "##men": 3188,
      "appearances": 3189,
      "nelson": 3190,
      "child": 3191,
      "metro": 3192,
      "edwards": 3193,
      "beca": 3194,
      "because": 3195,
      "(.": 3196,
      "late": 3197,
      "##ffer": 3198,
      "107": 3199,
      "1936": 3200,
      "ber": 3201,
      "file": 3202,
      "clem": 3203,
      "mur": 3204,
      "indianapolis": 3205,
      "jar": 3206,
      "##ni": 3207,
      "css": 3208,
      "attemp": 3209,
      "ent": 3210,
      "mel": 3211,
      "alth": 3212,
      "pba": 3213,
      "##head": 3214,
      "##cu": 3215,
      "abdul": 3216,
      "resp": 3217,
      "##avy": 3218,
      "ranked": 3219,
      "##ele": 3220,
      "christian": 3221,
      "such": 3222,
      "hold": 3223,
      "although": 3224,
      "short": 3225,
      "northwest": 3226,
      "111": 3227,
      "mills": 3228,
      "ap": 3229,
      "##elic": 3230,
      "era": 3231,
      "marshall": 3232,
      "##oul": 3233,
      "eag": 3234,
      "full": 3235,
      "seeded": 3236,
      "##no": 3237,
      "##awhi": 3238,
      "road": 3239,
      "spain": 3240,
      "arch": 3241,
      "##itzki": 3242,
      "wes": 3243,
      "nowitzki": 3244,
      "elimin": 3245,
      "broadcast": 3246,
      "page": 3247,
      "##tt": 3248,
      "##fa": 3249,
      "shaquille": 3250,
      "weber": 3251,
      "##brook": 3252,
      "mcg": 3253,
      "trans": 3254,
      "once": 3255,
      "##ini": 3256,
      "said": 3257,
      "manager": 3258,
      "ku": 3259,
      "##aul": 3260,
      "##iew": 3261,
      "##ms": 3262,
      "medal": 3263,
      "##ran": 3264,
      "colum": 3265,
      "ky": 3266,
      "via": 3267,
      "super": 3268,
      "real": 3269,
      "walter": 3270,
      "oper": 3271,
      "liberty": 3272,
      "113": 3273,
      "##ennis": 3274,
      "jon": 3275,
      "##itional": 3276,
      "raymond": 3277,
      "having": 3278,
      "patrick": 3279,
      "cross": 3280,
      "##udy": 3281,
      "silver": 3282,
      "dak": 3283,
      "mason": 3284,
      "beach": 3285,
      "craw": 3286,
      "brunson": 3287,
      "##acity": 3288,
      "##ove": 3289,
      "##oga": 3290,
      "##ren": 3291,
      "gard": 3292,
      "jabb": 3293,
      "making": 3294,
      "chang": 3295,
      "itatemplate": 3296,
      "mck": 3297,
      "jabbar": 3298,
      "##unn": 3299,
      "logo": 3300,
      "olympic": 3301,
      "sus": 3302,
      "fur": 3303,
      "ry": 3304,
      "10th": 3305,
      "seconds": 3306,
      "owner": 3307,
      "##sel": 3308,
      "0000000000000002": 3309,
      "slo": 3310,
      "helped": 3311,
      "prior": 3312,
      "break": 3313,
      "kobe": 3314,
      "keith": 3315,
      "1933": 3316,
      "120": 3317,
      "semi": 3318,
      "addition": 3319,
      "\".": 3320,
      "provid": 3321,
      "##mike": 3322,
      "9th": 3323,
      "billups": 3324,
      "charleston": 3325,
      "trophy": 3326,
      "10asts": 3327,
      "eachasts": 3328,
      "oakland": 3329,
      "##etts": 3330,
      "harry": 3331,
      "mikemike": 3332,
      "lsu": 3333,
      "garnett": 3334,
      "civ": 3335,
      "##ari": 3336,
      "##ission": 3337,
      "never": 3338,
      "worth": 3339,
      "iii": 3340,
      "hap": 3341,
      "clin": 3342,
      "##lvania": 3343,
      "##den": 3344,
      "##ible": 3345,
      "##ished": 3346,
      "las": 3347,
      "im": 3348,
      "nickn": 3349,
      "region": 3350,
      "southeastern": 3351,
      "##hawks": 3352,
      "0000000000000002000000": 3353,
      "earl": 3354,
      "##basket": 3355,
      "coached": 3356,
      "griffin": 3357,
      "##the": 3358,
      "work": 3359,
      "##ately": 3360,
      "carmichael": 3361,
      "nb": 3362,
      "1928": 3363,
      "even": 3364,
      "##ricted": 3365,
      "sloan": 3366,
      "aub": 3367,
      "kenn": 3368,
      "eff": 3369,
      "kawhi": 3370,
      "crawford": 3371,
      "could": 3372,
      "##inaikos": 3373,
      "##athinaikos": 3374,
      "panathinaikos": 3375,
      "pierce": 3376,
      "brack": 3377,
      "gene": 3378,
      "gray": 3379,
      "1938": 3380,
      "hamilton": 3381,
      "hapoel": 3382,
      "vander": 3383,
      "pennsy": 3384,
      "aff": 3385,
      "##wing": 3386,
      "appeared": 3387,
      "greason": 3388,
      "ros": 3389,
      "fil": 3390,
      "spring": 3391,
      "1932": 3392,
      "bobby": 3393,
      "techn": 3394,
      "pennsylvania": 3395,
      "every": 3396,
      "##oz": 3397,
      "##ón": 3398,
      "##čić": 3399,
      "114": 3400,
      "become": 3401,
      "##ty": 3402,
      "##lar": 3403,
      "fair": 3404,
      "##ani": 3405,
      "carmelo": 3406,
      "indep": 3407,
      "cost": 3408,
      "11th": 3409,
      "independ": 3410,
      "pelic": 3411,
      "conc": 3412,
      "commission": 3413,
      "going": 3414,
      "clemson": 3415,
      "dakota": 3416,
      "president": 3417,
      "ak": 3418,
      "susp": 3419,
      "##ga": 3420,
      "acad": 3421,
      "pelicans": 3422,
      "ext": 3423,
      "reggie": 3424,
      "civic": 3425,
      "danny": 3426,
      "##kić": 3427,
      "salle": 3428,
      "##edy": 3429,
      "##imp": 3430,
      "dominion": 3431,
      "112": 3432,
      "cas": 3433,
      "gra": 3434,
      "##ode": 3435,
      "##vers": 3436,
      "pav": 3437,
      "becoming": 3438,
      "robertson": 3439,
      "auburn": 3440,
      "##allen": 3441,
      "sid": 3442,
      "westbrook": 3443,
      "##kley": 3444,
      "nikola": 3445,
      "##otes": 3446,
      "note": 3447,
      ",\"": 3448,
      "stud": 3449,
      "alaska": 3450,
      "monro": 3451,
      "notable": 3452,
      "##ience": 3453,
      "rad": 3454,
      "chatt": 3455,
      "performance": 3456,
      "##oup": 3457,
      "barkley": 3458,
      "##ox": 3459,
      "##arks": 3460,
      "##chester": 3461,
      "wilk": 3462,
      "bowling": 3463,
      "oce": 3464,
      "wol": 3465,
      "collins": 3466,
      "devel": 3467,
      "int": 3468,
      "##atv": 3469,
      "fell": 3470,
      "eagles": 3471,
      "##eded": 3472,
      "##usetts": 3473,
      "##achusetts": 3474,
      "barnes": 3475,
      "gil": 3476,
      "##andler": 3477,
      "ola": 3478,
      "near": 3479,
      "##ute": 3480,
      "jimmy": 3481,
      "##nas": 3482,
      "press": 3483,
      "park": 3484,
      "que": 3485,
      "rub": 3486,
      "arm": 3487,
      "##berg": 3488,
      "##ugh": 3489,
      "book": 3490,
      "und": 3491,
      "milano": 3492,
      "1935": 3493,
      "away": 3494,
      "grad": 3495,
      "partiz": 3496,
      "1930": 3497,
      "##anooga": 3498,
      "monroe": 3499,
      "ou": 3500,
      "##nie": 3501,
      "##awn": 3502,
      "chattanooga": 3503,
      "compl": 3504,
      "##ively": 3505,
      "massachusetts": 3506,
      "shock": 3507,
      "##ogna": 3508,
      "bruce": 3509,
      "bologna": 3510,
      "fre": 3511,
      "##ground": 3512,
      "prom": 3513,
      "##ighton": 3514,
      "hart": 3515,
      "##lit": 3516,
      "##ovich": 3517,
      "##dog": 3518,
      "##ayette": 3519,
      "##areem": 3520,
      "drex": 3521,
      "dennis": 3522,
      "peter": 3523,
      "ryan": 3524,
      "wilson": 3525,
      "lin": 3526,
      "##enas": 3527,
      "##iah": 3528,
      "build": 3529,
      "##quent": 3530,
      "opening": 3531,
      "110": 3532,
      "contest": 3533,
      "bir": 3534,
      "##ress": 3535,
      "##dy": 3536,
      "ele": 3537,
      "gro": 3538,
      "tyler": 3539,
      "rodney": 3540,
      "devils": 3541,
      "nationality": 3542,
      "goals": 3543,
      "owens": 3544,
      "pct": 3545,
      "##ites": 3546,
      "dist": 3547,
      "albany": 3548,
      "russ": 3549,
      "providence": 3550,
      "runn": 3551,
      "1927": 3552,
      "bern": 3553,
      "olimp": 3554,
      "##hl": 3555,
      "canada": 3556,
      "fra": 3557,
      "##ma": 3558,
      "##asc": 3559,
      "yes": 3560,
      "##per": 3561,
      "stock": 3562,
      "1924": 3563,
      "personal": 3564,
      "capacity": 3565,
      "among": 3566,
      "occ": 3567,
      "mitchell": 3568,
      "ewing": 3569,
      "##be": 3570,
      "storm": 3571,
      "##ru": 3572,
      "##illard": 3573,
      "irving": 3574,
      "represent": 3575,
      "##ged": 3576,
      "chandler": 3577,
      "##ime": 3578,
      "randolph": 3579,
      "hu": 3580,
      "##ala": 3581,
      "##atest": 3582,
      "115": 3583,
      "greatest": 3584,
      "##atum": 3585,
      "##rop": 3586,
      "hit": 3587,
      "##chris": 3588,
      "charlie": 3589,
      "##ene": 3590,
      "1926": 3591,
      "hosted": 3592,
      "##bd": 3593,
      "1934": 3594,
      "background": 3595,
      "espn2": 3596,
      "##juwon": 3597,
      "olajuwon": 3598,
      "naism": 3599,
      "naismith": 3600,
      "deand": 3601,
      "founded": 3602,
      "teammate": 3603,
      "hand": 3604,
      "##ichita": 3605,
      "telev": 3606,
      "##ful": 3607,
      "##ised": 3608,
      "bub": 3609,
      "whalen": 3610,
      "##osed": 3611,
      "simmons": 3612,
      "##alc": 3613,
      "finalist": 3614,
      "kh": 3615,
      "wichita": 3616,
      "##cey": 3617,
      "chrischris": 3618,
      "competition": 3619,
      "lucas": 3620,
      "118": 3621,
      "ach": 3622,
      "fri": 3623,
      "creighton": 3624,
      "##acy": 3625,
      "alexander": 3626,
      "tallinn": 3627,
      "cous": 3628,
      "take": 3629,
      "wilt": 3630,
      "victor": 3631,
      "gas": 3632,
      "mult": 3633,
      "retire": 3634,
      "braves": 3635,
      "move": 3636,
      "##iday": 3637,
      "located": 3638,
      "olympics": 3639,
      "##yd": 3640,
      "toled": 3641,
      "knee": 3642,
      "kareem": 3643,
      "##its": 3644,
      "phog": 3645,
      "throws": 3646,
      "saw": 3647,
      "leader": 3648,
      "drew": 3649,
      "##uskies": 3650,
      "text": 3651,
      "##leton": 3652,
      "agre": 3653,
      "finishing": 3654,
      "iverson": 3655,
      "ram": 3656,
      "##irect": 3657,
      "popovich": 3658,
      "toledo": 3659,
      "mack": 3660,
      "##ected": 3661,
      "nbatv": 3662,
      "independent": 3663,
      "##form": 3664,
      "jokić": 3665,
      "hel": 3666,
      "##aker": 3667,
      "##igg": 3668,
      "11asts": 3669,
      "gasol": 3670,
      "faced": 3671,
      "##tern": 3672,
      "suffer": 3673,
      "payton": 3674,
      "chuck": 3675,
      "##onald": 3676,
      "lillard": 3677,
      "tbd": 3678,
      "andrew": 3679,
      "kenny": 3680,
      "1931": 3681,
      "conv": 3682,
      "mos": 3683,
      "##bed": 3684,
      "veg": 3685,
      "##fl": 3686,
      "##anced": 3687,
      "improved": 3688,
      "##dogs": 3689,
      "nbl": 3690,
      "classic": 3691,
      "harding": 3692,
      "jpg": 3693,
      "included": 3694,
      "vo": 3695,
      "##app": 3696,
      "like": 3697,
      "previously": 3698,
      "complet": 3699,
      "bell": 3700,
      "##sey": 3701,
      "mus": 3702,
      "nation": 3703,
      "rh": 3704,
      "brien": 3705,
      "austral": 3706,
      "put": 3707,
      "bold": 3708,
      "rogers": 3709,
      "highest": 3710,
      "1925": 3711,
      "listed": 3712,
      "rut": 3713,
      "wy": 3714,
      "instit": 3715,
      "hoc": 3716,
      "lamar": 3717,
      "holy": 3718,
      "you": 3719,
      "brandon": 3720,
      "hockey": 3721,
      "if": 3722,
      "wooden": 3723,
      "cook": 3724,
      "clark": 3725,
      "leaders": 3726,
      "owners": 3727,
      "age": 3728,
      "uconn": 3729,
      "asia": 3730,
      "brothers": 3731,
      "1929": 3732,
      "qualify": 3733,
      "invit": 3734,
      "kennedy": 3735,
      "split": 3736,
      "maine": 3737,
      "##eton": 3738,
      "philips": 3739,
      "card": 3740,
      "cib": 3741,
      "##lav": 3742,
      "##auncey": 3743,
      "cibona": 3744,
      "kerr": 3745,
      "clinch": 3746,
      "eventually": 3747,
      "area": 3748,
      "ks": 3749,
      "rash": 3750,
      "sparks": 3751,
      "dunk": 3752,
      "reached": 3753,
      "da": 3754,
      "##anding": 3755,
      "common": 3756,
      "augustus": 3757,
      "defeating": 3758,
      "injured": 3759,
      "rele": 3760,
      "much": 3761,
      "di": 3762,
      "veter": 3763,
      "usc": 3764,
      "phill": 3765,
      "dem": 3766,
      "lon": 3767,
      "unrest": 3768,
      "##aware": 3769,
      "france": 3770,
      "joel": 3771,
      "ups": 3772,
      "drag": 3773,
      "ni": 3774,
      "chauncey": 3775,
      "collegiate": 3776,
      "mcgu": 3777,
      "capt": 3778,
      "role": 3779,
      "boise": 3780,
      "##back": 3781,
      "##tep": 3782,
      "philipp": 3783,
      "##ails": 3784,
      "##allenge": 3785,
      "†,": 3786,
      "barc": 3787,
      "house": 3788,
      "unrestricted": 3789,
      "##ities": 3790,
      "116": 3791,
      "eng": 3792,
      "forum": 3793,
      "12asts": 3794,
      "##core": 3795,
      "considered": 3796,
      "middle": 3797,
      "site": 3798,
      "##zier": 3799,
      "iona": 3800,
      "summ": 3801,
      "troy": 3802,
      "these": 3803,
      "direct": 3804,
      "##side": 3805,
      "china": 3806,
      "##ski": 3807,
      "replaced": 3808,
      "autom": 3809,
      "reed": 3810,
      "##iver": 3811,
      "uns": 3812,
      "##aples": 3813,
      "sporting": 3814,
      "##bra": 3815,
      "##league": 3816,
      "va": 3817,
      "##car": 3818,
      "princ": 3819,
      "mcguire": 3820,
      "##etting": 3821,
      "fav": 3822,
      "huskies": 3823,
      "##vern": 3824,
      "dani": 3825,
      "inform": 3826,
      "gund": 3827,
      "disp": 3828,
      "##abl": 3829,
      "defending": 3830,
      "julius": 3831,
      "rivalry": 3832,
      "nj": 3833,
      "swept": 3834,
      "##roll": 3835,
      "squ": 3836,
      "belt": 3837,
      "invol": 3838,
      "##john": 3839,
      "group": 3840,
      "rudy": 3841,
      "##score": 3842,
      "##iod": 3843,
      "boxscore": 3844,
      "len": 3845,
      "##illo": 3846,
      "level": 3847,
      "pipp": 3848,
      "come": 3849,
      "italy": 3850,
      "##ator": 3851,
      "media": 3852,
      "##atas": 3853,
      "period": 3854,
      "##braska": 3855,
      "rul": 3856,
      "spart": 3857,
      "lynx": 3858,
      "nat": 3859,
      "without": 3860,
      "claim": 3861,
      "cbs": 3862,
      "##eth": 3863,
      "recru": 3864,
      "remaining": 3865,
      "rutgers": 3866,
      "franklin": 3867,
      "tallinna": 3868,
      "bog": 3869,
      "larrylar": 3870,
      "delaware": 3871,
      "larrylarry": 3872,
      "##ex": 3873,
      "scorer": 3874,
      "mat": 3875,
      "supp": 3876,
      "arenas": 3877,
      "richardson": 3878,
      "bron": 3879,
      "seventh": 3880,
      "125": 3881,
      "what": 3882,
      "##ences": 3883,
      "commissioner": 3884,
      "kell": 3885,
      "13asts": 3886,
      "##ued": 3887,
      "atlético": 3888,
      "opt": 3889,
      "conditional": 3890,
      "pippen": 3891,
      "hired": 3892,
      "nebraska": 3893,
      "advanced": 3894,
      "##bilt": 3895,
      "wesley": 3896,
      "bre": 3897,
      "staples": 3898,
      "et": 3899,
      "heels": 3900,
      "vanderbilt": 3901,
      "benn": 3902,
      "##ction": 3903,
      "johnny": 3904,
      "numbers": 3905,
      "strugg": 3906,
      "kal": 3907,
      "##uction": 3908,
      "stockton": 3909,
      "crow": 3910,
      "vegas": 3911,
      "mik": 3912,
      "decl": 3913,
      "henson": 3914,
      "price": 3915,
      "##ilion": 3916,
      "depaul": 3917,
      "ter": 3918,
      "automatic": 3919,
      "except": 3920,
      "live": 3921,
      "night": 3922,
      "mercury": 3923,
      "meet": 3924,
      "##ants": 3925,
      "brooks": 3926,
      "fitz": 3927,
      "##anch": 3928,
      "technical": 3929,
      "clara": 3930,
      "bracket": 3931,
      "123": 3932,
      "jefferson": 3933,
      "target": 3934,
      "hamp": 3935,
      "##eers": 3936,
      "opened": 3937,
      "##ucted": 3938,
      "zach": 3939,
      "##rett": 3940,
      "##fr": 3941,
      "walton": 3942,
      "plays": 3943,
      "spec": 3944,
      "1922": 3945,
      "beg": 3946,
      "ald": 3947,
      "throughout": 3948,
      "les": 3949,
      "##zo": 3950,
      "##nell": 3951,
      "##cus": 3952,
      "defense": 3953,
      "fish": 3954,
      "##ija": 3955,
      "information": 3956,
      "mcdonald": 3957,
      "past": 3958,
      "venue": 3959,
      "love": 3960,
      "family": 3961,
      "rivers": 3962,
      "pavilion": 3963,
      "pure": 3964,
      "##hatt": 3965,
      "durham": 3966,
      "##more": 3967,
      "##oods": 3968,
      "##ender": 3969,
      "lock": 3970,
      "tatum": 3971,
      "##igur": 3972,
      "injuries": 3973,
      "croat": 3974,
      "##less": 3975,
      "achie": 3976,
      "##ained": 3977,
      "##of": 3978,
      "though": 3979,
      "##ovan": 3980,
      "retirement": 3981,
      "##brad": 3982,
      "manhatt": 3983,
      "##ators": 3984,
      "mod": 3985,
      "northeastern": 3986,
      "allow": 3987,
      "1921": 3988,
      "##ario": 3989,
      "cole": 3990,
      "report": 3991,
      "##ansion": 3992,
      "priv": 3993,
      "**": 3994,
      "govern": 3995,
      "##oyd": 3996,
      "surp": 3997,
      "manhattan": 3998,
      "##keem": 3999,
      "americas": 4000,
      "stevens": 4001,
      "byu": 4002,
      "adri": 4003,
      "got": 4004,
      "nate": 4005,
      "##osa": 4006,
      "##self": 4007,
      "sent": 4008,
      "##ean": 4009,
      "122": 4010,
      "sched": 4011,
      "euroleague": 4012,
      "given": 4013,
      "##ental": 4014,
      "posted": 4015,
      "##iffer": 4016,
      "9asts": 4017,
      "foul": 4018,
      "##ideo": 4019,
      "pepp": 4020,
      "##jer": 4021,
      "##de": 4022,
      "holiday": 4023,
      "holl": 4024,
      "pir": 4025,
      "spect": 4026,
      "##izon": 4027,
      "suffered": 4028,
      "(#": 4029,
      "based": 4030,
      "##adar": 4031,
      "1923": 4032,
      "bank": 4033,
      "attended": 4034,
      "wi": 4035,
      "depart": 4036,
      "##bill": 4037,
      "gree": 4038,
      "german": 4039,
      "coug": 4040,
      "##ared": 4041,
      "denotes": 4042,
      "poll": 4043,
      "tournaments": 4044,
      "##ters": 4045,
      "father": 4046,
      "##utch": 4047,
      "barb": 4048,
      "##stics": 4049,
      "##iggins": 4050,
      "differ": 4051,
      "net": 4052,
      "vip": 4053,
      "dream": 4054,
      "akron": 4055,
      "ral": 4056,
      "##pat": 4057,
      "expansion": 4058,
      "roll": 4059,
      "kor": 4060,
      "pete": 4061,
      "sn": 4062,
      "##rod": 4063,
      "oceania": 4064,
      "corn": 4065,
      "117": 4066,
      "affil": 4067,
      "challenge": 4068,
      "##olm": 4069,
      "##gom": 4070,
      "##foods": 4071,
      "purefoods": 4072,
      "##sn": 4073,
      "awarded": 4074,
      "jacksonville": 4075,
      "decided": 4076,
      "lowry": 4077,
      "suspended": 4078,
      "##ges": 4079,
      "television": 4080,
      "princeton": 4081,
      "##eed": 4082,
      "##jan": 4083,
      "##once": 4084,
      "joining": 4085,
      "centre": 4086,
      "tourney": 4087,
      "##will": 4088,
      "##iga": 4089,
      "refer": 4090,
      "mystics": 4091,
      "laur": 4092,
      "119": 4093,
      "continued": 4094,
      "##raft": 4095,
      "around": 4096,
      "colonels": 4097,
      "ay": 4098,
      "##aron": 4099,
      "rodman": 4100,
      "clu": 4101,
      "sou": 4102,
      "respect": 4103,
      "##ken": 4104,
      "original": 4105,
      "##ten": 4106,
      "##iso": 4107,
      "##aine": 4108,
      "dale": 4109,
      "##agues": 4110,
      "exe": 4111,
      "slam": 4112,
      "##away": 4113,
      "##erek": 4114,
      "cunn": 4115,
      "maur": 4116,
      "peterson": 4117,
      "conf": 4118,
      "berth": 4119,
      "gardner": 4120,
      "cunningham": 4121,
      "ul": 4122,
      "##por": 4123,
      "teh": 4124,
      "##ribut": 4125,
      "nickname": 4126,
      "bad": 4127,
      "##para": 4128,
      "##ces": 4129,
      "tehran": 4130,
      "leagues": 4131,
      "##ray": 4132,
      "om": 4133,
      "wac": 4134,
      "##yane": 4135,
      "booker": 4136,
      "private": 4137,
      "14asts": 4138,
      "amarillo": 4139,
      "craig": 4140,
      "fisher": 4141,
      "devin": 4142,
      "adams": 4143,
      "nashville": 4144,
      "bernard": 4145,
      "get": 4146,
      "##standing": 4147,
      "span": 4148,
      "hills": 4149,
      "landry": 4150,
      "dro": 4151,
      "##lines": 4152,
      "cougars": 4153,
      "navy": 4154,
      "bears": 4155,
      "ralph": 4156,
      "beating": 4157,
      "bubas": 4158,
      "gundy": 4159,
      "mn": 4160,
      "himself": 4161,
      "added": 4162,
      "trac": 4163,
      "organ": 4164,
      "furman": 4165,
      "springfield": 4166,
      "building": 4167,
      "lbs": 4168,
      "##ahl": 4169,
      "seton": 4170,
      "twice": 4171,
      "vers": 4172,
      "##kan": 4173,
      "##lay": 4174,
      "montgom": 4175,
      "strong": 4176,
      "##quently": 4177,
      "montgomery": 4178,
      "mean": 4179,
      "arg": 4180,
      "prod": 4181,
      "entire": 4182,
      "ted": 4183,
      "schools": 4184,
      "##inkle": 4185,
      "cardinal": 4186,
      "##ister": 4187,
      "*,": 4188,
      "##ness": 4189,
      "121": 4190,
      "2023": 4191,
      "##ivid": 4192,
      "pargo": 4193,
      "fight": 4194,
      "australia": 4195,
      "few": 4196,
      "##ermen": 4197,
      "##oon": 4198,
      "##lost": 4199,
      "##án": 4200,
      "##inger": 4201,
      "ric": 4202,
      "vcu": 4203,
      "courtney": 4204,
      "gall": 4205,
      "valpara": 4206,
      "lot": 4207,
      "##orth": 4208,
      "##ural": 4209,
      "madrid": 4210,
      "worst": 4211,
      "naia": 4212,
      "valparaiso": 4213,
      "##cted": 4214,
      "buc": 4215,
      "fresno": 4216,
      "ver": 4217,
      "individ": 4218,
      "jump": 4219,
      "fired": 4220,
      "hartford": 4221,
      "##ps": 4222,
      "subse": 4223,
      "batt": 4224,
      "eliminated": 4225,
      "offer": 4226,
      "lat": 4227,
      "cover": 4228,
      "##erdine": 4229,
      "pepperdine": 4230,
      "jeremy": 4231,
      "beginn": 4232,
      "ward": 4233,
      "##ea": 4234,
      "pointer": 4235,
      "dwyane": 4236,
      "beermen": 4237,
      "tulane": 4238,
      "scot": 4239,
      "losses": 4240,
      "##arch": 4241,
      "ash": 4242,
      "clubs": 4243,
      "turkey": 4244,
      "hop": 4245,
      "##mouth": 4246,
      "olympiac": 4247,
      "randy": 4248,
      "outs": 4249,
      "olympiacos": 4250,
      "##cing": 4251,
      "marist": 4252,
      "uniforms": 4253,
      "walt": 4254,
      "erving": 4255,
      "bat": 4256,
      "mcm": 4257,
      "##iting": 4258,
      "recent": 4259,
      "##aila": 4260,
      "falls": 4261,
      "standings": 4262,
      "tak": 4263,
      "##mund": 4264,
      "##enders": 4265,
      "##ersen": 4266,
      "outstanding": 4267,
      "runners": 4268,
      "different": 4269,
      "format": 4270,
      "dome": 4271,
      "news": 4272,
      "european": 4273,
      "featured": 4274,
      "##ique": 4275,
      "763": 4276,
      "skip": 4277,
      "baa": 4278,
      "non": 4279,
      "rio": 4280,
      "turner": 4281,
      "those": 4282,
      "africa": 4283,
      "partizan": 4284,
      "germ": 4285,
      "gregg": 4286,
      "height": 4287,
      "airlines": 4288,
      "##dale": 4289,
      "##ile": 4290,
      "fla": 4291,
      "mull": 4292,
      "fan": 4293,
      "gine": 4294,
      "hend": 4295,
      "##line": 4296,
      "johnjohn": 4297,
      "wilkins": 4298,
      "river": 4299,
      "bon": 4300,
      "lim": 4301,
      "wyoming": 4302,
      "favor": 4303,
      "):": 4304,
      "kirk": 4305,
      "sat": 4306,
      "rochester": 4307,
      "quick": 4308,
      "##iatemplate": 4309,
      "bruins": 4310,
      "##anes": 4311,
      "released": 4312,
      "ginebra": 4313,
      "##orter": 4314,
      "##anks": 4315,
      "##ermont": 4316,
      "hof": 4317,
      "kk": 4318,
      "close": 4319,
      "turtemplate": 4320,
      "maurice": 4321,
      "##wealth": 4322,
      "commonwealth": 4323,
      "ced": 4324,
      "##gen": 4325,
      "northwestern": 4326,
      "undraft": 4327,
      "undrafted": 4328,
      "##port": 4329,
      "##olk": 4330,
      "surger": 4331,
      "look": 4332,
      "lind": 4333,
      "##gy": 4334,
      "##emic": 4335,
      "carlos": 4336,
      "bk": 4337,
      "case": 4338,
      "##opm": 4339,
      "boy": 4340,
      "developm": 4341,
      "croatia": 4342,
      "fever": 4343,
      "capital": 4344,
      "dal": 4345,
      "rice": 4346,
      "zadar": 4347,
      "2k": 4348,
      "see": 4349,
      "beginning": 4350,
      "um": 4351,
      "##ova": 4352,
      "cliff": 4353,
      "eventual": 4354,
      "##anda": 4355,
      "##inney": 4356,
      "##rady": 4357,
      "front": 4358,
      "mcgrady": 4359,
      "gord": 4360,
      "yug": 4361,
      "##tery": 4362,
      "##colle": 4363,
      "middleton": 4364,
      "staff": 4365,
      "##used": 4366,
      "lose": 4367,
      "donovan": 4368,
      "kalev": 4369,
      "nationals": 4370,
      "1920": 4371,
      "deandre": 4372,
      "evansville": 4373,
      "murphy": 4374,
      "branch": 4375,
      "gal": 4376,
      "##rence": 4377,
      "crum": 4378,
      "ending": 4379,
      "advance": 4380,
      "constr": 4381,
      "science": 4382,
      "lady": 4383,
      "dwight": 4384,
      "vince": 4385,
      "lor": 4386,
      "broke": 4387,
      "notes": 4388,
      "jenn": 4389,
      "pack": 4390,
      "ener": 4391,
      "lambert": 4392,
      "ast": 4393,
      "masc": 4394,
      "spoel": 4395,
      "laf": 4396,
      "doub": 4397,
      "garden19": 4398,
      "spoelstra": 4399,
      "surgery": 4400,
      "floor": 4401,
      "souza": 4402,
      "##burn": 4403,
      "##ha": 4404,
      "oral": 4405,
      "comets": 4406,
      "##biid": 4407,
      "embiid": 4408,
      "combined": 4409,
      "fairfield": 4410,
      "lafayette": 4411,
      "hayes": 4412,
      "mascot": 4413,
      "denny": 4414,
      "hugh": 4415,
      "ur": 4416,
      "##pa": 4417,
      "gradu": 4418,
      "bor": 4419,
      "base": 4420,
      "toney": 4421,
      "##han": 4422,
      "12th": 4423,
      "inducted": 4424,
      "contro": 4425,
      "helms": 4426,
      "thorn": 4427,
      "toy": 4428,
      "bye": 4429,
      "##ogn": 4430,
      "fed": 4431,
      "##tain": 4432,
      "harper": 4433,
      "##mingham": 4434,
      "##uced": 4435,
      "##eland": 4436,
      "birmingham": 4437,
      "want": 4438,
      "max": 4439,
      "intercolle": 4440,
      "##ermaine": 4441,
      "salt": 4442,
      "exper": 4443,
      "justin": 4444,
      "hampton": 4445,
      "argent": 4446,
      "gordon": 4447,
      "##rov": 4448,
      "bulldogs": 4449,
      "establ": 4450,
      "hot": 4451,
      "mott": 4452,
      "vis": 4453,
      "view": 4454,
      "able": 4455,
      "bus": 4456,
      "##rict": 4457,
      "##ela": 4458,
      "orange": 4459,
      "smart": 4460,
      "glen": 4461,
      "dirk": 4462,
      "##yo": 4463,
      "edmund": 4464,
      "intercollegiate": 4465,
      "##eks": 4466,
      "##los": 4467,
      "##eyer": 4468,
      "upset": 4469,
      "pitt": 4470,
      "spons": 4471,
      "reser": 4472,
      "successful": 4473,
      "oscar": 4474,
      "ll": 4475,
      "hawai": 4476,
      "wilkens": 4477,
      "vermont": 4478,
      "##det": 4479,
      "##eve": 4480,
      "fields": 4481,
      "ponce": 4482,
      "##ao": 4483,
      "##ighth": 4484,
      "ef": 4485,
      "ly": 4486,
      "##bury": 4487,
      "slov": 4488,
      "row": 4489,
      "##mi": 4490,
      "andersen": 4491,
      "##ension": 4492,
      "##uz": 4493,
      "waters": 4494,
      "##ict": 4495,
      "highl": 4496,
      "sixers": 4497,
      "ranking": 4498,
      "doc": 4499,
      "defeat": 4500,
      "dončić": 4501,
      "##rum": 4502,
      "cow": 4503,
      "bosh": 4504,
      "utep": 4505,
      "demar": 4506,
      "serbia": 4507,
      "contribut": 4508,
      "lawrence": 4509,
      "gb": 4510,
      "albert": 4511,
      "##lem": 4512,
      "peop": 4513,
      "foundation": 4514,
      "rebounding": 4515,
      "phillips": 4516,
      "very": 4517,
      "##jerry": 4518,
      "harv": 4519,
      "weight": 4520,
      "athletics": 4521,
      "blocked": 4522,
      "init": 4523,
      "##elvin": 4524,
      "ellis": 4525,
      "cast": 4526,
      "terr": 4527,
      "people": 4528,
      "sold": 4529,
      "##wright": 4530,
      "##uth": 4531,
      "local": 4532,
      "jerryjerry": 4533,
      "southland": 4534,
      "hakeem": 4535,
      "bennett": 4536,
      "##amo": 4537,
      "ricky": 4538,
      "drexel": 4539,
      "##ative": 4540,
      "129": 4541,
      "fc": 4542,
      "wo": 4543,
      "##dd": 4544,
      "tow": 4545,
      "morgan": 4546,
      "olimpija": 4547,
      "sites": 4548,
      "leones": 4549,
      "##antage": 4550,
      "##jon": 4551,
      "marked": 4552,
      "rap": 4553,
      "buzz": 4554,
      "soon": 4555,
      "development": 4556,
      "igu": 4557,
      "guth": 4558,
      "fly": 4559,
      "##eason": 4560,
      "preseason": 4561,
      "##ured": 4562,
      "steven": 4563,
      "entered": 4564,
      "changed": 4565,
      "dahl": 4566,
      "##elona": 4567,
      "bapt": 4568,
      "##ien": 4569,
      "watson": 4570,
      "cousy": 4571,
      "tacy": 4572,
      "##az": 4573,
      "##tis": 4574,
      "jerome": 4575,
      "rale": 4576,
      "sto": 4577,
      "sweep": 4578,
      "trent": 4579,
      "luka": 4580,
      "largest": 4581,
      "raleigh": 4582,
      "##ives": 4583,
      "willie": 4584,
      "capers": 4585,
      "##phil": 4586,
      "executive": 4587,
      "##eman": 4588,
      "mun": 4589,
      "##ios": 4590,
      "baptist": 4591,
      "##ead": 4592,
      "alvin": 4593,
      "mccar": 4594,
      "eurobasket": 4595,
      ":#": 4596,
      "derek": 4597,
      "##throp": 4598,
      "##avich": 4599,
      "250": 4600,
      "philphil": 4601,
      "##zer": 4602,
      "##rich": 4603,
      "##ting": 4604,
      "missing": 4605,
      "tir": 4606,
      "maravich": 4607,
      "##oper": 4608,
      "tracy": 4609,
      "trae": 4610,
      "gave": 4611,
      "##ateg": 4612,
      "align": 4613,
      "quarterfinalist": 4614,
      "reported": 4615,
      "##press": 4616,
      "grab": 4617,
      "##william": 4618,
      "nipp": 4619,
      "##iser": 4620,
      "reyn": 4621,
      "officially": 4622,
      "nippon": 4623,
      "hinkle": 4624,
      "ud": 4625,
      "|-|": 4626,
      "origin": 4627,
      "includes": 4628,
      "columbia": 4629,
      "##aign": 4630,
      "##mont": 4631,
      "burke": 4632,
      "eighth": 4633,
      "##idge": 4634,
      "poss": 4635,
      "athens": 4636,
      "bi": 4637,
      "dy": 4638,
      "##res": 4639,
      "##boy": 4640,
      "ade": 4641,
      "atléticos": 4642,
      "mckinney": 4643,
      "germán": 4644,
      "hughes": 4645,
      "##inos": 4646,
      "##reb": 4647,
      "##williams": 4648,
      "varese": 4649,
      "dix": 4650,
      "tart": 4651,
      "##lo": 4652,
      "hayward": 4653,
      "##rey": 4654,
      "##anded": 4655,
      "patri": 4656,
      "rhode": 4657,
      "aldridge": 4658,
      "hick": 4659,
      "kat": 4660,
      "mah": 4661,
      "wr": 4662,
      "prim": 4663,
      "beck": 4664,
      "##adoo": 4665,
      "better": 4666,
      "daly": 4667,
      "miles": 4668,
      "0000000000000003": 4669,
      "tenure": 4670,
      "import": 4671,
      "##eal": 4672,
      "##mers": 4673,
      "##aro": 4674,
      "copp": 4675,
      "failed": 4676,
      "must": 4677,
      "mcadoo": 4678,
      "hofstra": 4679,
      "##ilt": 4680,
      "coming": 4681,
      "advantage": 4682,
      "henry": 4683,
      "toyota": 4684,
      "chap": 4685,
      "spot": 4686,
      "ms": 4687,
      "force": 4688,
      "\".\"": 4689,
      "summit": 4690,
      "##stem": 4691,
      "stre": 4692,
      "1919": 4693,
      "reloc": 4694,
      "zar": 4695,
      "##olds": 4696,
      "company": 4697,
      "teammates": 4698,
      "webber": 4699,
      "##5referees": 4700,
      "annual": 4701,
      "analy": 4702,
      "daug": 4703,
      "##da": 4704,
      "##cond": 4705,
      "served": 4706,
      "athlete": 4707,
      "##air": 4708,
      "##ids": 4709,
      "institut": 4710,
      "individual": 4711,
      "##rack": 4712,
      "often": 4713,
      "monarch": 4714,
      "daniels": 4715,
      "henderson": 4716,
      "##4referees": 4717,
      "##elman": 4718,
      "longer": 4719,
      "lions": 4720,
      "##achi": 4721,
      "##lley": 4722,
      "order": 4723,
      "consist": 4724,
      "mch": 4725,
      "purp": 4726,
      "gin": 4727,
      "hom": 4728,
      "argentina": 4729,
      "categ": 4730,
      "holds": 4731,
      "barcelona": 4732,
      "rond": 4733,
      "##arena": 4734,
      "##ternal": 4735,
      "ig": 4736,
      "roundmarch": 4737,
      "antoni": 4738,
      "sand": 4739,
      "##par": 4740,
      "external": 4741,
      "##ody": 4742,
      "##uerto": 4743,
      "grande": 4744,
      "living": 4745,
      "##com": 4746,
      "palace": 4747,
      "monarchs": 4748,
      "##iet": 4749,
      "##ondon": 4750,
      "##bob": 4751,
      "##iring": 4752,
      "##esteve": 4753,
      "##second": 4754,
      "##odala": 4755,
      "elig": 4756,
      "stevesteve": 4757,
      "filip": 4758,
      "##nasium": 4759,
      "subsequently": 4760,
      "iguodala": 4761,
      "##ential": 4762,
      "puerto": 4763,
      "##bell": 4764,
      "keady": 4765,
      "bos": 4766,
      "##iang": 4767,
      "bayam": 4768,
      "wells": 4769,
      "##ency": 4770,
      "kelly": 4771,
      "brew": 4772,
      "##ras": 4773,
      "darius": 4774,
      "hans": 4775,
      "rams": 4776,
      "##aymond": 4777,
      "draymond": 4778,
      "##folk": 4779,
      "##ardo": 4780,
      "blake": 4781,
      "wilbur": 4782,
      "exception": 4783,
      "##iders": 4784,
      "powell": 4785,
      "reynolds": 4786,
      "mot": 4787,
      "##ceeded": 4788,
      "knights": 4789,
      "starter": 4790,
      "self": 4791,
      "vaqu": 4792,
      "americans": 4793,
      "gymnasium": 4794,
      "vaqueros": 4795,
      "offseason": 4796,
      "bib": 4797,
      "webs": 4798,
      "links": 4799,
      "cly": 4800,
      "##lie": 4801,
      "##acle": 4802,
      "##wayne": 4803,
      "participant": 4804,
      "squad": 4805,
      "wesleyan": 4806,
      "sloven": 4807,
      "vik": 4808,
      "##zar": 4809,
      "##ales": 4810,
      "andy": 4811,
      "##ither": 4812,
      "deroz": 4813,
      "horford": 4814,
      "keyarena": 4815,
      "derozan": 4816,
      "ül": 4817,
      "##num": 4818,
      "##ti": 4819,
      "##win": 4820,
      "multip": 4821,
      "##bach": 4822,
      "126": 4823,
      "room": 4824,
      "standing": 4825,
      "rondo": 4826,
      "jermaine": 4827,
      "vac": 4828,
      "124": 4829,
      "willis": 4830,
      "333": 4831,
      "##ried": 4832,
      "maac": 4833,
      "scottie": 4834,
      "jamal": 4835,
      "##hm": 4836,
      "##gerald": 4837,
      "##details": 4838,
      "originally": 4839,
      "analyst": 4840,
      "##ened": 4841,
      "##aney": 4842,
      "##ros": 4843,
      "edition": 4844,
      "attempts": 4845,
      "blair": 4846,
      "bayamón": 4847,
      "pot": 4848,
      "##asley": 4849,
      "offensive": 4850,
      "song": 4851,
      "finally": 4852,
      "damian": 4853,
      "district": 4854,
      "tartu": 4855,
      "website": 4856,
      "mourn": 4857,
      "rou": 4858,
      "zag": 4859,
      "patpat": 4860,
      "owned": 4861,
      "entertain": 4862,
      "vipers": 4863,
      "join": 4864,
      "facility": 4865,
      "earning": 4866,
      "hardaway": 4867,
      "russia": 4868,
      "claimed": 4869,
      "400": 4870,
      "##ments": 4871,
      "crowd": 4872,
      "tour": 4873,
      "operations": 4874,
      "300": 4875,
      "ice": 4876,
      "##udson": 4877,
      "eddy": 4878,
      "unsigned": 4879,
      "0000000000000003000000": 4880,
      "luke": 4881,
      "gill": 4882,
      "send": 4883,
      "quinn": 4884,
      "olson": 4885,
      "tam": 4886,
      "##hol": 4887,
      "##iak": 4888,
      "perkins": 4889,
      "30rebs": 4890,
      "dropped": 4891,
      "mourning": 4892,
      "jayhawks": 4893,
      "popular": 4894,
      "zarba": 4895,
      "respectively": 4896,
      "salem": 4897,
      "weekend": 4898,
      "childress": 4899,
      "promot": 4900,
      "greece": 4901,
      "sell": 4902,
      "byron": 4903,
      "signing": 4904,
      "mikan": 4905,
      "lang": 4906,
      "##ians": 4907,
      "mcne": 4908,
      "deb": 4909,
      "renamed": 4910,
      "construction": 4911,
      "gay": 4912,
      "##edom": 4913,
      "##aha": 4914,
      "acco": 4915,
      "wolf": 4916,
      "doubles": 4917,
      "##alachi": 4918,
      "winthrop": 4919,
      "##orns": 4920,
      "brought": 4921,
      "##ucker": 4922,
      "belg": 4923,
      "sharks": 4924,
      "incre": 4925,
      "sidney": 4926,
      "##alachian": 4927,
      "##icek": 4928,
      "germany": 4929,
      "tirana": 4930,
      "zie": 4931,
      "shawn": 4932,
      "appalachian": 4933,
      "kim": 4934,
      "rico": 4935,
      "##dome": 4936,
      "32rebs": 4937,
      "##aa": 4938,
      "29rebs": 4939,
      "rupp": 4940,
      "captain": 4941,
      "affiliate": 4942,
      "energy": 4943,
      "rat": 4944,
      "##anje": 4945,
      "northridge": 4946,
      "ziegen": 4947,
      "ara": 4948,
      "##ning": 4949,
      "hem": 4950,
      "feet": 4951,
      "goble": 4952,
      "osigur": 4953,
      "convention": 4954,
      "mir": 4955,
      "rom": 4956,
      "##fuss": 4957,
      "saund": 4958,
      "ziegenfuss": 4959,
      "auer": 4960,
      "dor": 4961,
      "associated": 4962,
      "juan": 4963,
      "auerbach": 4964,
      "8asts": 4965,
      "lop": 4966,
      "say": 4967,
      "##ush": 4968,
      "support": 4969,
      "others": 4970,
      "##elimin": 4971,
      "requ": 4972,
      "##ize": 4973,
      "weeks": 4974,
      "invitational": 4975,
      "1917": 4976,
      "immed": 4977,
      "pett": 4978,
      "majer": 4979,
      "established": 4980,
      "240": 4981,
      "glob": 4982,
      "##gar": 4983,
      "enke": 4984,
      "suc": 4985,
      "guthrie": 4986,
      "cut": 4987,
      "##unday": 4988,
      "##ban": 4989,
      "##ically": 4990,
      "##aving": 4991,
      "appro": 4992,
      "##onzo": 4993,
      "horizon": 4994,
      "zagreb": 4995,
      "gerry": 4996,
      "kur": 4997,
      "wall": 4998,
      "determ": 4999,
      "frazier": 5000,
      "##uk": 5001,
      "##ump": 5002,
      "spent": 5003,
      "sund": 5004,
      "southwestern": 5005,
      "months": 5006,
      "citiz": 5007,
      "##af": 5008,
      "##oslav": 5009,
      "##athan": 5010,
      "diam": 5011,
      "ia": 5012,
      "##stemplate": 5013,
      "130": 5014,
      "es": 5015,
      "##colm": 5016,
      "##ste": 5017,
      "malcolm": 5018,
      "khris": 5019,
      "clinched": 5020,
      "spartans": 5021,
      "samp": 5022,
      "vin": 5023,
      "##agara": 5024,
      "virt": 5025,
      "floridare": 5026,
      "mccrack": 5027,
      "system": 5028,
      "academic": 5029,
      "qualifying": 5030,
      "niagara": 5031,
      "spectrum": 5032,
      "filipino": 5033,
      "floridareferees": 5034,
      "mccracken": 5035,
      "##oke": 5036,
      "##min": 5037,
      "sting": 5038,
      "##elli": 5039,
      "1918": 5040,
      "##strong": 5041,
      "voted": 5042,
      "armstrong": 5043,
      "philippine": 5044,
      "lauren": 5045,
      "band": 5046,
      "##lee": 5047,
      "##imm": 5048,
      "carroll": 5049,
      "shel": 5050,
      "pau": 5051,
      "##icipal": 5052,
      "academy": 5053,
      "municipal": 5054,
      "liga": 5055,
      "totals": 5056,
      "##ways": 5057,
      "gain": 5058,
      "##licek": 5059,
      "havlicek": 5060,
      "1915": 5061,
      "##thy": 5062,
      "shaw": 5063,
      "phys": 5064,
      "let": 5065,
      "seating": 5066,
      "128": 5067,
      "gross": 5068,
      "gor": 5069,
      "vol": 5070,
      "cooper": 5071,
      "occurr": 5072,
      "matthe": 5073,
      "entertainment": 5074,
      "saunders": 5075,
      "##tario": 5076,
      "hec": 5077,
      "edmundson": 5078,
      "##kevin": 5079,
      "stats": 5080,
      "recording": 5081,
      "agreement": 5082,
      "loren": 5083,
      "bones": 5084,
      "##rus": 5085,
      "express": 5086,
      "sampson": 5087,
      "video": 5088,
      "##josh": 5089,
      "##aka": 5090,
      "joshjosh": 5091,
      "fold": 5092,
      "reno": 5093,
      "veteran": 5094,
      "baseball": 5095,
      "##ented": 5096,
      "peay": 5097,
      "alongside": 5098,
      "compete": 5099,
      "##ials": 5100,
      "prelimin": 5101,
      "##anna": 5102,
      "gw": 5103,
      "##gov": 5104,
      "needed": 5105,
      "##itted": 5106,
      "crit": 5107,
      "preliminary": 5108,
      "jac": 5109,
      "##80": 5110,
      "beasley": 5111,
      "norfolk": 5112,
      "adam": 5113,
      "campbell": 5114,
      "fitzgerald": 5115,
      "cand": 5116,
      "25rebs": 5117,
      "##eville": 5118,
      "formerly": 5119,
      "represented": 5120,
      "barbara": 5121,
      "##work": 5122,
      "inaug": 5123,
      "##isle": 5124,
      "##iversary": 5125,
      "##weet": 5126,
      "##court": 5127,
      "##ede": 5128,
      "ontario": 5129,
      "roundsecond": 5130,
      "averages": 5131,
      "include": 5132,
      "gerald": 5133,
      "give": 5134,
      "26rebs": 5135,
      "director": 5136,
      "##ls": 5137,
      "##ule": 5138,
      "##orge": 5139,
      "##ationally": 5140,
      "billbill": 5141,
      "mcwilliams": 5142,
      "track": 5143,
      "anniversary": 5144,
      "carlisle": 5145,
      "flag": 5146,
      "face": 5147,
      "mall": 5148,
      "fire": 5149,
      "herb": 5150,
      "surpass": 5151,
      "curtis": 5152,
      "summar": 5153,
      "internationally": 5154,
      "##nič": 5155,
      "efes": 5156,
      "mchale": 5157,
      "fer": 5158,
      "training": 5159,
      "kevinkevin": 5160,
      "music": 5161,
      "iba": 5162,
      "##greg": 5163,
      "##worth": 5164,
      "##apan": 5165,
      "lineup": 5166,
      "reserve": 5167,
      "ce": 5168,
      "rain": 5169,
      "##jev": 5170,
      "rev": 5171,
      "134": 5172,
      "oliver": 5173,
      "fact": 5174,
      "kris": 5175,
      "##ival": 5176,
      "campaign": 5177,
      "dispers": 5178,
      "erick": 5179,
      "gerard": 5180,
      "buzzer": 5181,
      "feat": 5182,
      "monte": 5183,
      "governors": 5184,
      "##mington": 5185,
      "uab": 5186,
      "selections": 5187,
      "jayson": 5188,
      "##eng": 5189,
      "friend": 5190,
      "change": 5191,
      "lump": 5192,
      "##hon": 5193,
      "today": 5194,
      "##unct": 5195,
      "neg": 5196,
      "offense": 5197,
      "organiz": 5198,
      "##etemplate": 5199,
      "brother": 5200,
      "gervin": 5201,
      "dispersal": 5202,
      "isiah": 5203,
      "ultim": 5204,
      "000000": 5205,
      "##enko": 5206,
      "morehead": 5207,
      "##iers": 5208,
      "adelman": 5209,
      "talk": 5210,
      "fighting": 5211,
      "mutom": 5212,
      "term": 5213,
      "##robasket": 5214,
      "merger": 5215,
      "conseco": 5216,
      "meeting": 5217,
      "mutombo": 5218,
      "forced": 5219,
      "##ulf": 5220,
      "alum": 5221,
      "rickrick": 5222,
      "lottery": 5223,
      "ob": 5224,
      "rab": 5225,
      "use": 5226,
      "##ensus": 5227,
      "##town": 5228,
      "ayton": 5229,
      "eri": 5230,
      "og": 5231,
      "##ij": 5232,
      "132": 5233,
      "inaugural": 5234,
      "cris": 5235,
      "taking": 5236,
      "215": 5237,
      "cruz": 5238,
      "nearly": 5239,
      "##jack": 5240,
      "1980s": 5241,
      "belmont": 5242,
      "bibby": 5243,
      "135": 5244,
      "butch": 5245,
      "schedule": 5246,
      "coppin": 5247,
      "aau": 5248,
      "struggled": 5249,
      "lue": 5250,
      "street": 5251,
      "light": 5252,
      "##fred": 5253,
      "131": 5254,
      "toros": 5255,
      "ivy": 5256,
      "archib": 5257,
      "ross": 5258,
      "allowed": 5259,
      "patriot": 5260,
      "##dt": 5261,
      "trades": 5262,
      "braz": 5263,
      "instead": 5264,
      "##ems": 5265,
      "artest": 5266,
      "stalc": 5267,
      "longest": 5268,
      "dragons": 5269,
      "stalcup": 5270,
      "##20": 5271,
      "brit": 5272,
      "agreed": 5273,
      "livingston": 5274,
      "##hib": 5275,
      "irv": 5276,
      "archibald": 5277,
      "mic": 5278,
      "mend": 5279,
      "pull": 5280,
      "lockout": 5281,
      "spanish": 5282,
      "multiple": 5283,
      "##va": 5284,
      "marvin": 5285,
      "consensus": 5286,
      "##keyes": 5287,
      "special": 5288,
      "##ores": 5289,
      "##ilar": 5290,
      "wilmington": 5291,
      "moses": 5292,
      "pettit": 5293,
      "pied": 5294,
      "stay": 5295,
      "1990s": 5296,
      "abs": 5297,
      "##7referees": 5298,
      "arth": 5299,
      "panthers": 5300,
      "arab": 5301,
      "800": 5302,
      "##6referees": 5303,
      "1914": 5304,
      "bas": 5305,
      "nin": 5306,
      "guay": 5307,
      "redick": 5308,
      "meanwell": 5309,
      "sny": 5310,
      "cov": 5311,
      "broken": 5312,
      "snyder": 5313,
      "##akes": 5314,
      "1913": 5315,
      "din": 5316,
      "should": 5317,
      "arr": 5318,
      "mvc": 5319,
      "##janov": 5320,
      "##illas": 5321,
      "210": 5322,
      "colonial": 5323,
      "african": 5324,
      "omaha": 5325,
      "built": 5326,
      "worthy": 5327,
      "cat": 5328,
      "lute": 5329,
      "rac": 5330,
      "##ements": 5331,
      "starzz": 5332,
      "floyd": 5333,
      "tarkan": 5334,
      "tarkanian": 5335,
      "ct": 5336,
      "##yon": 5337,
      "##wan": 5338,
      "127": 5339,
      "drexler": 5340,
      "patt": 5341,
      "##93": 5342,
      "##ulation": 5343,
      "followed": 5344,
      "action": 5345,
      "osiguranje": 5346,
      "fox": 5347,
      "##gi": 5348,
      "interim": 5349,
      "active": 5350,
      "tiven": 5351,
      "##over": 5352,
      "##ross": 5353,
      "ank": 5354,
      "aces": 5355,
      "succeeded": 5356,
      "sue": 5357,
      "##ret": 5358,
      "neil": 5359,
      "keep": 5360,
      "quebrad": 5361,
      "quebradillas": 5362,
      "##iro": 5363,
      "toget": 5364,
      "##amaal": 5365,
      "tying": 5366,
      "fuller": 5367,
      "together": 5368,
      "..": 5369,
      "rider": 5370,
      "##rael": 5371,
      "loser": 5372,
      "israel": 5373,
      "23rebs": 5374,
      "##ustr": 5375,
      "dahlberg": 5376,
      "nhl": 5377,
      "##cess": 5378,
      "##ilo": 5379,
      "jamison": 5380,
      "som": 5381,
      "##itive": 5382,
      "reid": 5383,
      "##ift": 5384,
      "bids": 5385,
      "hunter": 5386,
      "student": 5387,
      "linc": 5388,
      "##oher": 5389,
      "highlights": 5390,
      "hickman": 5391,
      "rejo": 5392,
      "agu": 5393,
      "donoher": 5394,
      "aaron": 5395,
      "sha": 5396,
      "lopez": 5397,
      "kar": 5398,
      "leaving": 5399,
      "plum": 5400,
      "physical": 5401,
      "shell": 5402,
      "aris": 5403,
      "alm": 5404,
      "vi": 5405,
      "decision": 5406,
      "remained": 5407,
      "korver": 5408,
      "less": 5409,
      "##ūnas": 5410,
      "##ouver": 5411,
      "##olog": 5412,
      "##ancouver": 5413,
      "porter": 5414,
      "##abe": 5415,
      "34rebs": 5416,
      "managed": 5417,
      "broadcasters": 5418,
      "##nero": 5419,
      "piratas": 5420,
      "clyde": 5421,
      "##oth": 5422,
      "##ols": 5423,
      "clar": 5424,
      "solid": 5425,
      "cc": 5426,
      "##fs": 5427,
      "##iness": 5428,
      "feb": 5429,
      "japan": 5430,
      "##stan": 5431,
      "regard": 5432,
      "220": 5433,
      "rí": 5434,
      "yao": 5435,
      "cho": 5436,
      "raised": 5437,
      "gib": 5438,
      "gators": 5439,
      "hudson": 5440,
      "vancouver": 5441,
      "##cott": 5442,
      "town": 5443,
      "##leavy": 5444,
      "##rade": 5445,
      "manu": 5446,
      "dunleavy": 5447,
      "gardens": 5448,
      "completed": 5449,
      "##aster": 5450,
      "1912": 5451,
      "##bili": 5452,
      "fordham": 5453,
      "involved": 5454,
      "chapp": 5455,
      "mauer": 5456,
      "chappell": 5457,
      "##fect": 5458,
      "##cal": 5459,
      "conferences": 5460,
      "bring": 5461,
      "##itting": 5462,
      "design": 5463,
      "##199": 5464,
      "jrue": 5465,
      "lack": 5466,
      "lenny": 5467,
      "##michael": 5468,
      "##10": 5469,
      "##ronn": 5470,
      "caa": 5471,
      "fellow": 5472,
      "yugoslav": 5473,
      "sponsor": 5474,
      "##olan": 5475,
      "189": 5476,
      "##mark": 5477,
      "seeding": 5478,
      "ely": 5479,
      "gulf": 5480,
      "tan": 5481,
      "##rian": 5482,
      "withd": 5483,
      "controvers": 5484,
      "cba": 5485,
      "mention": 5486,
      "##ns": 5487,
      "##gary": 5488,
      "##jeff": 5489,
      "río": 5490,
      "stint": 5491,
      "heart": 5492,
      "guards": 5493,
      "veterans": 5494,
      "hawaii": 5495,
      "daw": 5496,
      "gad": 5497,
      "abl": 5498,
      "jeffjeff": 5499,
      "lynn": 5500,
      "majerus": 5501,
      "lay": 5502,
      "##lington": 5503,
      "reun": 5504,
      "##obo": 5505,
      "legends": 5506,
      "outside": 5507,
      "##leod": 5508,
      "chase": 5509,
      "passed": 5510,
      "option": 5511,
      "mcmill": 5512,
      "xe": 5513,
      "x80": 5514,
      "##kes": 5515,
      "##hor": 5516,
      "##2referees": 5517,
      "##ising": 5518,
      "##encer": 5519,
      "kyrie": 5520,
      "xe2": 5521,
      "resigned": 5522,
      "rivals": 5523,
      "asheville": 5524,
      "##oux": 5525,
      "effort": 5526,
      "brazil": 5527,
      "kane": 5528,
      "##oln": 5529,
      "13th": 5530,
      "olimpia": 5531,
      "piedras": 5532,
      "damp": 5533,
      "hs": 5534,
      "youngest": 5535,
      "cardinals": 5536,
      "##ftime": 5537,
      "halftime": 5538,
      "roundsweet": 5539,
      "scotts": 5540,
      "##mount": 5541,
      "defunct": 5542,
      "multi": 5543,
      "cum": 5544,
      "sav": 5545,
      "soc": 5546,
      "180": 5547,
      "27rebs": 5548,
      "recogn": 5549,
      "trevis": 5550,
      "summary": 5551,
      "either": 5552,
      "wed": 5553,
      "within": 5554,
      "colors": 5555,
      "sharman": 5556,
      "wooll": 5557,
      "todd": 5558,
      "teague": 5559,
      "closed": 5560,
      "##ello": 5561,
      "750": 5562,
      "fayette": 5563,
      "getting": 5564,
      "setting": 5565,
      "##lu": 5566,
      "chance": 5567,
      "##che": 5568,
      "exhib": 5569,
      "fullerton": 5570,
      "cy": 5571,
      "ec": 5572,
      "competed": 5573,
      "hometown": 5574,
      "##inari": 5575,
      "##rej": 5576,
      "newark": 5577,
      "dampier": 5578,
      "ming": 5579,
      "##ikem": 5580,
      "parish": 5581,
      "donald": 5582,
      "##ibo": 5583,
      "1910": 5584,
      "gilbert": 5585,
      "battle": 5586,
      "##ta": 5587,
      "##{{": 5588,
      "##ises": 5589,
      "stated": 5590,
      "mother": 5591,
      "freedom": 5592,
      "gibson": 5593,
      "treviso": 5594,
      "leh": 5595,
      "marymount": 5596,
      "doll": 5597,
      "##icit": 5598,
      "##urce": 5599,
      "##abo": 5600,
      "quin": 5601,
      "santurce": 5602,
      "##bus": 5603,
      "##icka": 5604,
      "alleg": 5605,
      "changes": 5606,
      "grabbed": 5607,
      "jud": 5608,
      "##len": 5609,
      "seat": 5610,
      "health": 5611,
      "brent": 5612,
      "##uala": 5613,
      "business": 5614,
      "category": 5615,
      "##rington": 5616,
      "##olation": 5617,
      "##ika": 5618,
      "tommy": 5619,
      "##uskas": 5620,
      "##akim": 5621,
      "everett": 5622,
      "haywood": 5623,
      "refn": 5624,
      "cang": 5625,
      "nbc": 5626,
      "side": 5627,
      "pross": 5628,
      "upon": 5629,
      "raiders": 5630,
      "network": 5631,
      "##rejeros": 5632,
      "cangrejeros": 5633,
      "prosser": 5634,
      "yet": 5635,
      "engl": 5636,
      "fern": 5637,
      "##stown": 5638,
      "##george": 5639,
      "republic": 5640,
      "expected": 5641,
      "dominic": 5642,
      "gregggreg": 5643,
      "gregggregg": 5644,
      "##james": 5645,
      "alonzo": 5646,
      "invest": 5647,
      "600": 5648,
      "##iately": 5649,
      "##isius": 5650,
      "##lays": 5651,
      "reason": 5652,
      "coastal": 5653,
      "peps": 5654,
      "matched": 5655,
      "immediately": 5656,
      "jos": 5657,
      "##erts": 5658,
      "##ithu": 5659,
      "##ounds": 5660,
      "margin": 5661,
      "market": 5662,
      "tyson": 5663,
      "claws": 5664,
      "ruled": 5665,
      "##ui": 5666,
      "##ür": 5667,
      "##osing": 5668,
      "##quer": 5669,
      "skill": 5670,
      "canad": 5671,
      "canisius": 5672,
      "##jeremy": 5673,
      "jeremyjeremy": 5674,
      "rapids": 5675,
      "gir": 5676,
      "wik": 5677,
      "winston": 5678,
      "plus": 5679,
      "accompl": 5680,
      "vmi": 5681,
      "##ël": 5682,
      "section": 5683,
      "##roy": 5684,
      "marv": 5685,
      "picked": 5686,
      "commit": 5687,
      "##cement": 5688,
      "arec": 5689,
      "1916": 5690,
      "combes": 5691,
      "##ickaël": 5692,
      "ban": 5693,
      "##hen": 5694,
      "##erick": 5695,
      "##clus": 5696,
      "capitanes": 5697,
      "cir": 5698,
      "141": 5699,
      "##abc": 5700,
      "prote": 5701,
      "esttemplate": 5702,
      "sonny": 5703,
      "mccarthy": 5704,
      "pepsi": 5705,
      "died": 5706,
      "##sen": 5707,
      "spencer": 5708,
      "perry": 5709,
      "enough": 5710,
      "belgrade": 5711,
      "##eated": 5712,
      "##anthony": 5713,
      "15asts": 5714,
      "effect": 5715,
      "almost": 5716,
      "##zel": 5717,
      "stag": 5718,
      "marques": 5719,
      "225": 5720,
      "transfer": 5721,
      "sidel": 5722,
      "coleman": 5723,
      "snow": 5724,
      "##isa": 5725,
      "franchises": 5726,
      "arthur": 5727,
      "rejoined": 5728,
      "i̇": 5729,
      "##şti": 5730,
      "board": 5731,
      "##annon": 5732,
      "sioux": 5733,
      "purch": 5734,
      "hank": 5735,
      "pils": 5736,
      "michaelmichael": 5737,
      "earlier": 5738,
      "range": 5739,
      "x93": 5740,
      "stamp": 5741,
      "24rebs": 5742,
      "##ahe": 5743,
      "mili": 5744,
      "harrison": 5745,
      "children": 5746,
      "jennings": 5747,
      "cele": 5748,
      "##law": 5749,
      "jackie": 5750,
      "georgegeorge": 5751,
      "folded": 5752,
      "ninth": 5753,
      "lincoln": 5754,
      "exhibition": 5755,
      "lehigh": 5756,
      "pion": 5757,
      "##ailey": 5758,
      "##juan": 5759,
      "develop": 5760,
      "pilsen": 5761,
      "celebr": 5762,
      "disc": 5763,
      "kuala": 5764,
      "wid": 5765,
      "##brian": 5766,
      "##200": 5767,
      "battier": 5768,
      "thornton": 5769,
      "vacated": 5770,
      "lumpur": 5771,
      "##onis": 5772,
      "##andro": 5773,
      "elgin": 5774,
      "##ibility": 5775,
      "kend": 5776,
      "rfa": 5777,
      "wv": 5778,
      "##rim": 5779,
      "##bah": 5780,
      "deficit": 5781,
      "##anger": 5782,
      "turned": 5783,
      "organization": 5784,
      "arecibo": 5785,
      "##6000000": 5786,
      "cowens": 5787,
      "marion": 5788,
      "0000000000000004": 5789,
      "kemp": 5790,
      "lithu": 5791,
      "poor": 5792,
      "##ulia": 5793,
      "proble": 5794,
      "irvine": 5795,
      "placed": 5796,
      "dee": 5797,
      "benson": 5798,
      "declared": 5799,
      "fund": 5800,
      "jaw": 5801,
      "pra": 5802,
      "##3referees": 5803,
      "anahe": 5804,
      "##cover": 5805,
      "further": 5806,
      "wanted": 5807,
      "anaheim": 5808,
      "melvin": 5809,
      "occas": 5810,
      "dig": 5811,
      "##iaf": 5812,
      "##aps": 5813,
      "##evski": 5814,
      "##lahan": 5815,
      "cald": 5816,
      "callahan": 5817,
      "turiaf": 5818,
      "institute": 5819,
      "ankle": 5820,
      "fast": 5821,
      "##asch": 5822,
      "##endan": 5823,
      "22rebs": 5824,
      "minor": 5825,
      "farm": 5826,
      "partizani": 5827,
      "mav": 5828,
      "##bu": 5829,
      "guy": 5830,
      "jamesjames": 5831,
      "##gress": 5832,
      "bucknell": 5833,
      "mis": 5834,
      "##vez": 5835,
      "featuring": 5836,
      "##ttle": 5837,
      "comeback": 5838,
      "cer": 5839,
      "sar": 5840,
      "tier": 5841,
      "ariza": 5842,
      "garrett": 5843,
      "similar": 5844,
      "buch": 5845,
      "##incy": 5846,
      "ultimately": 5847,
      "##18": 5848,
      "##iaw": 5849,
      "trev": 5850,
      "matthews": 5851,
      "word": 5852,
      "sea": 5853,
      "##elta": 5854,
      "jared": 5855,
      "katie": 5856,
      "##cle": 5857,
      "booz": 5858,
      "agency": 5859,
      "28rebs": 5860,
      "mcge": 5861,
      "preced": 5862,
      "returning": 5863,
      "hoos": 5864,
      "elli": 5865,
      "feder": 5866,
      "english": 5867,
      "boozer": 5868,
      "giving": 5869,
      "vad": 5870,
      "##etti": 5871,
      "mercer": 5872,
      "involving": 5873,
      "limited": 5874,
      "##vena": 5875,
      "##star": 5876,
      "coca": 5877,
      "ask": 5878,
      "roger": 5879,
      "##vezda": 5880,
      "dikem": 5881,
      "##keith": 5882,
      "##unch": 5883,
      "accord": 5884,
      "complex": 5885,
      "bakers": 5886,
      "zvezda": 5887,
      "##uff": 5888,
      "arc": 5889,
      "rush": 5890,
      "crvena": 5891,
      "achieved": 5892,
      "##janovich": 5893,
      "##ito": 5894,
      "conley": 5895,
      "bynum": 5896,
      "pract": 5897,
      "elimination": 5898,
      "ownership": 5899,
      "##jam": 5900,
      "##gir": 5901,
      "sho": 5902,
      "whom": 5903,
      "bobbob": 5904,
      "noah": 5905,
      "meth": 5906,
      "pitino": 5907,
      "fraher": 5908,
      "malloy": 5909,
      "tomjanovich": 5910,
      "opener": 5911,
      "participated": 5912,
      "philippines": 5913,
      "withdrew": 5914,
      "delta": 5915,
      "##iling": 5916,
      "21rebs": 5917,
      "practice": 5918,
      "jamaal": 5919,
      "kir": 5920,
      "water": 5921,
      "##vi": 5922,
      "##ires": 5923,
      "warren": 5924,
      "##aniel": 5925,
      "canadian": 5926,
      "jalen": 5927,
      "gamesunday": 5928,
      "serv": 5929,
      "anthonyanthony": 5930,
      "moving": 5931,
      "darrell": 5932,
      "emm": 5933,
      "attempted": 5934,
      "concerts": 5935,
      "introd": 5936,
      "method": 5937,
      "cour": 5938,
      "fry": 5939,
      "vern": 5940,
      "##ready": 5941,
      "dickie": 5942,
      "columbus": 5943,
      "##frank": 5944,
      "aek": 5945,
      "fiser": 5946,
      "sut": 5947,
      "thus": 5948,
      "##ahan": 5949,
      "keithkeith": 5950,
      "gaines": 5951,
      "fiserv": 5952,
      "bul": 5953,
      "isa": 5954,
      "brianbrian": 5955,
      "rules": 5956,
      "brewer": 5957,
      "lance": 5958,
      "nich": 5959,
      "##iles": 5960,
      "already": 5961,
      "diamond": 5962,
      "bakersfield": 5963,
      "cath": 5964,
      "gobert": 5965,
      "histor": 5966,
      "hoop": 5967,
      "worked": 5968,
      "cowboy": 5969,
      "dyn": 5970,
      "try": 5971,
      "represents": 5972,
      "mountaineers": 5973,
      "plumlee": 5974,
      "##aton": 5975,
      "altern": 5976,
      "16asts": 5977,
      "##bling": 5978,
      "decade": 5979,
      "miličić": 5980,
      "coun": 5981,
      "##ject": 5982,
      "share": 5983,
      "ital": 5984,
      "66ers": 5985,
      "beth": 5986,
      "bowen": 5987,
      "corey": 5988,
      "various": 5989,
      "invitation": 5990,
      "kore": 5991,
      "##come": 5992,
      "230": 5993,
      "interest": 5994,
      "participate": 5995,
      "taken": 5996,
      "according": 5997,
      "##zem": 5998,
      "##jel": 5999,
      "##cow": 6000,
      "##cri": 6001,
      "##cher": 6002,
      "##ante": 6003,
      "14th": 6004,
      "comment": 6005,
      "acb": 6006,
      "moscow": 6007,
      "pi": 6008,
      "wings": 6009,
      "sunday": 6010,
      "josé": 6011,
      "tamp": 6012,
      "harrington": 6013,
      "vikings": 6014,
      "hoy": 6015,
      "##alled": 6016,
      "spir": 6017,
      "pred": 6018,
      "carden": 6019,
      "##etton": 6020,
      "benetton": 6021,
      "tyr": 6022,
      "0000000000000004000000": 6023,
      "dum": 6024,
      "##bast": 6025,
      "##oss": 6026,
      "boys": 6027,
      "31rebs": 6028,
      "famous": 6029,
      "radio": 6030,
      "dixon": 6031,
      "fenders": 6032,
      "205": 6033,
      "##ontin": 6034,
      "cavs": 6035,
      "longh": 6036,
      "tucker": 6037,
      "##bayo": 6038,
      "00000000000000": 6039,
      "warrick": 6040,
      "novak": 6041,
      "helping": 6042,
      "adebayo": 6043,
      "stampede": 6044,
      "##edso": 6045,
      "##overs": 6046,
      "bledso": 6047,
      "earle": 6048,
      "webster": 6049,
      "bledsoe": 6050,
      "1t": 6051,
      "ep": 6052,
      "wear": 6053,
      "##die": 6054,
      "waivers": 6055,
      "californiaattendance": 6056,
      "complete": 6057,
      "mix": 6058,
      "##eka": 6059,
      "saba": 6060,
      "breaking": 6061,
      "gallinari": 6062,
      "nabc": 6063,
      "sour": 6064,
      "##oka": 6065,
      "details": 6066,
      "texasattendance": 6067,
      "rubio": 6068,
      "departure": 6069,
      "crispa": 6070,
      "cardenales": 6071,
      "hann": 6072,
      "##fe": 6073,
      "stack": 6074,
      "16th": 6075,
      "exist": 6076,
      "ronny": 6077,
      "bronze": 6078,
      "ow": 6079,
      "##ram": 6080,
      "##eneg": 6081,
      "chal": 6082,
      "rockers": 6083,
      "##eleevski": 6084,
      "victories": 6085,
      "lloyd": 6086,
      "mendeleevski": 6087,
      "mendeleevskiy": 6088,
      "jess": 6089,
      "##gra": 6090,
      "cart": 6091,
      "prop": 6092,
      "flip": 6093,
      "bucure": 6094,
      "fayetteville": 6095,
      "thur": 6096,
      "too": 6097,
      "##ournament": 6098,
      "educ": 6099,
      "type": 6100,
      "film": 6101,
      "##rović": 6102,
      "lyttle": 6103,
      "##ology": 6104,
      "##jiang": 6105,
      "##paul": 6106,
      "##aming": 6107,
      "adven": 6108,
      "blackburn": 6109,
      "##thealth": 6110,
      "wolver": 6111,
      "preceded": 6112,
      "adventhealth": 6113,
      "gak": 6114,
      "vaug": 6115,
      "inch": 6116,
      "travis": 6117,
      "calvin": 6118,
      "375": 6119,
      "monteneg": 6120,
      "impress": 6121,
      "ernie": 6122,
      "fargo": 6123,
      "matchup": 6124,
      "lamarcus": 6125,
      "##ustrated": 6126,
      "montenegro": 6127,
      "##kin": 6128,
      "seen": 6129,
      "sher": 6130,
      "countries": 6131,
      "pennant": 6132,
      "vogel": 6133,
      "eas": 6134,
      "lab": 6135,
      "seats": 6136,
      "133": 6137,
      "ale": 6138,
      "wrest": 6139,
      "yell": 6140,
      "##ccer": 6141,
      "667": 6142,
      "sop": 6143,
      "soccer": 6144,
      "paulpaul": 6145,
      "athletes": 6146,
      "malik": 6147,
      "millsap": 6148,
      "175": 6149,
      "moz": 6150,
      "alumni": 6151,
      "earlearl": 6152,
      "sain": 6153,
      "vars": 6154,
      "##vent": 6155,
      "cred": 6156,
      "lower": 6157,
      "##fair": 6158,
      "queens": 6159,
      "varsity": 6160,
      "london": 6161,
      "##ato": 6162,
      "##umed": 6163,
      "jerseys": 6164,
      "##box": 6165,
      "corpor": 6166,
      "ko": 6167,
      "mach": 6168,
      "}}": 6169,
      "1908": 6170,
      "barclays": 6171,
      "virtus": 6172,
      "dob": 6173,
      "wore": 6174,
      "##sto": 6175,
      "##icker": 6176,
      "milk": 6177,
      "##inese": 6178,
      "honorable": 6179,
      "recruit": 6180,
      "schedul": 6181,
      "methodist": 6182,
      "fen": 6183,
      "dead": 6184,
      "bridge": 6185,
      "bucky": 6186,
      "woollen": 6187,
      "cs": 6188,
      "iron": 6189,
      "##kel": 6190,
      "##edave": 6191,
      "stern": 6192,
      "##aders": 6193,
      "carr": 6194,
      "167": 6195,
      "davedave": 6196,
      "##dar": 6197,
      "schol": 6198,
      "rebels": 6199,
      "volley": 6200,
      "experience": 6201,
      "volleyball": 6202,
      "dries": 6203,
      "kam": 6204,
      "##sk": 6205,
      "##thal": 6206,
      "##ably": 6207,
      "steal": 6208,
      "presley": 6209,
      "attend": 6210,
      "turnovers": 6211,
      "unseld": 6212,
      "institution": 6213,
      "dikembe": 6214,
      "driesell": 6215,
      "jen": 6216,
      "mes": 6217,
      "vand": 6218,
      "##ures": 6219,
      "jody": 6220,
      "154": 6221,
      "assigned": 6222,
      "concert": 6223,
      "ole": 6224,
      "žel": 6225,
      "##uay": 6226,
      "cox": 6227,
      "chinese": 6228,
      "##osen": 6229,
      "extension": 6230,
      "cowboys": 6231,
      "pen": 6232,
      "wiggins": 6233,
      "##adi": 6234,
      "army": 6235,
      "##lands": 6236,
      "guang": 6237,
      "0000000000000005": 6238,
      "macleod": 6239,
      "plann": 6240,
      "bask": 6241,
      "ple": 6242,
      "tough": 6243,
      "##óbili": 6244,
      "##iters": 6245,
      "bever": 6246,
      "pod": 6247,
      "15th": 6248,
      "winter": 6249,
      "christie": 6250,
      "birth": 6251,
      "ginóbili": 6252,
      "route": 6253,
      "##nički": 6254,
      "##oint": 6255,
      "##nov": 6256,
      "##eless": 6257,
      "test": 6258,
      "simon": 6259,
      "qualified": 6260,
      "lorenzo": 6261,
      "auth": 6262,
      "##ew": 6263,
      "##olic": 6264,
      "143": 6265,
      "glenn": 6266,
      "deron": 6267,
      "gent": 6268,
      "krist": 6269,
      "torn": 6270,
      "tcu": 6271,
      "##eck": 6272,
      "elton": 6273,
      "leslie": 6274,
      "aw": 6275,
      "cop": 6276,
      "##span": 6277,
      "stanley": 6278,
      "1909": 6279,
      "remainder": 6280,
      "...": 6281,
      "vu": 6282,
      "##sso": 6283,
      "##fahan": 6284,
      "isfahan": 6285,
      "##ocation": 6286,
      "charge": 6287,
      "silas": 6288,
      "shelby": 6289,
      "signific": 6290,
      "across": 6291,
      "sims": 6292,
      "disapp": 6293,
      "##atural": 6294,
      "programs": 6295,
      ".,": 6296,
      "guar": 6297,
      "sit": 6298,
      "##elf": 6299,
      "hawkins": 6300,
      "##asha": 6301,
      "mcclos": 6302,
      "monmouth": 6303,
      "dominique": 6304,
      "##198": 6305,
      "mccloskey": 6306,
      "##just": 6307,
      "##aled": 6308,
      "140": 6309,
      "grew": 6310,
      "meac": 6311,
      "canton": 6312,
      "ronnie": 6313,
      "opponents": 6314,
      "ces": 6315,
      "td": 6316,
      "thre": 6317,
      "##outs": 6318,
      "paid": 6319,
      "performances": 6320,
      "daniel": 6321,
      "versus": 6322,
      "##ailable": 6323,
      "critic": 6324,
      "mr": 6325,
      "watch": 6326,
      "##oph": 6327,
      "##etch": 6328,
      "##acey": 6329,
      "death": 6330,
      "gregory": 6331,
      "surpris": 6332,
      "ignis": 6333,
      "lion": 6334,
      "chosen": 6335,
      "office": 6336,
      "voting": 6337,
      "hein": 6338,
      "##ennial": 6339,
      "highs": 6340,
      "salary": 6341,
      "casey": 6342,
      "dwayne": 6343,
      "nen": 6344,
      "##onia": 6345,
      "19rebs": 6346,
      "camby": 6347,
      "rematch": 6348,
      "montev": 6349,
      "stackhouse": 6350,
      "##jak": 6351,
      "##bing": 6352,
      "noted": 6353,
      "shows": 6354,
      "crus": 6355,
      "features": 6356,
      "transact": 6357,
      "initially": 6358,
      "erie": 6359,
      "lav": 6360,
      "bowl": 6361,
      "radford": 6362,
      "catholic": 6363,
      "e1": 6364,
      "proved": 6365,
      "towson": 6366,
      "daugh": 6367,
      "hemric": 6368,
      "kurt": 6369,
      "bou": 6370,
      "falc": 6371,
      "##cer": 6372,
      "rein": 6373,
      "##omon": 6374,
      "hoyas": 6375,
      "ahead": 6376,
      "bing": 6377,
      "kry": 6378,
      "##ku": 6379,
      "##mo": 6380,
      "inside": 6381,
      "begin": 6382,
      "boyd": 6383,
      "##force": 6384,
      "poly": 6385,
      "wro": 6386,
      "chad": 6387,
      "185": 6388,
      "prince": 6389,
      "greer": 6390,
      "morrison": 6391,
      "bazem": 6392,
      "vincent": 6393,
      "trevor": 6394,
      "korea": 6395,
      "##vement": 6396,
      "##dong": 6397,
      "##iant": 6398,
      "##ital": 6399,
      "stage": 6400,
      "bear": 6401,
      "137": 6402,
      "bucc": 6403,
      "1907": 6404,
      "##calf": 6405,
      "dio": 6406,
      "##jim": 6407,
      "##dom": 6408,
      "##arm": 6409,
      "##aye": 6410,
      "##ampe": 6411,
      "##estro": 6412,
      "accept": 6413,
      "cities": 6414,
      "ocean": 6415,
      "3x": 6416,
      "jets": 6417,
      "vlad": 6418,
      "##brough": 6419,
      "brendan": 6420,
      "barron": 6421,
      "luis": 6422,
      "didn": 6423,
      "problems": 6424,
      "guangdong": 6425,
      "emer": 6426,
      "##ila": 6427,
      "sebast": 6428,
      "##ando": 6429,
      "spe": 6430,
      "evan": 6431,
      "metcalf": 6432,
      "bucureşti": 6433,
      "yellow": 6434,
      "meyer": 6435,
      "uk": 6436,
      "##zur": 6437,
      "##0referees": 6438,
      "dell": 6439,
      "##ursday": 6440,
      "36rebs": 6441,
      "1911": 6442,
      "bazemore": 6443,
      "money": 6444,
      "ov": 6445,
      "##aff": 6446,
      "##lacan": 6447,
      "coff": 6448,
      "conrad": 6449,
      "##ours": 6450,
      "18th": 6451,
      "444": 6452,
      "capela": 6453,
      "pallacan": 6454,
      "significant": 6455,
      "pallacanestro": 6456,
      "fill": 6457,
      "mess": 6458,
      "youth": 6459,
      "##arily": 6460,
      "patterson": 6461,
      "hoosiers": 6462,
      "wolverines": 6463,
      "leave": 6464,
      "##pping": 6465,
      "##eye": 6466,
      "wind": 6467,
      "harrell": 6468,
      "summers": 6469,
      "stevenson": 6470,
      "mozgov": 6471,
      "foy": 6472,
      "god": 6473,
      "##say": 6474,
      "assign": 6475,
      "financ": 6476,
      "renov": 6477,
      "lindsay": 6478,
      "purple": 6479,
      "eligible": 6480,
      "gadzur": 6481,
      "elliott": 6482,
      "gadzuric": 6483,
      "dc": 6484,
      "##12": 6485,
      "##enhol": 6486,
      "chose": 6487,
      "walk": 6488,
      "interc": 6489,
      "budenhol": 6490,
      "rubini": 6491,
      "cesare": 6492,
      "budenholzer": 6493,
      "hy": 6494,
      "nolan": 6495,
      "need": 6496,
      "marl": 6497,
      "##etta": 6498,
      "nbatvsso": 6499,
      "continent": 6500,
      "students": 6501,
      "bogut": 6502,
      "citizen": 6503,
      "mavs": 6504,
      "milkmen": 6505,
      "##vements": 6506,
      "##xter": 6507,
      "##inade": 6508,
      "##atell": 6509,
      "##bage": 6510,
      "##kell": 6511,
      "descri": 6512,
      "chaminade": 6513,
      "formed": 6514,
      "montevideo": 6515,
      "mets": 6516,
      "rum": 6517,
      "vent": 6518,
      "##vano": 6519,
      "##şı": 6520,
      "colspan": 6521,
      "valvano": 6522,
      "illustrated": 6523,
      "england": 6524,
      "cedric": 6525,
      "cu": 6526,
      "mom": 6527,
      "biggest": 6528,
      "33rebs": 6529,
      "rosen": 6530,
      "relocated": 6531,
      "##state": 6532,
      "##chere": 6533,
      "whose": 6534,
      "jeffries": 6535,
      "bales": 6536,
      "payne": 6537,
      "horry": 6538,
      "##usschere": 6539,
      "debusschere": 6540,
      "mcmillan": 6541,
      "scottscott": 6542,
      "lithuania": 6543,
      "0000000000000005000000": 6544,
      "wolves": 6545,
      "##uez": 6546,
      "222": 6547,
      "quest": 6548,
      "##ontinental": 6549,
      "beverley": 6550,
      ":[": 6551,
      "bender": 6552,
      "equ": 6553,
      "mt": 6554,
      "nic": 6555,
      "##ient": 6556,
      "##cos": 6557,
      "sex": 6558,
      "edit": 6559,
      "merged": 6560,
      "falling": 6561,
      "sendek": 6562,
      "skills": 6563,
      "caldwell": 6564,
      "bam": 6565,
      "gior": 6566,
      "sv": 6567,
      "zeal": 6568,
      "##bly": 6569,
      "frankfrank": 6570,
      "rasheed": 6571,
      "cornell": 6572,
      "recently": 6573,
      "songaila": 6574,
      "conradt": 6575,
      "kost": 6576,
      "clock": 6577,
      "prep": 6578,
      "costello": 6579,
      "recruiting": 6580,
      "crusaders": 6581,
      "tür": 6582,
      "##ril": 6583,
      "##arn": 6584,
      "mario": 6585,
      "clint": 6586,
      "expired": 6587,
      "rodr": 6588,
      "trop": 6589,
      "created": 6590,
      "entering": 6591,
      "accomplish": 6592,
      "tampa": 6593,
      "ahan": 6594,
      "##iece": 6595,
      "map": 6596,
      "##oning": 6597,
      "recover": 6598,
      "lester": 6599,
      "shane": 6600,
      "serge": 6601,
      "royal": 6602,
      "mcneese": 6603,
      "##aver": 6604,
      "##mel": 6605,
      "##heit": 6606,
      "downtown": 6607,
      "mullin": 6608,
      "saying": 6609,
      "##rant": 6610,
      "##bwa": 6611,
      "##ersp": 6612,
      "##iding": 6613,
      "ability": 6614,
      "hotdogs": 6615,
      "sebastian": 6616,
      "##nado": 6617,
      "##ben": 6618,
      "attempt": 6619,
      "buchheit": 6620,
      "falcons": 6621,
      "zealand": 6622,
      "##cind": 6623,
      "higher": 6624,
      "##ube": 6625,
      "quincy": 6626,
      "eachrebs": 6627,
      "kingston": 6628,
      "castro": 6629,
      "grow": 6630,
      "kel": 6631,
      "lia": 6632,
      "pes": 6633,
      "##jason": 6634,
      "##jected": 6635,
      "passing": 6636,
      "hollins": 6637,
      "quickly": 6638,
      "}}}": 6639,
      "intercontinental": 6640,
      "simmen": 6641,
      "invited": 6642,
      "farmar": 6643,
      "simmenthal": 6644,
      "oll": 6645,
      "ster": 6646,
      "stank": 6647,
      "##avid": 6648,
      "starters": 6649,
      "jasonjason": 6650,
      "##itan": 6651,
      "ins": 6652,
      "stri": 6653,
      "##ages": 6654,
      "0000000000000006000000": 6655,
      "global": 6656,
      "gm": 6657,
      "##nabo": 6658,
      "##pol": 6659,
      "avery": 6660,
      ").[": 6661,
      "attles": 6662,
      "##ancy": 6663,
      "recre": 6664,
      "randle": 6665,
      "guaynabo": 6666,
      "bart": 6667,
      "tara": 6668,
      "##david": 6669,
      "find": 6670,
      "usbwa": 6671,
      "varnado": 6672,
      "victoria": 6673,
      "lan": 6674,
      "wing": 6675,
      "##ilities": 6676,
      "150": 6677,
      "orton": 6678,
      "##embert": 6679,
      "starts": 6680,
      "##isha": 6681,
      "monc": 6682,
      "consolation": 6683,
      "numer": 6684,
      "graham": 6685,
      "convocation": 6686,
      "buckeyes": 6687,
      "dalembert": 6688,
      "disappoint": 6689,
      "dud": 6690,
      "ton": 6691,
      "##une": 6692,
      "142": 6693,
      "476": 6694,
      "monty": 6695,
      "stretch": 6696,
      "clifford": 6697,
      "anto": 6698,
      "danilo": 6699,
      "swac": 6700,
      "samford": 6701,
      "available": 6702,
      "trey": 6703,
      "==": 6704,
      "cot": 6705,
      "montep": 6706,
      "amin": 6707,
      "dragić": 6708,
      "##ofey": 6709,
      "kirkland": 6710,
      "##aschi": 6711,
      "montepaschi": 6712,
      "(*": 6713,
      "tsn": 6714,
      "##bb": 6715,
      "##ão": 6716,
      "##rot": 6717,
      "##cester": 6718,
      "rankings": 6719,
      "management": 6720,
      "airways": 6721,
      "slovenia": 6722,
      "scholars": 6723,
      "##cot": 6724,
      "daviddavid": 6725,
      "prem": 6726,
      "minute": 6727,
      "antoine": 6728,
      "fab": 6729,
      "gan": 6730,
      "glad": 6731,
      "hod": 6732,
      "##frid": 6733,
      "harsh": 6734,
      "honored": 6735,
      "webb": 6736,
      "protected": 6737,
      "gott": 6738,
      "sister": 6739,
      "##dick": 6740,
      "##gate": 6741,
      "##bird": 6742,
      "smu": 6743,
      "##therford": 6744,
      "##nyk": 6745,
      "rutherford": 6746,
      "badgers": 6747,
      "flyers": 6748,
      "lum": 6749,
      "sug": 6750,
      "##hots": 6751,
      "ing": 6752,
      "swc": 6753,
      "lamb": 6754,
      "##rief": 6755,
      "humph": 6756,
      "covid": 6757,
      "cartwright": 6758,
      "moncrief": 6759,
      "##oo": 6760,
      "##nor": 6761,
      "##dc": 6762,
      "##wh": 6763,
      "##pper": 6764,
      "lawson": 6765,
      "adrian": 6766,
      "hansbrough": 6767,
      "pesaro": 6768,
      "ran": 6769,
      "##ifer": 6770,
      "##iner": 6771,
      "chann": 6772,
      "rey": 6773,
      "##agu": 6774,
      "carac": 6775,
      "harp": 6776,
      "rookies": 6777,
      "##verse": 6778,
      "cerem": 6779,
      "education": 6780,
      "banks": 6781,
      "jas": 6782,
      "jav": 6783,
      "woff": 6784,
      "##jans": 6785,
      "tobi": 6786,
      "##leet": 6787,
      "136": 6788,
      "##endon": 6789,
      "reference": 6790,
      "wofford": 6791,
      "hots": 6792,
      "eleven": 6793,
      "##clusion": 6794,
      "giorg": 6795,
      "ranks": 6796,
      "##ror": 6797,
      "##sim": 6798,
      "##uitt": 6799,
      "##ás": 6800,
      "espnu": 6801,
      "trojans": 6802,
      "fitzsim": 6803,
      "fitzsimmons": 6804,
      "700": 6805,
      "ded": 6806,
      "kampe": 6807,
      "might": 6808,
      "##arr": 6809,
      "##ified": 6810,
      "adolph": 6811,
      "blow": 6812,
      "raz": 6813,
      "rim": 6814,
      "##elite": 6815,
      "scorers": 6816,
      "clear": 6817,
      "paris": 6818,
      "swift": 6819,
      "longhorns": 6820,
      "size": 6821,
      "ve": 6822,
      "##gs": 6823,
      "##ław": 6824,
      "##amire": 6825,
      "245": 6826,
      "committed": 6827,
      "amway": 6828,
      "stoudamire": 6829,
      "promoted": 6830,
      "vadal": 6831,
      "numerous": 6832,
      "tobias": 6833,
      "uic": 6834,
      "##rill": 6835,
      "20rebs": 6836,
      "unable": 6837,
      "barea": 6838,
      "below": 6839,
      "stojak": 6840,
      "lumpurtemplate": 6841,
      "frye": 6842,
      "hotshots": 6843,
      "7asts": 6844,
      "##eroy": 6845,
      "##icated": 6846,
      "##ifa": 6847,
      "želj": 6848,
      "##rs": 6849,
      "##tom": 6850,
      "##break": 6851,
      "##1referees": 6852,
      "theis": 6853,
      "##enty": 6854,
      "##iger": 6855,
      "##andre": 6856,
      "17th": 6857,
      "telfair": 6858,
      "crown": 6859,
      "corb": 6860,
      "rule": 6861,
      "crowder": 6862,
      "hed": 6863,
      "told": 6864,
      "chester": 6865,
      "##ević": 6866,
      "plan": 6867,
      "gun": 6868,
      "yale": 6869,
      "##edia": 6870,
      "##omes": 6871,
      "##ryl": 6872,
      "dickinson": 6873,
      "hammon": 6874,
      "barbosa": 6875,
      "##november": 6876,
      "harshman": 6877,
      "hines": 6878,
      "##alik": 6879,
      "buy": 6880,
      "assem": 6881,
      "##ikool": 6882,
      "463": 6883,
      "##anović": 6884,
      "belie": 6885,
      "ülikool": 6886,
      "reunion": 6887,
      "##friday": 6888,
      "a1": 6889,
      "##inge": 6890,
      "separ": 6891,
      "posting": 6892,
      "additional": 6893,
      "officials": 6894,
      "jenkins": 6895,
      "nike": 6896,
      "pap": 6897,
      "wife": 6898,
      "##ów": 6899,
      "##arrow": 6900,
      "forte": 6901,
      "conclud": 6902,
      "##owski": 6903,
      "marbury": 6904,
      "360": 6905,
      "luther": 6906,
      "kra": 6907,
      "alan": 6908,
      "williamson": 6909,
      "##iki": 6910,
      "barton": 6911,
      "scout": 6912,
      "vaughn": 6913,
      "stanković": 6914,
      "##entin": 6915,
      "ches": 6916,
      "whit": 6917,
      "149": 6918,
      "214": 6919,
      "##uban": 6920,
      "moon": 6921,
      "interv": 6922,
      "coverage": 6923,
      "scholarship": 6924,
      "lanc": 6925,
      "natural": 6926,
      "push": 6927,
      "##gies": 6928,
      "krka": 6929,
      "metropol": 6930,
      "vanderv": 6931,
      "dumars": 6932,
      "dup": 6933,
      "felt": 6934,
      "mast": 6935,
      "##ingly": 6936,
      "##tsville": 6937,
      "##uart": 6938,
      "aggies": 6939,
      "heath": 6940,
      "petrović": 6941,
      "vanderveer": 6942,
      "##mid": 6943,
      "##kew": 6944,
      "##ession": 6945,
      "jimjim": 6946,
      "ducks": 6947,
      "shortened": 6948,
      "yugoslavia": 6949,
      "bald": 6950,
      "baker": 6951,
      "our": 6952,
      "thir": 6953,
      "##thing": 6954,
      "askew": 6955,
      "##rient": 6956,
      "235": 6957,
      "25th": 6958,
      "process": 6959,
      "britt": 6960,
      "##sohn": 6961,
      "429": 6962,
      "danie": 6963,
      "ucf": 6964,
      "ronald": 6965,
      "garygary": 6966,
      "department": 6967,
      "important": 6968,
      "ogden": 6969,
      "alternate": 6970,
      "heinsohn": 6971,
      "dudley": 6972,
      "eaton": 6973,
      "fitch": 6974,
      "klay": 6975,
      "##don": 6976,
      "##cup": 6977,
      "lex": 6978,
      "roundlost": 6979,
      "##ensen": 6980,
      "step": 6981,
      "morant": 6982,
      "hum": 6983,
      "hub": 6984,
      "nd": 6985,
      "sab": 6986,
      "wan": 6987,
      "##vat": 6988,
      "##bow": 6989,
      "scheyer": 6990,
      "seeds": 6991,
      "oden": 6992,
      "kenyon": 6993,
      "superstar": 6994,
      "sterling": 6995,
      "recreation": 6996,
      "kan": 6997,
      "tick": 6998,
      "##ğlu": 6999,
      "concord": 7000,
      "conclusion": 7001,
      "##ria": 7002,
      "sham": 7003,
      "oracle": 7004,
      "kept": 7005,
      "caused": 7006,
      "midwestern": 7007,
      "greek": 7008,
      "primary": 7009,
      "introduced": 7010,
      "cbi": 7011,
      "##mt": 7012,
      "##hie": 7013,
      "job": 7014,
      "##going": 7015,
      "giants": 7016,
      "elected": 7017,
      "broncos": 7018,
      "affili": 7019,
      "trenton": 7020,
      "dawkins": 7021,
      "aminu": 7022,
      "dn": 7023,
      "tina": 7024,
      "vas": 7025,
      "##joy": 7026,
      "##yy": 7027,
      "lev": 7028,
      "showed": 7029,
      "standard": 7030,
      "chalmers": 7031,
      "saints": 7032,
      "liaoning": 7033,
      "cory": 7034,
      "iup": 7035,
      "##uring": 7036,
      "deg": 7037,
      "space": 7038,
      "crem": 7039,
      "favorite": 7040,
      "volun": 7041,
      "stags": 7042,
      "bond": 7043,
      "wel": 7044,
      "##dock": 7045,
      "##ays": 7046,
      "arlington": 7047,
      "##oder": 7048,
      "dallmar": 7049,
      "573": 7050,
      "sanders": 7051,
      "nfl": 7052,
      "##hill": 7053,
      "##çe": 7054,
      "##oved": 7055,
      "younger": 7056,
      "taur": 7057,
      "participating": 7058,
      "shortly": 7059,
      "undef": 7060,
      "rosenbl": 7061,
      "hin": 7062,
      "##onte": 7063,
      "stuart": 7064,
      "##charl": 7065,
      "alcind": 7066,
      "issu": 7067,
      "695": 7068,
      "##quez": 7069,
      "damon": 7070,
      "operator": 7071,
      "elect": 7072,
      "bonner": 7073,
      "shawne": 7074,
      "danielle": 7075,
      "alcindor": 7076,
      "csu": 7077,
      "mol": 7078,
      "ps": 7079,
      "siak": 7080,
      "##jar": 7081,
      "##mans": 7082,
      "##ula": 7083,
      "##staff": 7084,
      "##itect": 7085,
      "##itable": 7086,
      "chie": 7087,
      "##artmouth": 7088,
      "##ereg": 7089,
      "##berto": 7090,
      "arizin": 7091,
      "tyronn": 7092,
      "adding": 7093,
      "##eryl": 7094,
      "restricted": 7095,
      "architect": 7096,
      "nicknamed": 7097,
      "ramon": 7098,
      "eligibility": 7099,
      "potential": 7100,
      "siakam": 7101,
      "cant": 7102,
      "nur": 7103,
      "shi": 7104,
      "##ét": 7105,
      "##iej": 7106,
      "182": 7107,
      "colgate": 7108,
      "deng": 7109,
      "antawn": 7110,
      "poland": 7111,
      "nationally": 7112,
      "naming": 7113,
      "##hood": 7114,
      "inf": 7115,
      "infl": 7116,
      "fore": 7117,
      "whe": 7118,
      "##okes": 7119,
      "rebu": 7120,
      "quentin": 7121,
      "replace": 7122,
      "griffith": 7123,
      "holding": 7124,
      "rodrig": 7125,
      "undefeated": 7126,
      "##manship": 7127,
      "ainge": 7128,
      "here": 7129,
      "ian": 7130,
      "##bank": 7131,
      "regulation": 7132,
      "manning": 7133,
      "dickdick": 7134,
      "wilkes": 7135,
      "verizon": 7136,
      "lexington": 7137,
      "bingham": 7138,
      "mw": 7139,
      "pond": 7140,
      "##afor": 7141,
      "##kl": 7142,
      "asean": 7143,
      "spoon": 7144,
      "prosp": 7145,
      "okafor": 7146,
      "enjoy": 7147,
      "skyforce": 7148,
      "stephenson": 7149,
      "contributed": 7150,
      "sso": 7151,
      "##tournament": 7152,
      "##cy": 7153,
      "148": 7154,
      "moe": 7155,
      "donnie": 7156,
      "woods": 7157,
      "fouls": 7158,
      "kemper": 7159,
      "lik": 7160,
      "##kyle": 7161,
      "##elve": 7162,
      "##ira": 7163,
      "twelve": 7164,
      "travel": 7165,
      "darren": 7166,
      "native": 7167,
      "letter": 7168,
      "pulled": 7169,
      "absence": 7170,
      "pimm": 7171,
      "zob": 7172,
      "##cam": 7173,
      "shy": 7174,
      "##apea": 7175,
      "scha": 7176,
      "status": 7177,
      "241": 7178,
      "##aneers": 7179,
      "ricardo": 7180,
      "cedar": 7181,
      "occurred": 7182,
      "tyrone": 7183,
      "metropolitan": 7184,
      "##apeake": 7185,
      "bbl": 7186,
      "mickaël": 7187,
      "pear": 7188,
      "roma": 7189,
      "##kers": 7190,
      "##otnički": 7191,
      "##corn": 7192,
      "know": 7193,
      "itself": 7194,
      "marty": 7195,
      "rabotnički": 7196,
      "machado": 7197,
      "buccaneers": 7198,
      "financial": 7199,
      "premier": 7200,
      "bott": 7201,
      "rang": 7202,
      "cott": 7203,
      "norman": 7204,
      "##finals": 7205,
      "simpson": 7206,
      "gilmore": 7207,
      "wrestling": 7208,
      "baldwin": 7209,
      "iupui": 7210,
      "sett": 7211,
      "##ji": 7212,
      "##otemplate": 7213,
      "##ourne": 7214,
      "##cco": 7215,
      "387": 7216,
      "rajon": 7217,
      "older": 7218,
      "error": 7219,
      "pioneers": 7220,
      "]]": 7221,
      "dartmouth": 7222,
      "thor": 7223,
      "##oli": 7224,
      "##omb": 7225,
      "##sons": 7226,
      "17asts": 7227,
      "##uger": 7228,
      "showtime": 7229,
      "elmore": 7230,
      "##venue": 7231,
      "tomtom": 7232,
      "competes": 7233,
      "oldest": 7234,
      "membership": 7235,
      "collison": 7236,
      "##onnie": 7237,
      "cassell": 7238,
      "studio": 7239,
      "socon": 7240,
      "widely": 7241,
      "lakes": 7242,
      "leroy": 7243,
      "nav": 7244,
      "nance": 7245,
      "pip": 7246,
      "rather": 7247,
      "##pi": 7248,
      "alv": 7249,
      "trading": 7250,
      "shared": 7251,
      "bogd": 7252,
      "regarded": 7253,
      "[[": 7254,
      "diaw": 7255,
      "hur": 7256,
      "rising": 7257,
      "##lan": 7258,
      "##kee": 7259,
      "technology": 7260,
      "moda": 7261,
      "jennifer": 7262,
      "fedex": 7263,
      "towns": 7264,
      "epis": 7265,
      "ollie": 7266,
      "bigh": 7267,
      "tipp": 7268,
      "##mas": 7269,
      "##asi": 7270,
      "divisions": 7271,
      "noel": 7272,
      "haslem": 7273,
      "sportsmanship": 7274,
      "samuel": 7275,
      "collier": 7276,
      "squires": 7277,
      "scheduled": 7278,
      "bailey": 7279,
      "laker": 7280,
      "##sch": 7281,
      "145": 7282,
      "centrobasket": 7283,
      "americup": 7284,
      "2024": 7285,
      "forwards": 7286,
      "31st": 7287,
      "1970s": 7288,
      "attention": 7289,
      "disb": 7290,
      "severance": 7291,
      "continental": 7292,
      "suspension": 7293,
      "goran": 7294,
      "friends": 7295,
      "##bahçe": 7296,
      "asked": 7297,
      "chesapeake": 7298,
      "paint": 7299,
      "wool": 7300,
      "##anim": 7301,
      "##iter": 7302,
      "station": 7303,
      "##chuck": 7304,
      "indust": 7305,
      "212": 7306,
      "highly": 7307,
      "tradition": 7308,
      "##kerik": 7309,
      "chuckchuck": 7310,
      "wiattendance": 7311,
      "erikerik": 7312,
      "viol": 7313,
      "cumm": 7314,
      "daughter": 7315,
      "##animous": 7316,
      "wals": 7317,
      "##mc": 7318,
      "##tay": 7319,
      "##icular": 7320,
      "##elden": 7321,
      "sales": 7322,
      "##castle": 7323,
      "kylekyle": 7324,
      "jonathan": 7325,
      "graduated": 7326,
      "determined": 7327,
      "isaiah": 7328,
      "cable": 7329,
      "dand": 7330,
      "fou": 7331,
      "figur": 7332,
      "spra": 7333,
      "jovent": 7334,
      "##rish": 7335,
      "goph": 7336,
      "valenc": 7337,
      "using": 7338,
      "##aturday": 7339,
      "adrien": 7340,
      "3x3": 7341,
      "joventut": 7342,
      "tac": 7343,
      "##gio": 7344,
      "##esta": 7345,
      "clutch": 7346,
      "##angor": 7347,
      "kruger": 7348,
      "garret": 7349,
      "dominated": 7350,
      "possible": 7351,
      "becky": 7352,
      "lionel": 7353,
      "bighorns": 7354,
      "bass": 7355,
      "pasc": 7356,
      "sin": 7357,
      "##yess": 7358,
      "##eda": 7359,
      "leo": 7360,
      "alcorn": 7361,
      "jannero": 7362,
      "petron": 7363,
      "garc": 7364,
      "singler": 7365,
      "mcdyess": 7366,
      "khim": 7367,
      "-(": 7368,
      "pin": 7369,
      "##jos": 7370,
      "##con": 7371,
      "##illa": 7372,
      "unanimous": 7373,
      "bluff": 7374,
      "related": 7375,
      "relations": 7376,
      "bernie": 7377,
      "diaye": 7378,
      "mcgee": 7379,
      "dim": 7380,
      "pad": 7381,
      "till": 7382,
      "##achy": 7383,
      "alph": 7384,
      "nord": 7385,
      "twenty": 7386,
      "##urric": 7387,
      "uses": 7388,
      "midway": 7389,
      "524": 7390,
      "tenants": 7391,
      "morrill": 7392,
      "rebuild": 7393,
      "jesse": 7394,
      "por": 7395,
      "##wu": 7396,
      "##urch": 7397,
      "married": 7398,
      "147": 7399,
      "johnston": 7400,
      "baron": 7401,
      "barang": 7402,
      "underw": 7403,
      "motta": 7404,
      "bearcats": 7405,
      "barangay": 7406,
      "hos": 7407,
      "xbox": 7408,
      "##quarter": 7409,
      "##ete": 7410,
      "##leigh": 7411,
      "##tson": 7412,
      "roundwon": 7413,
      "188": 7414,
      "worcester": 7415,
      "364": 7416,
      "dunn": 7417,
      "chambers": 7418,
      "does": 7419,
      "watts": 7420,
      "cousins": 7421,
      "feature": 7422,
      "cummings": 7423,
      "done": 7424,
      "gomes": 7425,
      "hurric": 7426,
      "vice": 7427,
      "##ae": 7428,
      "##ias": 7429,
      "##gor": 7430,
      "##bock": 7431,
      "reve": 7432,
      "shump": 7433,
      "##ryan": 7434,
      "##atta": 7435,
      "parsons": 7436,
      "impact": 7437,
      "footn": 7438,
      "rashad": 7439,
      "##erspoon": 7440,
      "taurasi": 7441,
      "shumpert": 7442,
      "bought": 7443,
      "bible": 7444,
      "hob": 7445,
      "uzo": 7446,
      "##bourne": 7447,
      "##adel": 7448,
      "##imir": 7449,
      "timofey": 7450,
      "prud": 7451,
      "##izers": 7452,
      "trou": 7453,
      "##encet": 7454,
      "lowest": 7455,
      "recalled": 7456,
      "huntsville": 7457,
      "version": 7458,
      "corporation": 7459,
      "uzoh": 7460,
      "prudential": 7461,
      "boun": 7462,
      "cbc": 7463,
      "ring": 7464,
      "teach": 7465,
      "newcastle": 7466,
      "139": 7467,
      "##ooling": 7468,
      "afrobasket": 7469,
      "weems": 7470,
      "greenville": 7471,
      "bayhawks": 7472,
      "dism": 7473,
      "lindsey": 7474,
      "service": 7475,
      "impressive": 7476,
      "lumber": 7477,
      "footnotes": 7478,
      "melo": 7479,
      "wcc": 7480,
      "##ono": 7481,
      "##tony": 7482,
      "fiesta": 7483,
      "mayo": 7484,
      "robin": 7485,
      "performed": 7486,
      "azattendance": 7487,
      "stojaković": 7488,
      "concordia": 7489,
      "ojel": 7490,
      "sag": 7491,
      "sara": 7492,
      "##enary": 7493,
      "##enture": 7494,
      "beal": 7495,
      "##ueva": 7496,
      "centenary": 7497,
      "greene": 7498,
      "tried": 7499,
      "seth": 7500,
      "referred": 7501,
      "produced": 7502,
      "richie": 7503,
      "dixie": 7504,
      "underwent": 7505,
      "ojeleye": 7506,
      "3f": 7507,
      "foc": 7508,
      "pens": 7509,
      "pdt": 7510,
      "##zie": 7511,
      "##li": 7512,
      "##san": 7513,
      "##arol": 7514,
      "sixteenelite": 7515,
      "plans": 7516,
      "hosts": 7517,
      "vote": 7518,
      "fairleigh": 7519,
      "extended": 7520,
      "cocaba": 7521,
      "sabonis": 7522,
      "##petemplate": 7523,
      "##bis": 7524,
      "beard": 7525,
      "##ugene": 7526,
      "knock": 7527,
      "trim": 7528,
      "512": 7529,
      "amate": 7530,
      "europetemplate": 7531,
      "tonytony": 7532,
      "struct": 7533,
      "mextemplate": 7534,
      "jarvis": 7535,
      "deandean": 7536,
      "copeland": 7537,
      "han": 7538,
      "journ": 7539,
      "sov": 7540,
      "##kris": 7541,
      "##ič": 7542,
      "##ging": 7543,
      "##ionally": 7544,
      "carab": 7545,
      "##aventure": 7546,
      "marks": 7547,
      "newman": 7548,
      "##usal": 7549,
      "138": 7550,
      "universi": 7551,
      "gram": 7552,
      "maya": 7553,
      "385": 7554,
      "parents": 7555,
      "facing": 7556,
      "##koğlu": 7557,
      "jarrett": 7558,
      "offered": 7559,
      "bonaventure": 7560,
      "kriskris": 7561,
      "owls": 7562,
      "carabobo": 7563,
      "grac": 7564,
      "m2": 7565,
      "oberto": 7566,
      "pn": 7567,
      "pain": 7568,
      "sz": 7569,
      "##bre": 7570,
      "##ices": 7571,
      "##usen": 7572,
      "##phal": 7573,
      "peñ": 7574,
      "##borough": 7575,
      "##herty": 7576,
      "##joe": 7577,
      "famer": 7578,
      "incident": 7579,
      "demol": 7580,
      "##patrick": 7581,
      "looked": 7582,
      "visit": 7583,
      "globet": 7584,
      "##jacks": 7585,
      "emmett": 7586,
      "humphries": 7587,
      "corbin": 7588,
      "##ades": 7589,
      "##raph": 7590,
      "shannon": 7591,
      "##ffield": 7592,
      "625": 7593,
      "jew": 7594,
      "joejoe": 7595,
      "sheffield": 7596,
      "andrea": 7597,
      "miracle": 7598,
      "seaba": 7599,
      "kap": 7600,
      "lic": 7601,
      "##fort": 7602,
      "fortson": 7603,
      "mari": 7604,
      "colleges": 7605,
      "afro": 7606,
      "##manizers": 7607,
      "adm": 7608,
      "##ipedia": 7609,
      "particular": 7610,
      "redmanizers": 7611,
      "cruc": 7612,
      "drum": 7613,
      "hair": 7614,
      "stauskas": 7615,
      "murdock": 7616,
      "holland": 7617,
      "wikipedia": 7618,
      "kanter": 7619,
      "3fg": 7620,
      "lisa": 7621,
      "uts": 7622,
      "##ring": 7623,
      "##acola": 7624,
      "##irie": 7625,
      "leuer": 7626,
      "rozier": 7627,
      "23rd": 7628,
      "50th": 7629,
      "baynes": 7630,
      "lowe": 7631,
      "happ": 7632,
      "sharp": 7633,
      "famers": 7634,
      "replacement": 7635,
      "prairie": 7636,
      "pensacola": 7637,
      "dondon": 7638,
      "mul": 7639,
      "##inas": 7640,
      "leaf": 7641,
      "neill": 7642,
      "by19": 7643,
      "reggi": 7644,
      "314": 7645,
      "707": 7646,
      "mccoll": 7647,
      "##ophone": 7648,
      "volunte": 7649,
      "##ereggie": 7650,
      "universiade": 7651,
      "reggiereggie": 7652,
      "cult": 7653,
      "duck": 7654,
      "lus": 7655,
      "nm": 7656,
      "tand": 7657,
      "##rup": 7658,
      "##andez": 7659,
      "leandro": 7660,
      "margar": 7661,
      "replacing": 7662,
      "grade": 7663,
      "surpassing": 7664,
      "erickson": 7665,
      "amateur": 7666,
      "mccollum": 7667,
      "dent": 7668,
      "##ivo": 7669,
      "##imum": 7670,
      "##anted": 7671,
      "##tell": 7672,
      "elvin": 7673,
      "75th": 7674,
      "brief": 7675,
      "dominant": 7676,
      "nbatvfs": 7677,
      "##exter": 7678,
      "flying": 7679,
      "##jevo": 7680,
      "developed": 7681,
      "binghamton": 7682,
      "gophers": 7683,
      "bcl": 7684,
      "kerry": 7685,
      "##mes": 7686,
      "##lik": 7687,
      "pair": 7688,
      "488": 7689,
      "oaks": 7690,
      "activ": 7691,
      "citadel": 7692,
      "venez": 7693,
      "bubble": 7694,
      "udoka": 7695,
      "hinrich": 7696,
      "hib": 7697,
      "pine": 7698,
      "##11": 7699,
      "##enburg": 7700,
      "##iterr": 7701,
      "chair": 7702,
      "brock": 7703,
      "slotemplate": 7704,
      "##anean": 7705,
      "petro": 7706,
      "mediterr": 7707,
      "televised": 7708,
      "achievements": 7709,
      "giorgos": 7710,
      "assembly": 7711,
      "valencia": 7712,
      "mediterranean": 7713,
      "].": 7714,
      "cdt": 7715,
      "diff": 7716,
      "##ero": 7717,
      "##isp": 7718,
      "shir": 7719,
      "shaun": 7720,
      "century": 7721,
      "westphal": 7722,
      "mec": 7723,
      "outlaw": 7724,
      "haven": 7725,
      "##ropolis": 7726,
      "australian": 7727,
      "organized": 7728,
      "foye": 7729,
      "lac": 7730,
      "##pack": 7731,
      "##bie": 7732,
      "##ination": 7733,
      "##ently": 7734,
      "unve": 7735,
      "newly": 7736,
      "manila": 7737,
      "shooter": 7738,
      "686": 7739,
      "537": 7740,
      "oakley": 7741,
      "clinching": 7742,
      "surpassed": 7743,
      "transferred": 7744,
      "caracas": 7745,
      "dolph": 7746,
      "ey": 7747,
      "##elle": 7748,
      "leban": 7749,
      "alfred": 7750,
      "receiving": 7751,
      "semifinalswon": 7752,
      "tennis": 7753,
      "bcla": 7754,
      "bku": 7755,
      "bkwu": 7756,
      "##midt": 7757,
      "dp": 7758,
      "lenn": 7759,
      "##isition": 7760,
      "##aste": 7761,
      "##inner": 7762,
      "register": 7763,
      "##ude": 7764,
      "marchand": 7765,
      "calder": 7766,
      "caattendance": 7767,
      "resulted": 7768,
      "acquisition": 7769,
      "legendary": 7770,
      "reaching": 7771,
      "sooners": 7772,
      "piét": 7773,
      "sophia": 7774,
      "lumberjacks": 7775,
      "piétrus": 7776,
      "dino": 7777,
      "your": 7778,
      "##era": 7779,
      "20th": 7780,
      "##adors": 7781,
      "##astemplate": 7782,
      "bey": 7783,
      ").\"": 7784,
      "espec": 7785,
      "competitive": 7786,
      "deport": 7787,
      "venues": 7788,
      "commissioners": 7789,
      "adecco": 7790,
      "deadline": 7791,
      "afrocan": 7792,
      "especially": 7793,
      "(@": 7794,
      "kl": 7795,
      "kelvin": 7796,
      "##vy": 7797,
      "ingram": 7798,
      "stal": 7799,
      "stone": 7800,
      "151": 7801,
      "21st": 7802,
      "knox": 7803,
      "##uster": 7804,
      "##ification": 7805,
      "wolfpack": 7806,
      "spirits": 7807,
      ")(": 7808,
      "rah": 7809,
      "asiatemplate": 7810,
      "##asty": 7811,
      "163": 7812,
      "americastemplate": 7813,
      "perfect": 7814,
      "24th": 7815,
      "acropolis": 7816,
      "trin": 7817,
      "lux": 7818,
      "othertournament": 7819,
      "africatemplate": 7820,
      "##stein": 7821,
      "oceaniatemplate": 7822,
      "lusophone": 7823,
      "othertournamentstemplate": 7824,
      "dooling": 7825,
      "fem": 7826,
      "fog": 7827,
      "gab": 7828,
      "tip": 7829,
      "##equ": 7830,
      "##org": 7831,
      "##rott": 7832,
      "anch": 7833,
      "yearly": 7834,
      "160": 7835,
      "354": 7836,
      "556": 7837,
      "panter": 7838,
      "##board": 7839,
      "dye": 7840,
      "chapman": 7841,
      "hedo": 7842,
      "pipers": 7843,
      "bann": 7844,
      "cind": 7845,
      "hi": 7846,
      "yoder": 7847,
      "##ili": 7848,
      "##awa": 7849,
      "selangor": 7850,
      "magaz": 7851,
      "40rebs": 7852,
      "mccray": 7853,
      "compiled": 7854,
      "provided": 7855,
      "gooden": 7856,
      "majority": 7857,
      "terrence": 7858,
      "cska": 7859,
      "türkoğlu": 7860,
      "dow": 7861,
      "gel": 7862,
      "s1": 7863,
      "sla": 7864,
      "##tam": 7865,
      "ground": 7866,
      "switch": 7867,
      "votes": 7868,
      "justinjust": 7869,
      "sitesfinal": 7870,
      "increased": 7871,
      "cantù": 7872,
      "justinjustin": 7873,
      "],": 7874,
      "ml": 7875,
      "tba": 7876,
      "##wise": 7877,
      "##witt": 7878,
      "##eric": 7879,
      "##illes": 7880,
      "##rier": 7881,
      "edward": 7882,
      "granger": 7883,
      "378": 7884,
      "37rebs": 7885,
      "lefty": 7886,
      "album": 7887,
      "source": 7888,
      "foreign": 7889,
      "figures": 7890,
      "rol": 7891,
      "##nel": 7892,
      "##uen": 7893,
      "##sters": 7894,
      "##icult": 7895,
      "##etzel": 7896,
      "##ioni": 7897,
      "always": 7898,
      "content": 7899,
      "stepped": 7900,
      "mcca": 7901,
      "643": 7902,
      "732": 7903,
      "appearing": 7904,
      "improve": 7905,
      "locker": 7906,
      "control": 7907,
      "sutton": 7908,
      "inches": 7909,
      "difficult": 7910,
      "maint": 7911,
      "##kyo": 7912,
      "##eses": 7913,
      "164": 7914,
      "schmidt": 7915,
      "##abale": 7916,
      "sull": 7917,
      "sylv": 7918,
      "clinton": 7919,
      "declined": 7920,
      "margarita": 7921,
      "gelabale": 7922,
      "158": 7923,
      "##brand": 7924,
      "shooters": 7925,
      "designed": 7926,
      "##atche": 7927,
      "bryan": 7928,
      "promin": 7929,
      "adriatic": 7930,
      "capitalinos": 7931,
      "sponsors": 7932,
      "harvey": 7933,
      "##steph": 7934,
      "italian": 7935,
      "revealed": 7936,
      "peñarol": 7937,
      "cuban": 7938,
      "hours": 7939,
      "niger": 7940,
      "##inelli": 7941,
      "chi": 7942,
      "##ura": 7943,
      "##aves": 7944,
      "##innis": 7945,
      "##ikan": 7946,
      "trailing": 7947,
      "moham": 7948,
      "lowell": 7949,
      "opport": 7950,
      "##boston": 7951,
      "personnel": 7952,
      "mercy": 7953,
      "approved": 7954,
      "coffee": 7955,
      "disbanded": 7956,
      "anchor": 7957,
      "fought": 7958,
      "nap": 7959,
      "things": 7960,
      "##ories": 7961,
      "beij": 7962,
      "lynch": 7963,
      "scotia": 7964,
      "citizens": 7965,
      "occurrences": 7966,
      "bringing": 7967,
      "tippy": 7968,
      "beijing": 7969,
      "dub": 7970,
      "gol": 7971,
      "purn": 7972,
      "vt": 7973,
      "##hart": 7974,
      "##13": 7975,
      "##eled": 7976,
      "##chak": 7977,
      "##idents": 7978,
      "sprew": 7979,
      "maynor": 7980,
      "marko": 7981,
      "repe": 7982,
      "stanstan": 7983,
      "continue": 7984,
      "efforts": 7985,
      "freeman": 7986,
      "bogans": 7987,
      "bias": 7988,
      "primarily": 7989,
      "##horst": 7990,
      "##birds": 7991,
      "sarajevo": 7992,
      "purnell": 7993,
      "sprewell": 7994,
      "cb": 7995,
      "e2": 7996,
      "hash": 7997,
      "tins": 7998,
      "##enter": 7999,
      "##olas": 8000,
      "forrest": 8001,
      "##ivan": 8002,
      "progress": 8003,
      "hawes": 8004,
      "profile": 8005,
      "stephensteph": 8006,
      "statistical": 8007,
      "ellington": 8008,
      "release": 8009,
      "stafford": 8010,
      "committe": 8011,
      "magazine": 8012,
      "tinsley": 8013,
      "stephenstephen": 8014,
      "bab": 8015,
      "hp": 8016,
      "hetzel": 8017,
      "##zen": 8018,
      "##opt": 8019,
      "##lewood": 8020,
      "##imes": 8021,
      "allan": 8022,
      "286": 8023,
      "adopt": 8024,
      "expanded": 8025,
      "ramat": 8026,
      "##backs": 8027,
      "romar": 8028,
      "determine": 8029,
      "negot": 8030,
      "purchased": 8031,
      "interview": 8032,
      "garretson": 8033,
      "bis": 8034,
      "cry": 8035,
      "dod": 8036,
      "hag": 8037,
      "lane": 8038,
      "##ds": 8039,
      "##chal": 8040,
      "shore": 8041,
      "##essa": 8042,
      "279": 8043,
      "blaine": 8044,
      "mann": 8045,
      "parade": 8046,
      "thanks": 8047,
      "jumper": 8048,
      "urstemplate": 8049,
      "rangers": 8050,
      "kong": 8051,
      "##nia": 8052,
      "203": 8053,
      "heav": 8054,
      "##utins": 8055,
      "marie": 8056,
      "above": 8057,
      "438": 8058,
      "tenth": 8059,
      "slow": 8060,
      "##shaun": 8061,
      "rautins": 8062,
      "##inios": 8063,
      "jonas": 8064,
      "working": 8065,
      "layup": 8066,
      "pennant199": 8067,
      "grambling": 8068,
      "png": 8069,
      "gus": 8070,
      "sca": 8071,
      "##hem": 8072,
      "highland": 8073,
      "610": 8074,
      "positive": 8075,
      "olsen": 8076,
      "reinfor": 8077,
      "ceremony": 8078,
      "degree": 8079,
      "##kent": 8080,
      "##__": 8081,
      "stacey": 8082,
      "##ulated": 8083,
      "563": 8084,
      "##ects": 8085,
      "ryanryan": 8086,
      "bronx": 8087,
      "purpose": 8088,
      "transaction": 8089,
      "globetrott": 8090,
      "lebanon": 8091,
      "calderón": 8092,
      "globetrotters": 8093,
      "catch": 8094,
      "ts": 8095,
      "##kim": 8096,
      "##me": 8097,
      "##erbahçe": 8098,
      "##enate": 8099,
      "##ouq": 8100,
      "##andal": 8101,
      "247": 8102,
      "partner": 8103,
      "kelley": 8104,
      "amund": 8105,
      "tarrant": 8106,
      "farouq": 8107,
      "condition": 8108,
      "natenate": 8109,
      "latter": 8110,
      "fenerbahçe": 8111,
      "guarant": 8112,
      "accepted": 8113,
      "cotton": 8114,
      "soviet": 8115,
      "amundson": 8116,
      "sound": 8117,
      "##hai": 8118,
      "##ichi": 8119,
      "##thical": 8120,
      "seem": 8121,
      "anne": 8122,
      "larkin": 8123,
      "scre": 8124,
      "patton": 8125,
      "longtime": 8126,
      "themsel": 8127,
      "dynasty": 8128,
      "themselves": 8129,
      "##play": 8130,
      "##si": 8131,
      "##ci": 8132,
      "ants": 8133,
      "258": 8134,
      "mccutch": 8135,
      "423": 8136,
      "expect": 8137,
      "otis": 8138,
      "jerusal": 8139,
      "outscor": 8140,
      "mccutchen": 8141,
      "jerusalem": 8142,
      "cze": 8143,
      "pand": 8144,
      "pach": 8145,
      "quar": 8146,
      "##lia": 8147,
      "##asing": 8148,
      "stokes": 8149,
      "chest": 8150,
      "pope": 8151,
      "brigh": 8152,
      "292": 8153,
      "harlem": 8154,
      "366": 8155,
      "surv": 8156,
      "##erta": 8157,
      "putting": 8158,
      "expression": 8159,
      "committee": 8160,
      "kup": 8161,
      "enroll": 8162,
      "finley": 8163,
      "redd": 8164,
      "belinelli": 8165,
      "gaud": 8166,
      "leadership": 8167,
      "harvard": 8168,
      "arrival": 8169,
      "controversy": 8170,
      "harrellson": 8171,
      "schaus": 8172,
      "sale": 8173,
      "##nost": 8174,
      "##uć": 8175,
      "##coming": 8176,
      "insp": 8177,
      "##cell": 8178,
      "shown": 8179,
      "speed": 8180,
      "183": 8181,
      "##eller": 8182,
      "368": 8183,
      "quad": 8184,
      "439": 8185,
      "##bled": 8186,
      "##aux": 8187,
      "alexis": 8188,
      "memorable": 8189,
      "buduć": 8190,
      "##jannero": 8191,
      "##ienced": 8192,
      "clarence": 8193,
      "controversial": 8194,
      "jannerojannero": 8195,
      "budućnost": 8196,
      "fenn": 8197,
      "hitting": 8198,
      "ike": 8199,
      "pom": 8200,
      "##ky": 8201,
      "##algir": 8202,
      "store": 8203,
      "exc": 8204,
      "44th": 8205,
      "benben": 8206,
      "##aldo": 8207,
      "staak": 8208,
      "female": 8209,
      "brigham": 8210,
      "##algiris": 8211,
      "aichi": 8212,
      "irish": 8213,
      "lob": 8214,
      "rally": 8215,
      "taste": 8216,
      "##rin": 8217,
      "##oria": 8218,
      "##lew": 8219,
      "##cker": 8220,
      "##ovic": 8221,
      "##apa": 8222,
      "659": 8223,
      "395": 8224,
      "##ittles": 8225,
      "frederick": 8226,
      "darnell": 8227,
      "mythical": 8228,
      "doing": 8229,
      "budd": 8230,
      "hunt": 8231,
      "phillip": 8232,
      "diogu": 8233,
      "mohammed": 8234,
      "upper": 8235,
      "##ered": 8236,
      "##eder": 8237,
      "##lyas": 8238,
      "##ellinios": 8239,
      "402": 8240,
      "brady": 8241,
      "##ancing": 8242,
      "panellinios": 8243,
      "clay": 8244,
      "affl": 8245,
      "umass": 8246,
      "reasons": 8247,
      "described": 8248,
      "##zman": 8249,
      "##aur": 8250,
      "##ía": 8251,
      "##eling": 8252,
      "mostly": 8253,
      "legacy": 8254,
      "jamie": 8255,
      "regionals": 8256,
      "planned": 8257,
      "cage": 8258,
      "tun": 8259,
      "##eem": 8260,
      "##name": 8261,
      "##enhorst": 8262,
      "##eline": 8263,
      "##owiak": 8264,
      "##see": 8265,
      "fract": 8266,
      "friday": 8267,
      "mccre": 8268,
      "marking": 8269,
      "facilities": 8270,
      "darryl": 8271,
      "improvement": 8272,
      "representing": 8273,
      "rabenhorst": 8274,
      "assignment": 8275,
      "licens": 8276,
      "afflalo": 8277,
      "aus": 8278,
      "bj": 8279,
      "coup": 8280,
      "dier": 8281,
      "dual": 8282,
      "filed": 8283,
      "w2": 8284,
      "heights": 8285,
      "##imone": 8286,
      "##ava": 8287,
      "##udd": 8288,
      "##racts": 8289,
      "mayor": 8290,
      "benjam": 8291,
      "semifinalslost": 8292,
      "roberson": 8293,
      "opposing": 8294,
      "capitols": 8295,
      "brackins": 8296,
      "huge": 8297,
      "##exp": 8298,
      "occasions": 8299,
      "grace": 8300,
      "benjamin": 8301,
      "*^": 8302,
      "ayd": 8303,
      "gort": 8304,
      "hip": 8305,
      "slav": 8306,
      "##lock": 8307,
      "arts": 8308,
      "manchester": 8309,
      "elon": 8310,
      "competing": 8311,
      "1905": 8312,
      "bankers": 8313,
      "fernandez": 8314,
      "scotiabank": 8315,
      "pachulia": 8316,
      "burn": 8317,
      "hilton": 8318,
      "ira": 8319,
      "nv": 8320,
      "rot": 8321,
      "##mb": 8322,
      "##ming": 8323,
      "##vol": 8324,
      "##doug": 8325,
      "##fino": 8326,
      "##uquer": 8327,
      "##cs": 8328,
      "##ench": 8329,
      "##entz": 8330,
      "caron": 8331,
      "orr": 8332,
      "utes": 8333,
      "317": 8334,
      "peace": 8335,
      "drive": 8336,
      "duhon": 8337,
      "freshmen": 8338,
      "albuquer": 8339,
      "apiece": 8340,
      "additionally": 8341,
      "nihon": 8342,
      "concluded": 8343,
      "pascal": 8344,
      "drummond": 8345,
      "kupchak": 8346,
      "##lyasova": 8347,
      "albuquerque": 8348,
      "aut": 8349,
      "batum": 8350,
      "jeter": 8351,
      "liggins": 8352,
      "pas": 8353,
      "##gette": 8354,
      "##istr": 8355,
      "156": 8356,
      "backup": 8357,
      "467": 8358,
      "eurocup": 8359,
      "garner": 8360,
      "creative": 8361,
      "positions": 8362,
      "citation": 8363,
      "looking": 8364,
      "##lieb": 8365,
      "federation": 8366,
      "unveiled": 8367,
      "scavol": 8368,
      "scavolini": 8369,
      ")*": 8370,
      "cord": 8371,
      "hask": 8372,
      "ze": 8373,
      "##nest": 8374,
      "##15": 8375,
      "##arian": 8376,
      "seimone": 8377,
      "rex": 8378,
      "atenas": 8379,
      "170": 8380,
      "##essions": 8381,
      "gran": 8382,
      "671": 8383,
      "required": 8384,
      "hoops": 8385,
      "gakusen": 8386,
      "heavily": 8387,
      "gone": 8388,
      "hakim": 8389,
      "pict": 8390,
      "##nik": 8391,
      "##trey": 8392,
      "dexter": 8393,
      "perman": 8394,
      "fiu": 8395,
      "blatt": 8396,
      "##angs": 8397,
      "missoula": 8398,
      "semifinalsmarch": 8399,
      "flames": 8400,
      "##gues": 8401,
      "pavl": 8402,
      "rashard": 8403,
      "highlight": 8404,
      "sweeping": 8405,
      "candid": 8406,
      "shoulder": 8407,
      "cycl": 8408,
      "thurmond": 8409,
      "volunteers": 8410,
      "eugene": 8411,
      "##ako": 8412,
      "illini": 8413,
      "451": 8414,
      "salvat": 8415,
      "mnetemplate": 8416,
      "salvatore": 8417,
      "aj": 8418,
      "ferry": 8419,
      "jiang": 8420,
      "sud": 8421,
      "wend": 8422,
      "##lon": 8423,
      "##lich": 8424,
      "timtim": 8425,
      "26th": 8426,
      "contracts": 8427,
      "moves": 8428,
      "##undos": 8429,
      "trotam": 8430,
      "russian": 8431,
      "galla": 8432,
      "cottrell": 8433,
      "luxury": 8434,
      "trotamundos": 8435,
      "%)": 8436,
      "cul": 8437,
      "dut": 8438,
      "lig": 8439,
      "lag": 8440,
      "vare": 8441,
      "yan": 8442,
      "zhe": 8443,
      "##liff": 8444,
      "##down": 8445,
      "##xton": 8446,
      "##orio": 8447,
      "boone": 8448,
      "backcourt": 8449,
      "##forum": 8450,
      "dark": 8451,
      "police": 8452,
      "ruben": 8453,
      "##beat": 8454,
      "ülkers": 8455,
      "##hmet": 8456,
      "ratliff": 8457,
      "cremins": 8458,
      "fedexforum": 8459,
      "zhejiang": 8460,
      "ülkerspor": 8461,
      "%,": 8462,
      "rav": 8463,
      "wag": 8464,
      "##roberts": 8465,
      "church": 8466,
      "smo": 8467,
      "mcroberts": 8468,
      "lazar": 8469,
      "otherwise": 8470,
      "removed": 8471,
      "youngstown": 8472,
      "talent": 8473,
      "bosnia": 8474,
      "courts": 8475,
      "vernon": 8476,
      "episode": 8477,
      "relationship": 8478,
      "haskins": 8479,
      "diana": 8480,
      "##ško": 8481,
      "##či": 8482,
      "##lement": 8483,
      "144": 8484,
      "30th": 8485,
      "bullock": 8486,
      "michelle": 8487,
      "##iera": 8488,
      "dana": 8489,
      "ronron": 8490,
      "stands": 8491,
      "##front": 8492,
      "modern": 8493,
      "request": 8494,
      "dutch": 8495,
      "nac": 8496,
      "rik": 8497,
      "zone": 8498,
      "##oop": 8499,
      "##íes": 8500,
      "##ʻi": 8501,
      "thought": 8502,
      "##ilenko": 8503,
      "carp": 8504,
      "unp": 8505,
      "guai": 8506,
      "##bric": 8507,
      "35rebs": 8508,
      "lasted": 8509,
      "##burger": 8510,
      "plat": 8511,
      "singleton": 8512,
      "burbage": 8513,
      "musburger": 8514,
      "opted": 8515,
      "hawaiʻi": 8516,
      "choice": 8517,
      "##queríes": 8518,
      "kirilenko": 8519,
      "kosta": 8520,
      "pondexter": 8521,
      "##camores": 8522,
      "guaiqueríes": 8523,
      "sle": 8524,
      "##lenny": 8525,
      "##iago": 8526,
      "##uv": 8527,
      "##itis": 8528,
      "alal": 8529,
      "brid": 8530,
      "contention": 8531,
      "salley": 8532,
      "nazar": 8533,
      "massim": 8534,
      "reportedly": 8535,
      "lennylenny": 8536,
      "inglewood": 8537,
      "pearl": 8538,
      "jiangsu": 8539,
      "bent": 8540,
      "mm": 8541,
      "mou": 8542,
      "##cas": 8543,
      "##esa": 8544,
      "neigh": 8545,
      "shelton": 8546,
      "179": 8547,
      "peja": 8548,
      "1960s": 8549,
      "olympia": 8550,
      "respond": 8551,
      "boykins": 8552,
      "experienced": 8553,
      "tamika": 8554,
      "tacoma": 8555,
      "massimino": 8556,
      "w1": 8557,
      "wide": 8558,
      "{{{": 8559,
      "|}": 8560,
      "##ersburg": 8561,
      "reign": 8562,
      "marinos": 8563,
      "155": 8564,
      "schen": 8565,
      "scandal": 8566,
      "598": 8567,
      "wayns": 8568,
      "omni": 8569,
      "boris": 8570,
      "growing": 8571,
      "gladness": 8572,
      "gottlieb": 8573,
      "hund": 8574,
      "lj": 8575,
      "##mad": 8576,
      "##bes": 8577,
      "##bla": 8578,
      "##wal": 8579,
      "think": 8580,
      "##aged": 8581,
      "roof": 8582,
      "shine": 8583,
      "joey": 8584,
      "agents": 8585,
      "deciding": 8586,
      "watkins": 8587,
      "umbc": 8588,
      "maxwell": 8589,
      "institutions": 8590,
      "rall": 8591,
      "rated": 8592,
      "von": 8593,
      "sef": 8594,
      "reh": 8595,
      "unless": 8596,
      "shang": 8597,
      "173": 8598,
      "mob": 8599,
      "412": 8600,
      "olynyk": 8601,
      "normal": 8602,
      "dinamo": 8603,
      "duckworth": 8604,
      "nazarene": 8605,
      "cab": 8606,
      "higgins": 8607,
      "tab": 8608,
      "168": 8609,
      "indic": 8610,
      "abe": 8611,
      "launch": 8612,
      "mobil": 8613,
      "swap": 8614,
      "advancing": 8615,
      "dougdoug": 8616,
      "performer": 8617,
      "goodrich": 8618,
      "ibaka": 8619,
      "recognized": 8620,
      "issues": 8621,
      "fest": 8622,
      "tub": 8623,
      "##iors": 8624,
      "##ading": 8625,
      "##vere": 8626,
      "248": 8627,
      "##eldon": 8628,
      "warner": 8629,
      "blaze": 8630,
      "sycamores": 8631,
      "herze": 8632,
      "skydome": 8633,
      "favors": 8634,
      "periods": 8635,
      "chaparr": 8636,
      "motiej": 8637,
      "gentry": 8638,
      "razor": 8639,
      "chaparrals": 8640,
      "motiejūnas": 8641,
      "bag": 8642,
      "sending": 8643,
      "zeller": 8644,
      "hewitt": 8645,
      "asun": 8646,
      "bogues": 8647,
      "shak": 8648,
      "##ctor": 8649,
      "##emen": 8650,
      "##antown": 8651,
      "ali": 8652,
      "centers": 8653,
      "centennial": 8654,
      "18asts": 8655,
      "clos": 8656,
      "universities": 8657,
      "weath": 8658,
      "bloom": 8659,
      "fredfred": 8660,
      "recip": 8661,
      "surf": 8662,
      "refused": 8663,
      "recruited": 8664,
      "maple": 8665,
      "reinforced": 8666,
      "nw": 8667,
      "t1": 8668,
      "##bek": 8669,
      "##ickey": 8670,
      "deep": 8671,
      "186": 8672,
      "##ape": 8673,
      "305": 8674,
      "27th": 8675,
      "admin": 8676,
      "##price": 8677,
      "327": 8678,
      "maggette": 8679,
      "624": 8680,
      "mohe": 8681,
      "tax": 8682,
      "bowie": 8683,
      "turk": 8684,
      "1906": 8685,
      "produc": 8686,
      "##heny": 8687,
      "lanier": 8688,
      "carpenter": 8689,
      "dyd": 8690,
      "fit": 8691,
      "lobo": 8692,
      "surr": 8693,
      "##bec": 8694,
      "##_cap": 8695,
      "##amaker": 8696,
      "##elin": 8697,
      "seans": 8698,
      "coord": 8699,
      "lever": 8700,
      "##ista": 8701,
      "bradbrad": 8702,
      "balk": 8703,
      "##gued": 8704,
      "albeck": 8705,
      "nikos": 8706,
      "matches": 8707,
      "archie": 8708,
      "column": 8709,
      "ramsay": 8710,
      "seating_cap": 8711,
      "terms": 8712,
      "british": 8713,
      "wanamaker": 8714,
      "herzegov": 8715,
      "dydek": 8716,
      "seansean": 8717,
      "seating_capacity": 8718,
      "3t": 8719,
      "za": 8720,
      "##ardy": 8721,
      "beer": 8722,
      "228": 8723,
      "barg": 8724,
      "##marcus": 8725,
      "bayless": 8726,
      "607": 8727,
      "raf": 8728,
      "marcusmarcus": 8729,
      "runnin": 8730,
      "tanduay": 8731,
      "knoxville": 8732,
      "dieringer": 8733,
      "##ail": 8734,
      "##bian": 8735,
      "thib": 8736,
      "178": 8737,
      "226": 8738,
      "256": 8739,
      "milit": 8740,
      "engin": 8741,
      "usually": 8742,
      "jake": 8743,
      "##itten": 8744,
      "skinner": 8745,
      "jonjon": 8746,
      "##tyronn": 8747,
      "allegheny": 8748,
      "tyronntyronn": 8749,
      "hairston": 8750,
      "gortat": 8751,
      "mohegan": 8752,
      "eld": 8753,
      "lak": 8754,
      "luck": 8755,
      "rid": 8756,
      "##acc": 8757,
      "18rebs": 8758,
      "blues": 8759,
      ".\"[": 8760,
      "hawkeyes": 8761,
      "howie": 8762,
      "millikan": 8763,
      "springs": 8764,
      "running": 8765,
      "fash": 8766,
      "kol": 8767,
      "msu": 8768,
      "##zac": 8769,
      "##wick": 8770,
      "##alon": 8771,
      "##assee": 8772,
      "##omm": 8773,
      "##emifinal": 8774,
      "##tez": 8775,
      "267": 8776,
      "gee": 8777,
      "paok": 8778,
      "##new": 8779,
      "370": 8780,
      "##opje": 8781,
      "skopje": 8782,
      "emeka": 8783,
      "gait": 8784,
      "##uesday": 8785,
      "spartan": 8786,
      "cebu": 8787,
      "dominican": 8788,
      "effective": 8789,
      "licensed": 8790,
      "fashion": 8791,
      "dri": 8792,
      "ment": 8793,
      "pbc": 8794,
      "##px": 8795,
      "##har": 8796,
      "##bon": 8797,
      "thabe": 8798,
      "##aray": 8799,
      "cobb": 8800,
      "arn": 8801,
      "##ffman": 8802,
      "##aining": 8803,
      "ennis": 8804,
      "fined": 8805,
      "blazer": 8806,
      "mind": 8807,
      "389": 8808,
      "419": 8809,
      "434": 8810,
      "trü": 8811,
      "cann": 8812,
      "loans": 8813,
      "naturalized": 8814,
      "trinity": 8815,
      "thabeet": 8816,
      "##zi": 8817,
      "##gher": 8818,
      "##cial": 8819,
      "##ether": 8820,
      "strick": 8821,
      "##ists": 8822,
      "152": 8823,
      "184": 8824,
      "##zzi": 8825,
      "retiring": 8826,
      "##ettner": 8827,
      "laettner": 8828,
      "35th": 8829,
      "371": 8830,
      "raycom": 8831,
      "remains": 8832,
      "clarkson": 8833,
      "rollie": 8834,
      "recognition": 8835,
      "sideline": 8836,
      "ovc": 8837,
      "quarters": 8838,
      "ferd": 8839,
      "lans": 8840,
      "nix": 8841,
      "rī": 8842,
      "##ın": 8843,
      "##inand": 8844,
      "##irre": 8845,
      "##olut": 8846,
      "##mploy": 8847,
      "serious": 8848,
      "2000s": 8849,
      "larson": 8850,
      "augustin": 8851,
      "dukes": 8852,
      "holmes": 8853,
      "jammers": 8854,
      "artis": 8855,
      "patrickpatrick": 8856,
      "hands": 8857,
      "texters": 8858,
      "##ething": 8859,
      "something": 8860,
      "aguirre": 8861,
      "investig": 8862,
      "vandals": 8863,
      "disappointing": 8864,
      "negoti": 8865,
      "razorbacks": 8866,
      "ferdinand": 8867,
      "lansing": 8868,
      "pil": 8869,
      "##ín": 8870,
      "##inted": 8871,
      "##olomon": 8872,
      "commer": 8873,
      "mehmet": 8874,
      "magn": 8875,
      "411": 8876,
      "peak": 8877,
      "penny": 8878,
      "garland": 8879,
      "braun": 8880,
      "vanatta": 8881,
      "suppl": 8882,
      "pirates": 8883,
      "yugtemplate": 8884,
      "author": 8885,
      "situ": 8886,
      "boumt": 8887,
      "spooner": 8888,
      "fouled": 8889,
      "khimki": 8890,
      "boumtje": 8891,
      "ela": 8892,
      "hicks": 8893,
      "jol": 8894,
      "kw": 8895,
      "nico": 8896,
      "tj": 8897,
      "vinn": 8898,
      "wit": 8899,
      "##yman": 8900,
      "##acio": 8901,
      "leop": 8902,
      "demon": 8903,
      "##utral": 8904,
      "neutral": 8905,
      "174": 8906,
      "french": 8907,
      "260": 8908,
      "upi": 8909,
      "edu": 8910,
      "417": 8911,
      "##lynn": 8912,
      "ident": 8913,
      "dami": 8914,
      "kyiv": 8915,
      "initial": 8916,
      "rebuilding": 8917,
      "bit": 8918,
      "kill": 8919,
      "kem": 8920,
      "oz": 8921,
      "publ": 8922,
      "##ners": 8923,
      "##ncaa": 8924,
      "19th": 8925,
      "##olo": 8926,
      "##eme": 8927,
      "146": 8928,
      "sergio": 8929,
      "##quet": 8930,
      "341": 8931,
      "634": 8932,
      "partners": 8933,
      "549": 8934,
      "440": 8935,
      "beng": 8936,
      "titans": 8937,
      "sams": 8938,
      "gail": 8939,
      "buckner": 8940,
      "##odeau": 8941,
      "hope": 8942,
      "##losion": 8943,
      "kendall": 8944,
      "jessica": 8945,
      "easily": 8946,
      "blowout": 8947,
      "citizenship": 8948,
      "gained": 8949,
      "nathan": 8950,
      "thess": 8951,
      "##rev": 8952,
      "##lest": 8953,
      "const": 8954,
      "##rap": 8955,
      "153": 8956,
      "177": 8957,
      "##arty": 8958,
      "683": 8959,
      "flo": 8960,
      "1950s": 8961,
      "marcin": 8962,
      "burlington": 8963,
      "sonics": 8964,
      "shockers": 8965,
      "competitions": 8966,
      "breanna": 8967,
      "writers": 8968,
      "ccny": 8969,
      "adopted": 8970,
      "pandemic": 8971,
      "pomona": 8972,
      "weatherspoon": 8973,
      "##aloniki": 8974,
      "thessaloniki": 8975,
      "2t": 8976,
      "employ": 8977,
      "fant": 8978,
      "##xim": 8979,
      "##_name": 8980,
      "unexp": 8981,
      "scores": 8982,
      "presence": 8983,
      "selvy": 8984,
      "41rebs": 8985,
      "stadium_name": 8986,
      "##ermott": 8987,
      "holzman": 8988,
      "christmas": 8989,
      "mcdermott": 8990,
      "riverside": 8991,
      "rouge": 8992,
      "kendrick": 8993,
      "##atello": 8994,
      "hodges": 8995,
      "welcome": 8996,
      "##charles": 8997,
      "sylvia": 8998,
      "kemba": 8999,
      "\")": 9000,
      "gig": 9001,
      "hern": 9002,
      "kou": 9003,
      "rome": 9004,
      "##mac": 9005,
      "story": 9006,
      "209": 9007,
      "##actic": 9008,
      "che": 9009,
      "body": 9010,
      "westhead": 9011,
      "353": 9012,
      "560": 9013,
      "turnover": 9014,
      "bobbybob": 9015,
      "armor": 9016,
      "lightning": 9017,
      "dupree": 9018,
      "neighbor": 9019,
      "bobbybobby": 9020,
      "gat": 9021,
      "jak": 9022,
      "wis": 9023,
      "##adol": 9024,
      "##ument": 9025,
      "collect": 9026,
      "213": 9027,
      "##cox": 9028,
      "954": 9029,
      "morrow": 9030,
      "dunks": 9031,
      "formation": 9032,
      "sidelined": 9033,
      "discuss": 9034,
      "believed": 9035,
      "military": 9036,
      "unexpected": 9037,
      "jag": 9038,
      "jab": 9039,
      "##obs": 9040,
      "thursday": 9041,
      "towards": 9042,
      "##aktemplate": 9043,
      "arbor": 9044,
      "##ightly": 9045,
      "306": 9046,
      "knicker": 9047,
      "265": 9048,
      "rebounder": 9049,
      "##ishing": 9050,
      "##ipped": 9051,
      "manny": 9052,
      "scale": 9053,
      "335": 9054,
      "fta": 9055,
      "mobi": 9056,
      "fga": 9057,
      "founding": 9058,
      "juwan": 9059,
      "##erdome": 9060,
      "costumed": 9061,
      "pittman": 9062,
      "jacobs": 9063,
      "rodriguez": 9064,
      "prospect": 9065,
      "repeat": 9066,
      "wagner": 9067,
      "knickerbock": 9068,
      "900": 9069,
      "bah": 9070,
      "fow": 9071,
      "mode": 9072,
      "##oley": 9073,
      "##ánd": 9074,
      "##ıba": 9075,
      "forfe": 9076,
      "practic": 9077,
      "266": 9078,
      "##zzo": 9079,
      "624referees": 9080,
      "presented": 9081,
      "596referees": 9082,
      "mccants": 9083,
      "olympians": 9084,
      "resulting": 9085,
      "governor": 9086,
      "quicken": 9087,
      "sponsored": 9088,
      "eczac": 9089,
      "wvu": 9090,
      "nenad": 9091,
      "nigeria": 9092,
      "##ández": 9093,
      "##ıbaşı": 9094,
      "eczacıbaşı": 9095,
      "bun": 9096,
      "fs": 9097,
      "jame": 9098,
      "mas": 9099,
      "nancy": 9100,
      "zo": 9101,
      "##rudy": 9102,
      "sty": 9103,
      "##robert": 9104,
      "224": 9105,
      "##brine": 9106,
      "scala": 9107,
      "ftm": 9108,
      "prefect": 9109,
      "reput": 9110,
      "rodgers": 9111,
      "standout": 9112,
      "famu": 9113,
      "mcdaniel": 9114,
      "cousin": 9115,
      "rudyrudy": 9116,
      "towers": 9117,
      "i̇lyasova": 9118,
      "chairman": 9119,
      "sullivan": 9120,
      "cyclones": 9121,
      "scalabrine": 9122,
      "prefecture": 9123,
      "gator": 9124,
      "tai": 9125,
      "##uce": 9126,
      "stall": 9127,
      "227": 9128,
      "bras": 9129,
      "madd": 9130,
      "blatche": 9131,
      "415": 9132,
      "horace": 9133,
      "lawlor": 9134,
      "meetings": 9135,
      "separate": 9136,
      "masters": 9137,
      "panteras": 9138,
      "cindy": 9139,
      "guaranteed": 9140,
      "shanghai": 9141,
      "##cil": 9142,
      "##inic": 9143,
      "##aring": 9144,
      "##mann": 9145,
      "project": 9146,
      "293": 9147,
      "##acek": 9148,
      "enc": 9149,
      "421": 9150,
      "hornacek": 9151,
      "ways": 9152,
      "fgm": 9153,
      "ivey": 9154,
      "concern": 9155,
      "distin": 9156,
      "##atasaray": 9157,
      "greggreg": 9158,
      "galatasaray": 9159,
      "commentator": 9160,
      "threat": 9161,
      "moment": 9162,
      "czech": 9163,
      "administr": 9164,
      "strickland": 9165,
      "mobile": 9166,
      "8t": 9167,
      "žalgiris": 9168,
      "##uals": 9169,
      "referees": 9170,
      "##kees": 9171,
      "##antes": 9172,
      "serving": 9173,
      "divac": 9174,
      "796": 9175,
      "mccall": 9176,
      "39rebs": 9177,
      "annually": 9178,
      "nyattendance": 9179,
      "myers": 9180,
      "##flip": 9181,
      "mcneal": 9182,
      "erik": 9183,
      "cumber": 9184,
      "accomplishments": 9185,
      "golf": 9186,
      "thibodeau": 9187,
      "kob": 9188,
      "##matt": 9189,
      "##derek": 9190,
      "##uf": 9191,
      "##water": 9192,
      "theo": 9193,
      "chip": 9194,
      "##omons": 9195,
      "beş": 9196,
      "byers": 9197,
      "hadd": 9198,
      "offers": 9199,
      "407": 9200,
      "386": 9201,
      "538": 9202,
      "flint": 9203,
      "jerryd": 9204,
      "krst": 9205,
      "taj": 9206,
      "sharpe": 9207,
      "palmer": 9208,
      "solomons": 9209,
      "packers": 9210,
      "derekderek": 9211,
      "trying": 9212,
      "messina": 9213,
      "petronas": 9214,
      "solomonsolomon": 9215,
      "##van": 9216,
      "##ped": 9217,
      "##like": 9218,
      "##anian": 9219,
      "##ceed": 9220,
      "255": 9221,
      "##ipe": 9222,
      "steel": 9223,
      "409": 9224,
      "mccoy": 9225,
      "585": 9226,
      "receives": 9227,
      "macau": 9228,
      "delfino": 9229,
      "##aua": 9230,
      "##eznič": 9231,
      "##alcolm": 9232,
      "##billy": 9233,
      "possession": 9234,
      "categories": 9235,
      "council": 9236,
      "flipflip": 9237,
      "ironi": 9238,
      "##cote": 9239,
      "željeznič": 9240,
      "gallagher": 9241,
      "duties": 9242,
      "rallied": 9243,
      "surround": 9244,
      "herzegovina": 9245,
      "željezničar": 9246,
      "buss": 9247,
      "lif": 9248,
      "pont": 9249,
      "wach": 9250,
      "wwe": 9251,
      "wally": 9252,
      "##tü": 9253,
      "##fc": 9254,
      "##casts": 9255,
      "##angel": 9256,
      "##lla": 9257,
      "##illie": 9258,
      "##utemplate": 9259,
      "carney": 9260,
      "bres": 9261,
      "shootout": 9262,
      "reporter": 9263,
      "cramo": 9264,
      "duane": 9265,
      "robertrobert": 9266,
      "provide": 9267,
      "billybilly": 9268,
      "hansen": 9269,
      "kryst": 9270,
      "industri": 9271,
      "spartanburg": 9272,
      "##bour": 9273,
      "##ivis": 9274,
      "carrier": 9275,
      "##terry": 9276,
      "236": 9277,
      "megan": 9278,
      "##ikta": 9279,
      "eliz": 9280,
      "swin": 9281,
      "##errence": 9282,
      "mattmatt": 9283,
      "terryterry": 9284,
      "subsequent": 9285,
      "terrencet": 9286,
      "sexson": 9287,
      "heathcote": 9288,
      "beşikta": 9289,
      "terrenceterrence": 9290,
      "beşiktaş": 9291,
      "penders": 9292,
      "##mu": 9293,
      "##gett": 9294,
      "##arko": 9295,
      "stood": 9296,
      "tol": 9297,
      "chick": 9298,
      "boost": 9299,
      "meadow": 9300,
      "meij": 9301,
      "upd": 9302,
      "381": 9303,
      "380": 9304,
      "canc": 9305,
      "posey": 9306,
      "medical": 9307,
      "releg": 9308,
      "naz": 9309,
      "corp": 9310,
      "buddy": 9311,
      "eagle": 9312,
      "rollins": 9313,
      "dobson": 9314,
      "authors": 9315,
      "vladimir": 9316,
      "balkman": 9317,
      "bengals": 9318,
      "meiji": 9319,
      "bil": 9320,
      "fro": 9321,
      "ka": 9322,
      "piv": 9323,
      "saturday": 9324,
      "tuc": 9325,
      "##pital": 9326,
      "##xi": 9327,
      "##21": 9328,
      "##etson": 9329,
      "stetson": 9330,
      "really": 9331,
      "##verted": 9332,
      "##estra": 9333,
      "barnett": 9334,
      "mayes": 9335,
      "394": 9336,
      "462": 9337,
      "logan": 9338,
      "colonials": 9339,
      "##ception": 9340,
      "grayson": 9341,
      "question": 9342,
      "hospital": 9343,
      "tucson": 9344,
      "\"|": 9345,
      "2ot": 9346,
      "bicker": 9347,
      "sasha": 9348,
      "zulia": 9349,
      "##jun": 9350,
      "##100": 9351,
      "##ça": 9352,
      "##lled": 9353,
      "stor": 9354,
      "##using": 9355,
      "##ovia": 9356,
      "##orski": 9357,
      "westchester": 9358,
      "starks": 9359,
      "##ogg": 9360,
      "trailed": 9361,
      "418": 9362,
      "truitt": 9363,
      "##cutt": 9364,
      "streng": 9365,
      "dariusdar": 9366,
      "jaworski": 9367,
      "labor": 9368,
      "gaiteros": 9369,
      "strength": 9370,
      "dariusdarius": 9371,
      "kid": 9372,
      "m1": 9373,
      "mond": 9374,
      "##tz": 9375,
      "##cat": 9376,
      "##oloff": 9377,
      "##terian": 9378,
      "##achel": 9379,
      "##onda": 9380,
      "239": 9381,
      "presby": 9382,
      "whole": 9383,
      "acie": 9384,
      "drought": 9385,
      "herro": 9386,
      "naib": 9387,
      "avo": 9388,
      "##nesday": 9389,
      "hannah": 9390,
      "kaman": 9391,
      "podoloff": 9392,
      "enjoyed": 9393,
      "dentmon": 9394,
      "presbyterian": 9395,
      "ek": 9396,
      "py": 9397,
      "viv": 9398,
      "##žen": 9399,
      "##esp": 9400,
      "rolle": 9401,
      "bok": 9402,
      "angelo": 9403,
      "dražen": 9404,
[...]
