{
  "version": "1.0",
  "truncation": {
    "direction": "Right",
    "max_length": 128,
    "strategy": "LongestFirst",
    "stride": 0
  },
  "padding": {
    "strategy": {
      "Fixed": 128
    },
    "direction": "Right",
    "pad_to_multiple_of": null,
    "pad_id": 1,
    "pad_type_id": 0,
    "pad_token": "<pad>"
  },
  "added_tokens": [
    {
      "id": 0,
      "content": "<unk>",
      "single_word": false,
      "lstrip": false,
      "rstrip": false,
      "normalized": false,
      "special": true
    },
    {
      "id": 1,
      "content": "<pad>",
      "single_word": false,
      "lstrip": false,
      "rstrip": false,
      "normalized": false,
      "special": true
    },
    {
      "id": 2,
      "content": "<bos>",
      "single_word": false,
      "lstrip": false,
      "rstrip": false,
      "normalized": false,
      "special": true
    },
    {
      "id": 3,
      "content": "<eos>",
      "single_word": false,
      "lstrip": false,
      "rstrip": false,
      "normalized": false,
      "special": true
    }
  ],
  "normalizer": {
    "type": "Sequence",
    "normalizers": [
      {
        "type": "Lowercase"
      }
    ]
  },
  "pre_tokenizer": {
    "type": "Whitespace"
  },
  "post_processor": null,
  "decoder": {
    "type": "WordPiece",
    "prefix": "##",
    "cleanup": true
  },
  "model": {
    "type": "WordPiece",
    "unk_token": "<unk>",
    "continuing_subword_prefix": "##",
    "max_input_chars_per_word": 100,
    "vocab": {
      "<unk>": 0,
      "<pad>": 1,
      "<bos>": 2,
      "<eos>": 3,
      "!": 4,
      "\"": 5,
      "#": 6,
      "$": 7,
      "%": 8,
      "&": 9,
      "'": 10,
      "(": 11,
      ")": 12,
      "*": 13,
      "+": 14,
      ",": 15,
      "-": 16,
      ".": 17,
      "/": 18,
      "0": 19,
      "1": 20,
      "2": 21,
      "3": 22,
      "4": 23,
      "5": 24,
      "6": 25,
      "7": 26,
      "8": 27,
      "9": 28,
      ":": 29,
      "<": 30,
      "=": 31,
      ">": 32,
      "?": 33,
      "@": 34,
      "[": 35,
      "]": 36,
      "^": 37,
      "_": 38,
      "`": 39,
      "a": 40,
      "b": 41,
      "c": 42,
      "d": 43,
      "e": 44,
      "f": 45,
      "g": 46,
      "h": 47,
      "i": 48,
      "j": 49,
      "k": 50,
      "l": 51,
      "m": 52,
      "n": 53,
      "o": 54,
      "p": 55,
      "q": 56,
      "r": 57,
      "s": 58,
      "t": 59,
      "u": 60,
      "v": 61,
      "w": 62,
      "x": 63,
      "y": 64,
      "z": 65,
      "{": 66,
      "|": 67,
      "}": 68,
      "~": 69,
      "£": 70,
      "¤": 71,
      "§": 72,
      "°": 73,
      "²": 74,
      "´": 75,
      "·": 76,
      "¹": 77,
      "»": 78,
      "¼": 79,
      "×": 80,
      "ß": 81,
      "à": 82,
      "á": 83,
      "â": 84,
      "ã": 85,
      "ä": 86,
      "å": 87,
      "æ": 88,
      "ç": 89,
      "è": 90,
      "é": 91,
      "ê": 92,
      "ë": 93,
      "í": 94,
      "ï": 95,
      "ñ": 96,
      "ó": 97,
      "ô": 98,
      "õ": 99,
      "ö": 100,
      "÷": 101,
      "ø": 102,
      "ù": 103,
      "ú": 104,
      "ü": 105,
      "ý": 106,
      "ÿ": 107,
      "ā": 108,
      "ą": 109,
      "ć": 110,
      "č": 111,
      "đ": 112,
      "ē": 113,
      "ę": 114,
      "ě": 115,
      "ğ": 116,
      "ģ": 117,
      "ī": 118,
      "ı": 119,
      "ķ": 120,
      "ł": 121,
      "ń": 122,
      "ņ": 123,
      "ŋ": 124,
      "ō": 125,
      "ő": 126,
      "ř": 127,
      "ś": 128,
      "ş": 129,
      "š": 130,
      "ū": 131,
      "ű": 132,
      "ź": 133,
      "ż": 134,
      "ž": 135,
      "ș": 136,
      "ɔ": 137,
      "ə": 138,
      "ɛ": 139,
      "ʃ": 140,
      "ʊ": 141,
      "ʻ": 142,
      "ˈ": 143,
      "ː": 144,
      "˝": 145,
      "̇": 146,
      "ά": 147,
      "ή": 148,
      "ί": 149,
      "α": 150,
      "γ": 151,
      "ε": 152,
      "η": 153,
      "θ": 154,
      "ι": 155,
      "κ": 156,
      "λ": 157,
      "μ": 158,
      "ν": 159,
      "ο": 160,
      "π": 161,
      "ρ": 162,
      "τ": 163,
      "ω": 164,
      "а": 165,
      "б": 166,
      "в": 167,
      "г": 168,
      "е": 169,
      "з": 170,
      "и": 171,
      "к": 172,
      "л": 173,
      "м": 174,
      "н": 175,
      "о": 176,
      "п": 177,
      "р": 178,
      "с": 179,
      "т": 180,
      "у": 181,
      "ц": 182,
      "ы": 183,
      "ј": 184,
      "ћ": 185,
      "‐": 186,
      "—": 187,
      "‘": 188,
      "’": 189,
      "“": 190,
      "”": 191,
      "†": 192,
      "‡": 193,
      "•": 194,
      "′": 195,
      "″": 196,
      "›": 197,
      "⁄": 198,
      "€": 199,
      "₮": 200,
      "↑": 201,
      "→": 202,
      "≡": 203,
      "█": 204,
      "▲": 205,
      "♦": 206,
      "♯": 207,
      "✝": 208,
      "ケ": 209,
      "ス": 210,
      "ッ": 211,
      "ト": 212,
      "バ": 213,
      "ボ": 214,
      "ル": 215,
      "ー": 216,
      "中": 217,
      "会": 218,
      "佳": 219,
      "信": 220,
      "傑": 221,
      "元": 222,
      "全": 223,
      "台": 224,
      "吳": 225,
      "國": 226,
      "壘": 227,
      "士": 228,
      "大": 229,
      "学": 230,
      "學": 231,
      "安": 232,
      "岱": 233,
      "峰": 234,
      "年": 235,
      "度": 236,
      "張": 237,
      "德": 238,
      "志": 239,
      "忠": 240,
      "手": 241,
      "文": 242,
      "斯": 243,
      "日": 244,
      "智": 245,
      "曾": 246,
      "最": 247,
      "本": 248,
      "李": 249,
      "林": 250,
      "桑": 251,
      "権": 252,
      "泰": 253,
      "田": 254,
      "華": 255,
      "豪": 256,
      "選": 257,
      "陳": 258,
      "電": 259,
      "鬥": 260,
      "鼎": 261,
      "##l": 262,
      "##a": 263,
      "##z": 264,
      "##i": 265,
      "##d": 266,
      "##y": 267,
      "##u": 268,
      "##o": 269,
      "##c": 270,
      "##k": 271,
      "##2": 272,
      "##9": 273,
      "##n": 274,
      "##r": 275,
      "##w": 276,
      "##e": 277,
      "##v": 278,
      "##m": 279,
      "##s": 280,
      "##t": 281,
      "##h": 282,
      "##g": 283,
      "##x": 284,
      "##1": 285,
      "##q": 286,
      "##f": 287,
      "##p": 288,
      "##j": 289,
      "##3": 290,
      "##b": 291,
      "##8": 292,
      "##7": 293,
      "##0": 294,
      "##6": 295,
      "##и": 296,
      "##г": 297,
      "##а": 298,
      "##ž": 299,
      "##4": 300,
      "##5": 301,
      "##$": 302,
      "##č": 303,
      "##ć": 304,
      "##/": 305,
      "##ö": 306,
      "##ä": 307,
      "##š": 308,
      "##ü": 309,
      "##ı": 310,
      "##[": 311,
      "##í": 312,
      "##.": 313,
      "##\"": 314,
      "##ş": 315,
      "##å": 316,
      "##ç": 317,
      "##)": 318,
      "##(": 319,
      "##ș": 320,
      "##é": 321,
      "##ą": 322,
      "##_": 323,
      "##á": 324,
      "##ó": 325,
      "##>": 326,
      "##,": 327,
      "##ñ": 328,
      "##ū": 329,
      "##ł": 330,
      "##р": 331,
      "##ј": 332,
      "##н": 333,
      "##о": 334,
      "##в": 335,
      "##ћ": 336,
      "##€": 337,
      "##'": 338,
      "##學": 339,
      "##林": 340,
      "##*": 341,
      "##”": 342,
      "##ô": 343,
      "##ý": 344,
      "##è": 345,
      "##̇": 346,
      "##度": 347,
      "##最": 348,
      "##佳": 349,
      "##鬥": 350,
      "##士": 351,
      "##ě": 352,
      "##?": 353,
      "##]": 354,
      "##ē": 355,
      "##ã": 356,
      "##-": 357,
      "##|": 358,
      "##!": 359,
      "##ő": 360,
      "##ű": 361,
      "##•": 362,
      "##ń": 363,
      "##:": 364,
      "##ú": 365,
      "##×": 366,
      "##ğ": 367,
      "##à": 368,
      "##†": 369,
      "##ù": 370,
      "##ņ": 371,
      "##ģ": 372,
      "##ë": 373,
      "##â": 374,
      "##ː": 375,
      "##█": 376,
      "##ŋ": 377,
      "##ˈ": 378,
      "##ɛ": 379,
      "##õ": 380,
      "##ï": 381,
      "##ř": 382,
      "##đ": 383,
      "##ʊ": 384,
      "##}": 385,
      "##ķ": 386,
      "##ɔ": 387,
      "##ʃ": 388,
      "##ы": 389,
      "##з": 390,
      "##ź": 391,
      "##ø": 392,
      "##^": 393,
      "##ʻ": 394,
      "##{": 395,
      "##α": 396,
      "##τ": 397,
      "##η": 398,
      "##γ": 399,
      "##ο": 400,
      "##ρ": 401,
      "##ί": 402,
      "##=": 403,
      "##華": 404,
      "##電": 405,
      "##信": 406,
      "###": 407,
      "##智": 408,
      "##峰": 409,
      "##ż": 410,
      "##›": 411,
      "##—": 412,
      "##‡": 413,
      "##▲": 414,
      "##æ": 415,
      "##安": 416,
      "##ω": 417,
      "##ά": 418,
      "##θ": 419,
      "##λ": 420,
      "##μ": 421,
      "##日": 422,
      "##本": 423,
      "##大": 424,
      "##学": 425,
      "##バ": 426,
      "##ス": 427,
      "##ケ": 428,
      "##ッ": 429,
      "##ト": 430,
      "##ボ": 431,
      "##ー": 432,
      "##ル": 433,
      "##選": 434,
      "##手": 435,
      "##権": 436,
      "##会": 437,
      "##“": 438,
      "##ā": 439,
      "##с": 440,
      "##к": 441,
      "##е": 442,
      "##т": 443,
      "##б": 444,
      "##л": 445,
      "##у": 446,
      "##志": 447,
      "##忠": 448,
      "##泰": 449,
      "##ī": 450,
      "##ę": 451,
      "##岱": 452,
      "##豪": 453,
      "##文": 454,
      "##鼎": 455,
      "##壘": 456,
      "##元": 457,
      "##<": 458,
      "##德": 459,
      "##斯": 460,
      "##傑": 461,
      "##ν": 462,
      "##ε": 463,
      "##ή": 464,
      "##ι": 465,
      "##ê": 466,
      "##κ": 467,
      "##ß": 468,
      "##+": 469,
      "##ə": 470,
      "##ÿ": 471,
      "##ц": 472,
      "##@": 473,
      "##er": 474,
      "##on": 475,
      "th": 476,
      "##in": 477,
      "the": 478,
      "##ar": 479,
      "##en": 480,
      "19": 481,
      "##00": 482,
      "##or": 483,
      "##an": 484,
      "##st": 485,
      "##am": 486,
      "##al": 487,
      "##at": 488,
      "##ed": 489,
      "##as": 490,
      "##es": 491,
      "##ou": 492,
      "##nd": 493,
      "##ic": 494,
      "in": 495,
      "##it": 496,
      "##ll": 497,
      "##is": 498,
      "##ing": 499,
      "st": 500,
      "##et": 501,
      "200": 502,
      "##el": 503,
      "##ers": 504,
      "##ion": 505,
      "##la": 506,
      "to": 507,
      "##th": 508,
      "##ent": 509,
      "se": 510,
      "and": 511,
      "20": 512,
      "of": 513,
      "##ac": 514,
      "##ate": 515,
      "##re": 516,
      "co": 517,
      "##le": 518,
      "te": 519,
      "##ce": 520,
      "199": 521,
      "##ir": 522,
      "##ro": 523,
      "##ad": 524,
      "ch": 525,
      "re": 526,
      "##ig": 527,
      "##0000": 528,
      "201": 529,
      "##ol": 530,
      "##all": 531,
      "##ur": 532,
      "198": 533,
      "##ch": 534,
      "##ts": 535,
      "pla": 536,
      "gam": 537,
      "##ba": 538,
      "for": 539,
      "con": 540,
      "##iv": 541,
      "##il": 542,
      "play": 543,
      "##ason": 544,
      "##mp": 545,
      "##os": 546,
      "on": 547,
      "197": 548,
      "an": 549,
      "##ard": 550,
      "10": 551,
      "##ag": 552,
      "##ound": 553,
      "##ot": 554,
      "##id": 555,
      "was": 556,
      "##and": 557,
      "##ver": 558,
      "##ith": 559,
      "##ke": 560,
      "season": 561,
      "##ill": 562,
      "as": 563,
      "state": 564,
      "##ow": 565,
      "he": 566,
      "##ay": 567,
      "##im": 568,
      "nba": 569,
      "##ca": 570,
      "team": 571,
      "##hi": 572,
      "##our": 573,
      "##un": 574,
      "##ick": 575,
      "##ut": 576,
      "##om": 577,
      "11": 578,
      "le": 579,
      "##ber": 580,
      "de": 581,
      "ne": 582,
      "##fer": 583,
      "##est": 584,
      "##ast": 585,
      "game": 586,
      "with": 587,
      "##ra": 588,
      "##ist": 589,
      "##ul": 590,
      "po": 591,
      "##amp": 592,
      "at": 593,
      "##ence": 594,
      "12": 595,
      "car": 596,
      "##ck": 597,
      "##inal": 598,
      "##caa": 599,
      "##ge": 600,
      "ncaa": 601,
      "196": 602,
      "##ter": 603,
      "fir": 604,
      "##ton": 605,
      "##igh": 606,
      "be": 607,
      "##av": 608,
      "ro": 609,
      "first": 610,
      "un": 611,
      "round": 612,
      "##cor": 613,
      "##ity": 614,
      "confer": 615,
      "##ri": 616,
      "conference": 617,
      "champ": 618,
      "bo": 619,
      "champion": 620,
      "##son": 621,
      "##ation": 622,
      "##ear": 623,
      "sh": 624,
      "poin": 625,
      "mar": 626,
      "##ia": 627,
      "##ry": 628,
      "##em": 629,
      "##ct": 630,
      "13": 631,
      "new": 632,
      "##ie": 633,
      "##mpl": 634,
      "sp": 635,
      "all": 636,
      "by": 637,
      "##us": 638,
      "##ach": 639,
      "195": 640,
      "##ern": 641,
      "##ak": 642,
      "##ant": 643,
      "##ask": 644,
      "jo": 645,
      "##mplate": 646,
      "##ue": 647,
      "##ly": 648,
      "year": 649,
      "his": 650,
      "##ich": 651,
      "##ond": 652,
      "##00000000": 653,
      "##uar": 654,
      "##ament": 655,
      "14": 656,
      "##um": 657,
      "los": 658,
      "bu": 659,
      "ar": 660,
      "##ball": 661,
      "##ets": 662,
      "wh": 663,
      "##ston": 664,
      "##asket": 665,
      "##ans": 666,
      "final": 667,
      "##ain": 668,
      "basket": 669,
      "##ff": 670,
      "al": 671,
      "##pp": 672,
      "win": 673,
      "##ourn": 674,
      "##lle": 675,
      "##mer": 676,
      "nor": 677,
      "basketball": 678,
      "15": 679,
      "##if": 680,
      "tourn": 681,
      "16": 682,
      "cent": 683,
      "tournament": 684,
      "colle": 685,
      "template": 686,
      "north": 687,
      "##ov": 688,
      "##se": 689,
      "##ian": 690,
      "##ft": 691,
      "##outh": 692,
      "games": 693,
      "##uke": 694,
      "##rom": 695,
      "##te": 696,
      "points": 697,
      "tim": 698,
      "college": 699,
      "sec": 700,
      "##land": 701,
      "18": 702,
      "##ina": 703,
      "##ies": 704,
      "south": 705,
      "champions": 706,
      "##ack": 707,
      "from": 708,
      "##ward": 709,
      "##one": 710,
      "17": 711,
      "west": 712,
      "##ost": 713,
      "2010": 714,
      "194": 715,
      "reg": 716,
      "player": 717,
      "mi": 718,
      "dra": 719,
      "second": 720,
      "##oun": 721,
      "##ect": 722,
      "##ap": 723,
      "##ok": 724,
      "fr": 725,
      "##ix": 726,
      "center": 727,
      "##gel": 728,
      "##ors": 729,
      "##ics": 730,
      "coach": 731,
      "scor": 732,
      "per": 733,
      "##art": 734,
      "sch": 735,
      "##ive": 736,
      "##end": 737,
      "##hn": 738,
      "cl": 739,
      "##ey": 740,
      "or": 741,
      "angel": 742,
      "##hip": 743,
      "##ight": 744,
      "carol": 745,
      "##ere": 746,
      "ind": 747,
      "is": 748,
      "##aw": 749,
      "over": 750,
      "amer": 751,
      "americ": 752,
      "carolina": 753,
      "##ley": 754,
      "ass": 755,
      "finals": 756,
      "angeles": 757,
      "east": 758,
      "##ore": 759,
      "##icks": 760,
      "21": 761,
      "##cord": 762,
      "##rad": 763,
      "22": 764,
      "john": 765,
      "##ree": 766,
      "##old": 767,
      "san": 768,
      "##uary": 769,
      "##akers": 770,
      "##io": 771,
      "2008": 772,
      "record": 773,
      "2009": 774,
      "com": 775,
      "##ool": 776,
      "##ague": 777,
      "##ort": 778,
      "gu": 779,
      "##ork": 780,
      "draft": 781,
      "championship": 782,
      "ag": 783,
      "2007": 784,
      "30": 785,
      "that": 786,
      "pr": 787,
      "##ug": 788,
      "stat": 789,
      "##ena": 790,
      "2006": 791,
      "24": 792,
      "lakers": 793,
      "23": 794,
      "##inn": 795,
      "gre": 796,
      "##ld": 797,
      "school": 798,
      "none": 799,
      "##cc": 800,
      "##ah": 801,
      "ge": 802,
      "##orn": 803,
      "kn": 804,
      "##ivers": 805,
      "),": 806,
      "##br": 807,
      "##iss": 808,
      "##ord": 809,
      "league": 810,
      "##ember": 811,
      "bro": 812,
      "##ons": 813,
      "##ell": 814,
      "##ame": 815,
      "##lor": 816,
      "##elt": 817,
      "##man": 818,
      "##ational": 819,
      "##eer": 820,
      "ph": 821,
      "##enn": 822,
      "pick": 823,
      "atl": 824,
      "##ess": 825,
      "ser": 826,
      "25": 827,
      "geor": 828,
      "##ited": 829,
      "##ames": 830,
      "york": 831,
      "##ev": 832,
      "##ior": 833,
      "##eld": 834,
      "##ular": 835,
      "det": 836,
      "##ph": 837,
      "af": 838,
      "big": 839,
      "tw": 840,
      "##oc": 841,
      "reb": 842,
      "##ens": 843,
      "##att": 844,
      "career": 845,
      "26": 846,
      "out": 847,
      "##ab": 848,
      "atlant": 849,
      "##up": 850,
      "fe": 851,
      "boston": 852,
      "ma": 853,
      "##off": 854,
      "2005": 855,
      "76": 856,
      "fi": 857,
      "##ated": 858,
      "high": 859,
      "pro": 860,
      "##ud": 861,
      "regular": 862,
      "dav": 863,
      "arena": 864,
      "duke": 865,
      "##oug": 866,
      "me": 867,
      "will": 868,
      "univers": 869,
      "time": 870,
      "##ust": 871,
      "their": 872,
      "br": 873,
      "##arl": 874,
      "2004": 875,
      "bull": 876,
      "##ris": 877,
      "united": 878,
      "##od": 879,
      "##pg": 880,
      "celt": 881,
      "def": 882,
      "after": 883,
      "states": 884,
      "193": 885,
      "##ington": 886,
      "2000": 887,
      "rebound": 888,
      "##ision": 889,
      "celtics": 890,
      "university": 891,
      "##ont": 892,
      "2003": 893,
      "1st": 894,
      "national": 895,
      "2001": 896,
      "hou": 897,
      "##ount": 898,
      "playoff": 899,
      "dur": 900,
      "star": 901,
      "##elp": 902,
      "jun": 903,
      "div": 904,
      "27": 905,
      "city": 906,
      "guard": 907,
      "sm": 908,
      "four": 909,
      "28": 910,
      "##iana": 911,
      "##ansas": 912,
      "comm": 913,
      "##vel": 914,
      "point": 915,
      "but": 916,
      "it": 917,
      "mil": 918,
      "##ks": 919,
      "##ory": 920,
      "##ise": 921,
      "played": 922,
      "##zz": 923,
      "##bs": 924,
      "##qu": 925,
      "two": 926,
      "##ign": 927,
      "##ong": 928,
      "##ish": 929,
      "war": 930,
      "2002": 931,
      "series": 932,
      "not": 933,
      "had": 934,
      "ok": 935,
      "rs": 936,
      "cle": 937,
      "fran": 938,
      "won": 939,
      "##ome": 940,
      "##ipp": 941,
      "division": 942,
      "1996": 943,
      "202": 944,
      "##oma": 945,
      "##lah": 946,
      "rebounds": 947,
      "mich": 948,
      "miss": 949,
      "##so": 950,
      "anton": 951,
      "houston": 952,
      "again": 953,
      "were": 954,
      ".[": 955,
      "sem": 956,
      "assist": 957,
      "##ami": 958,
      "ex": 959,
      "##uck": 960,
      "winn": 961,
      "##ite": 962,
      "1999": 963,
      "##erson": 964,
      "tex": 965,
      "--": 966,
      "ad": 967,
      "##ago": 968,
      "1998": 969,
      "29": 970,
      "six": 971,
      "three": 972,
      "forward": 973,
      "ut": 974,
      "go": 975,
      "wash": 976,
      "one": 977,
      "##lad": 978,
      "##we": 979,
      "chic": 980,
      "##lahoma": 981,
      "2011": 982,
      "chicago": 983,
      "washington": 984,
      "000000000": 985,
      "march": 986,
      "oklahoma": 987,
      "mad": 988,
      "##ub": 989,
      "##wn": 990,
      "192": 991,
      "antonio": 992,
      "##ird": 993,
      "##iam": 994,
      "bla": 995,
      "col": 996,
      "##oot": 997,
      "sun": 998,
      "miami": 999,
      "##ine": 1000,
      "##ip": 1001,
      "##hia": 1002,
      "rock": 1003,
      "1997": 1004,
      "##ille": 1005,
      "gold": 1006,
      "trad": 1007,
      "cont": 1008,
      "##als": 1009,
      "up": 1010,
      "warri": 1011,
      "##iz": 1012,
      "##pr": 1013,
      "##hilad": 1014,
      "##elphia": 1015,
      "warriors": 1016,
      "##hiladelphia": 1017,
      "also": 1018,
      "philadelphia": 1019,
      "##ifinal": 1020,
      "##ough": 1021,
      "##wa": 1022,
      "1995": 1023,
      "##urs": 1024,
      "indiana": 1025,
      "##ings": 1026,
      "pho": 1027,
      "william": 1028,
      "bob": 1029,
      "count": 1030,
      "bl": 1031,
      "2012": 1032,
      "lou": 1033,
      "semifinal": 1034,
      "##ance": 1035,
      "##veland": 1036,
      "##000000": 1037,
      "##ins": 1038,
      "cleveland": 1039,
      "##uarter": 1040,
      "they": 1041,
      "texas": 1042,
      "kansas": 1043,
      "pac": 1044,
      "1992": 1045,
      "##cks": 1046,
      "during": 1047,
      "1991": 1048,
      "##age": 1049,
      "jan": 1050,
      "##nder": 1051,
      "##ould": 1052,
      "pres": 1053,
      "##own": 1054,
      "jack": 1055,
      "bar": 1056,
      "american": 1057,
      "##ukee": 1058,
      "##waukee": 1059,
      "31": 1060,
      "bill": 1061,
      "milwaukee": 1062,
      "2nd": 1063,
      "##ota": 1064,
      "##rac": 1065,
      "utah": 1066,
      "quarter": 1067,
      "val": 1068,
      "kent": 1069,
      "sc": 1070,
      "players": 1071,
      "##bruary": 1072,
      "##ik": 1073,
      "lead": 1074,
      "sen": 1075,
      "charl": 1076,
      "spurs": 1077,
      "bulls": 1078,
      "knicks": 1079,
      "february": 1080,
      "teams": 1081,
      "mc": 1082,
      ".\"": 1083,
      "32": 1084,
      "award": 1085,
      "##cem": 1086,
      "har": 1087,
      "port": 1088,
      "ste": 1089,
      "##ional": 1090,
      "1994": 1091,
      "minn": 1092,
      "00": 1093,
      "##ony": 1094,
      "##enix": 1095,
      "cal": 1096,
      "den": 1097,
      "en": 1098,
      "senior": 1099,
      "phoenix": 1100,
      "southern": 1101,
      "off": 1102,
      "##ass": 1103,
      "against": 1104,
      "james": 1105,
      "sel": 1106,
      "##unity": 1107,
      "january": 1108,
      "head": 1109,
      "##cember": 1110,
      "lar": 1111,
      "golden": 1112,
      "##roit": 1113,
      "##ash": 1114,
      "heat": 1115,
      "playoffs": 1116,
      "dall": 1117,
      "most": 1118,
      "assists": 1119,
      "1993": 1120,
      "2013": 1121,
      "pa": 1122,
      "december": 1123,
      "community": 1124,
      "##urr": 1125,
      "dallas": 1126,
      "ed": 1127,
      "##ville": 1128,
      "detroit": 1129,
      "##ier": 1130,
      "portland": 1131,
      "pts": 1132,
      "1986": 1133,
      "mike": 1134,
      "1990": 1135,
      "atlantic": 1136,
      "hist": 1137,
      "america": 1138,
      "fin": 1139,
      "##ucky": 1140,
      "res": 1141,
      "we": 1142,
      "tra": 1143,
      "scoring": 1144,
      "who": 1145,
      "nov": 1146,
      "##og": 1147,
      "##ace": 1148,
      "williams": 1149,
      "1984": 1150,
      "##ther": 1151,
      "##gin": 1152,
      "rockets": 1153,
      "1989": 1154,
      "man": 1155,
      "kentucky": 1156,
      "##ined": 1157,
      "western": 1158,
      "men": 1159,
      "eastern": 1160,
      "louis": 1161,
      "##asts": 1162,
      "ab": 1163,
      "el": 1164,
      "##pt": 1165,
      "##ler": 1166,
      "history": 1167,
      "1988": 1168,
      "apr": 1169,
      "##rebs": 1170,
      "suns": 1171,
      "33": 1172,
      "ev": 1173,
      "georg": 1174,
      "1980": 1175,
      "##ure": 1176,
      "##iers": 1177,
      "2014": 1178,
      "jul": 1179,
      "how": 1180,
      "75": 1181,
      "##cl": 1182,
      "cav": 1183,
      "april": 1184,
      "##urn": 1185,
      "##ally": 1186,
      "show": 1187,
      "winning": 1188,
      "sign": 1189,
      "##ino": 1190,
      "1985": 1191,
      "64": 1192,
      "##rd": 1193,
      "field": 1194,
      "george": 1195,
      "##let": 1196,
      "69": 1197,
      "##00000": 1198,
      "su": 1199,
      "la": 1200,
      "only": 1201,
      "pist": 1202,
      "johnson": 1203,
      "##ced": 1204,
      "would": 1205,
      "35": 1206,
      "1987": 1207,
      "34": 1208,
      "gr": 1209,
      "vir": 1210,
      "coast": 1211,
      "1983": 1212,
      "pistons": 1213,
      "tech": 1214,
      "68": 1215,
      "years": 1216,
      "which": 1217,
      "maver": 1218,
      "nets": 1219,
      "1979": 1220,
      "aver": 1221,
      "shoot": 1222,
      "ret": 1223,
      "november": 1224,
      "##amed": 1225,
      "##ous": 1226,
      "caval": 1227,
      "mavericks": 1228,
      "66": 1229,
      "select": 1230,
      "##esota": 1231,
      "74": 1232,
      "minnesota": 1233,
      "##awks": 1234,
      "ath": 1235,
      "##ince": 1236,
      "##west": 1237,
      "flor": 1238,
      "cavaliers": 1239,
      "hav": 1240,
      "wil": 1241,
      "82": 1242,
      "ft": 1243,
      "##igan": 1244,
      "##mph": 1245,
      "76ers": 1246,
      "71": 1247,
      "70": 1248,
      "##ott": 1249,
      "denver": 1250,
      "79": 1251,
      "1976": 1252,
      "ja": 1253,
      "mid": 1254,
      "mill": 1255,
      "bid": 1256,
      "72": 1257,
      "no": 1258,
      "##ersey": 1259,
      "73": 1260,
      "##oll": 1261,
      "florid": 1262,
      "dts": 1263,
      "lost": 1264,
      "##ki": 1265,
      "##erry": 1266,
      "##ett": 1267,
      "seed": 1268,
      "##ition": 1269,
      "out2": 1270,
      "1974": 1271,
      "so": 1272,
      "##apt": 1273,
      "##ne": 1274,
      "bec": 1275,
      "##les": 1276,
      "green": 1277,
      "country": 1278,
      "start": 1279,
      "1975": 1280,
      "defe": 1281,
      "50": 1282,
      "##ire": 1283,
      "1982": 1284,
      "##ugg": 1285,
      "day": 1286,
      "jersey": 1287,
      "##oy": 1288,
      "3rd": 1289,
      "may": 1290,
      "tor": 1291,
      "##ium": 1292,
      "july": 1293,
      "##mar": 1294,
      "june": 1295,
      "81": 1296,
      "##ble": 1297,
      "blaz": 1298,
      "michigan": 1299,
      "virgin": 1300,
      "000": 1301,
      "made": 1302,
      "us": 1303,
      "##ose": 1304,
      "1970": 1305,
      "wal": 1306,
      "this": 1307,
      "62": 1308,
      "##ial": 1309,
      "##ice": 1310,
      "77": 1311,
      "clipp": 1312,
      "##ona": 1313,
      "1977": 1314,
      "virginia": 1315,
      "jackson": 1316,
      "finish": 1317,
      "##ata": 1318,
      "third": 1319,
      "1978": 1320,
      "clippers": 1321,
      "has": 1322,
      "##mphis": 1323,
      "smith": 1324,
      "present": 1325,
      "36": 1326,
      "mag": 1327,
      "home": 1328,
      "app": 1329,
      "florida": 1330,
      "bucks": 1331,
      "memphis": 1332,
      "wa": 1333,
      "wor": 1334,
      "##pm": 1335,
      "67": 1336,
      "are": 1337,
      "##out": 1338,
      "63": 1339,
      "##ict": 1340,
      "2016": 1341,
      "65": 1342,
      "78": 1343,
      "80": 1344,
      "1981": 1345,
      "athlet": 1346,
      "blazers": 1347,
      "##orts": 1348,
      "##ner": 1349,
      "shooting": 1350,
      ").": 1351,
      "##bert": 1352,
      "83": 1353,
      "ac": 1354,
      "nit": 1355,
      "59": 1356,
      "60": 1357,
      "atlanta": 1358,
      "##ouri": 1359,
      "brown": 1360,
      "missouri": 1361,
      "swe": 1362,
      "##ang": 1363,
      "56": 1364,
      "mary": 1365,
      "data": 1366,
      "##ock": 1367,
      "led": 1368,
      "eight": 1369,
      "named": 1370,
      "2015": 1371,
      "names": 1372,
      "since": 1373,
      "##oci": 1374,
      "ill": 1375,
      "##ael": 1376,
      "mcc": 1377,
      "2017": 1378,
      "trail": 1379,
      "61": 1380,
      "##otte": 1381,
      "bay": 1382,
      "##ves": 1383,
      "##ford": 1384,
      "scored": 1385,
      "charlotte": 1386,
      "part": 1387,
      "associ": 1388,
      "000000000000000": 1389,
      "##onto": 1390,
      "min": 1391,
      "toronto": 1392,
      "40": 1393,
      "gri": 1394,
      "57": 1395,
      "jazz": 1396,
      "##fore": 1397,
      "##sp": 1398,
      "37": 1399,
      "##cent": 1400,
      "##ones": 1401,
      "back": 1402,
      "92": 1403,
      "58": 1404,
      "##ired": 1405,
      "before": 1406,
      "junior": 1407,
      "##pace": 1408,
      "nc": 1409,
      "detect": 1410,
      "showall": 1411,
      "namespace": 1412,
      "1971": 1413,
      "##ater": 1414,
      "ear": 1415,
      "hawks": 1416,
      "rece": 1417,
      "par": 1418,
      "overall": 1419,
      "end": 1420,
      "84": 1421,
      "stev": 1422,
      "42": 1423,
      "##attle": 1424,
      "pacers": 1425,
      "##ven": 1426,
      "38": 1427,
      "##ats": 1428,
      "magic": 1429,
      "mv": 1430,
      "joined": 1431,
      "pre": 1432,
      "##itt": 1433,
      "georgia": 1434,
      "191": 1435,
      "pow": 1436,
      "nugg": 1437,
      "dan": 1438,
      "1969": 1439,
      "rook": 1440,
      "kings": 1441,
      "52": 1442,
      "tr": 1443,
      "##ale": 1444,
      "nuggets": 1445,
      "##ić": 1446,
      "55": 1447,
      "loss": 1448,
      "53": 1449,
      "##ath": 1450,
      "##clud": 1451,
      "sk": 1452,
      "chris": 1453,
      "2018": 1454,
      "##ank": 1455,
      "1972": 1456,
      "mon": 1457,
      "##isc": 1458,
      "##able": 1459,
      "paul": 1460,
      "54": 1461,
      "free": 1462,
      "uc": 1463,
      "david": 1464,
      "##ary": 1465,
      "davis": 1466,
      "him": 1467,
      "1973": 1468,
      "##inc": 1469,
      "averag": 1470,
      "cam": 1471,
      "##iseum": 1472,
      "coliseum": 1473,
      "seasons": 1474,
      "run": 1475,
      "have": 1476,
      "horn": 1477,
      "mo": 1478,
      "now": 1479,
      "##to": 1480,
      "1967": 1481,
      "45": 1482,
      "sports": 1483,
      "##inois": 1484,
      "41": 1485,
      "39": 1486,
      "##ult": 1487,
      "aug": 1488,
      "##leans": 1489,
      "orleans": 1490,
      "franch": 1491,
      "86": 1492,
      "87": 1493,
      "best": 1494,
      "##lando": 1495,
      "valley": 1496,
      "association": 1497,
      "43": 1498,
      "##mond": 1499,
      "rookie": 1500,
      "qu": 1501,
      "seattle": 1502,
      "defeated": 1503,
      "place": 1504,
      "august": 1505,
      "semifinals": 1506,
      "illinois": 1507,
      "its": 1508,
      "rapt": 1509,
      "44": 1510,
      "includ": 1511,
      "former": 1512,
      "brook": 1513,
      "je": 1514,
      "acc": 1515,
      "raptors": 1516,
      "##tim": 1517,
      "thu": 1518,
      "losing": 1519,
      "rich": 1520,
      "##op": 1521,
      "85": 1522,
      "when": 1523,
      "signed": 1524,
      "88": 1525,
      "##ents": 1526,
      "##use": 1527,
      "orlando": 1528,
      "##rick": 1529,
      "##hio": 1530,
      "left": 1531,
      "##ights": 1532,
      "last": 1533,
      "96": 1534,
      "1963": 1535,
      "89": 1536,
      "ohio": 1537,
      "##ived": 1538,
      "2019": 1539,
      "93": 1540,
      "post": 1541,
      "traded": 1542,
      "47": 1543,
      "don": 1544,
      "##vin": 1545,
      "##endance": 1546,
      "##ny": 1547,
      "1968": 1548,
      "##teen": 1549,
      "jim": 1550,
      "##cats": 1551,
      "larry": 1552,
      "five": 1553,
      "sl": 1554,
      "##thony": 1555,
      "##ract": 1556,
      "thunder": 1557,
      "ari": 1558,
      "each": 1559,
      "comp": 1560,
      "##ood": 1561,
      "51": 1562,
      "48": 1563,
      "ben": 1564,
      "49": 1565,
      "ariz": 1566,
      "##row": 1567,
      "fl": 1568,
      "##oor": 1569,
      "98": 1570,
      "tit": 1571,
      "##ss": 1572,
      "##go": 1573,
      "inter": 1574,
      "mvp": 1575,
      "##ordan": 1576,
      "07": 1577,
      "pat": 1578,
      "4th": 1579,
      "score": 1580,
      "tom": 1581,
      "appear": 1582,
      "mor": 1583,
      "##ees": 1584,
      "##eron": 1585,
      "calif": 1586,
      "46": 1587,
      "franchise": 1588,
      "mem": 1589,
      "##evin": 1590,
      "00000000000000000": 1591,
      "##gan": 1592,
      "mark": 1593,
      "##ornia": 1594,
      "oct": 1595,
      "sy": 1596,
      "california": 1597,
      "0000000000000000000000": 1598,
      "##ied": 1599,
      "sweet": 1600,
      "contract": 1601,
      "under": 1602,
      "##ober": 1603,
      "##ide": 1604,
      "long": 1605,
      "sup": 1606,
      "rus": 1607,
      "sal": 1608,
      "athletic": 1609,
      "##ster": 1610,
      "october": 1611,
      "kevin": 1612,
      "##bur": 1613,
      "91": 1614,
      "##ob": 1615,
      "anthony": 1616,
      "cup": 1617,
      "hall": 1618,
      "##olves": 1619,
      "jordan": 1620,
      "##ek": 1621,
      "hornets": 1622,
      "ten": 1623,
      "cons": 1624,
      "##hile": 1625,
      "##esse": 1626,
      "became": 1627,
      "power": 1628,
      "95": 1629,
      "inj": 1630,
      "][": 1631,
      "sac": 1632,
      "injur": 1633,
      "red": 1634,
      "90": 1635,
      "jones": 1636,
      "1964": 1637,
      "5th": 1638,
      "lb": 1639,
      "##ations": 1640,
      "tenn": 1641,
      "##gr": 1642,
      "esp": 1643,
      "##lies": 1644,
      "fiba": 1645,
      "op": 1646,
      "##for": 1647,
      "small": 1648,
      "##omen": 1649,
      "michael": 1650,
      "grizz": 1651,
      "while": 1652,
      "ann": 1653,
      "more": 1654,
      "grizzlies": 1655,
      "cr": 1656,
      "##ely": 1657,
      "03": 1658,
      "prof": 1659,
      "##ollow": 1660,
      "other": 1661,
      "##ham": 1662,
      "##east": 1663,
      "color": 1664,
      "rob": 1665,
      "##erm": 1666,
      "##arden": 1667,
      "follow": 1668,
      "##ric": 1669,
      "sixteen": 1670,
      "jeff": 1671,
      "dou": 1672,
      "women": 1673,
      "seven": 1674,
      "percent": 1675,
      "##ferees": 1676,
      "stad": 1677,
      "dun": 1678,
      "finished": 1679,
      "sacr": 1680,
      "later": 1681,
      "06": 1682,
      "can": 1683,
      "##ison": 1684,
      "sacrament": 1685,
      "##ib": 1686,
      "##ado": 1687,
      "cameron": 1688,
      "sacramento": 1689,
      "1960": 1690,
      "allen": 1691,
      "##ane": 1692,
      "##ards": 1693,
      "##ral": 1694,
      "selected": 1695,
      "stadium": 1696,
      "08": 1697,
      "ca": 1698,
      "pet": 1699,
      "2020": 1700,
      "trade": 1701,
      "arizona": 1702,
      "05": 1703,
      "vs": 1704,
      "##ara": 1705,
      "##ico": 1706,
      "##ron": 1707,
      "rep": 1708,
      "conn": 1709,
      "minut": 1710,
      "##urrent": 1711,
      "then": 1712,
      "scott": 1713,
      "brad": 1714,
      "pm": 1715,
      "##yn": 1716,
      "##essee": 1717,
      "sept": 1718,
      "##su": 1719,
      "been": 1720,
      "espn": 1721,
      "september": 1722,
      "member": 1723,
      "art": 1724,
      "99": 1725,
      "##els": 1726,
      "tennessee": 1727,
      "mont": 1728,
      "##wolves": 1729,
      "char": 1730,
      "1962": 1731,
      "way": 1732,
      "1966": 1733,
      "timber": 1734,
      "world": 1735,
      "##key": 1736,
      "94": 1737,
      "pos": 1738,
      "rod": 1739,
      "timberwolves": 1740,
      "oly": 1741,
      "pe": 1742,
      "##ious": 1743,
      "##ker": 1744,
      "##ney": 1745,
      "semifinalist": 1746,
      "1948": 1747,
      "2021": 1748,
      "profess": 1749,
      "current": 1750,
      "iow": 1751,
      "ray": 1752,
      "04": 1753,
      "97": 1754,
      "##ald": 1755,
      "iowa": 1756,
      "lu": 1757,
      "##final": 1758,
      "##bl": 1759,
      "##ions": 1760,
      "##by": 1761,
      "am": 1762,
      "ty": 1763,
      "##osh": 1764,
      "att": 1765,
      "##ensive": 1766,
      "##ment": 1767,
      "##ana": 1768,
      "1965": 1769,
      "box": 1770,
      "1957": 1771,
      "indoor": 1772,
      "bird": 1773,
      "playing": 1774,
      "09": 1775,
      "kg": 1776,
      "into": 1777,
      "cap": 1778,
      "##ever": 1779,
      "##ange": 1780,
      "00pm": 1781,
      "own": 1782,
      "##ating": 1783,
      "##lyn": 1784,
      "jerry": 1785,
      "##uro": 1786,
      "olymp": 1787,
      "loc": 1788,
      "rick": 1789,
      "kr": 1790,
      "##are": 1791,
      "##ider": 1792,
      "des": 1793,
      "##ull": 1794,
      "pan": 1795,
      "##ama": 1796,
      "thom": 1797,
      "top": 1798,
      "6th": 1799,
      "##ourt": 1800,
      "1958": 1801,
      "fres": 1802,
      "connect": 1803,
      "minutes": 1804,
      "##ola": 1805,
      "thomas": 1806,
      "01": 1807,
      "##bers": 1808,
      "roy": 1809,
      "euro": 1810,
      "vict": 1811,
      "wiz": 1812,
      "following": 1813,
      "professional": 1814,
      "dr": 1815,
      "tot": 1816,
      "##rew": 1817,
      "##sec": 1818,
      "percentage": 1819,
      "mac": 1820,
      "##au": 1821,
      "##yle": 1822,
      "1959": 1823,
      "drake": 1824,
      "return": 1825,
      "##ec": 1826,
      "both": 1827,
      "wizards": 1828,
      "cur": 1829,
      "mov": 1830,
      "howard": 1831,
      "##bor": 1832,
      "receive": 1833,
      "##referees": 1834,
      "steve": 1835,
      "##ger": 1836,
      "num": 1837,
      "##ike": 1838,
      "##inson": 1839,
      "however": 1840,
      "mal": 1841,
      "##attendance": 1842,
      "youn": 1843,
      "1955": 1844,
      "maryland": 1845,
      "##aint": 1846,
      "her": 1847,
      "##icut": 1848,
      "exp": 1849,
      "rem": 1850,
      "connecticut": 1851,
      "##ars": 1852,
      "##sell": 1853,
      "southwest": 1854,
      "02": 1855,
      "##reg": 1856,
      "phil": 1857,
      "1961": 1858,
      "##ces": 1859,
      "ever": 1860,
      "1950": 1861,
      "##ze": 1862,
      "##ette": 1863,
      "brooklyn": 1864,
      "tn": 1865,
      "##template": 1866,
      "imp": 1867,
      "tri": 1868,
      "##lv": 1869,
      "##ved": 1870,
      "##racuse": 1871,
      "hal": 1872,
      "##ski": 1873,
      "7th": 1874,
      "rights": 1875,
      "##ical": 1876,
      "##99": 1877,
      "where": 1878,
      "cash": 1879,
      "##ield": 1880,
      "steals": 1881,
      "1954": 1882,
      "##iate": 1883,
      "riv": 1884,
      "##str": 1885,
      "##ati": 1886,
      "1956": 1887,
      "joe": 1888,
      "double": 1889,
      "wn": 1890,
      "young": 1891,
      "list": 1892,
      "##ade": 1893,
      "regional": 1894,
      "averaged": 1895,
      "med": 1896,
      "butler": 1897,
      "did": 1898,
      "dick": 1899,
      "syracuse": 1900,
      "bet": 1901,
      "hon": 1902,
      "##ep": 1903,
      "central": 1904,
      "##oud": 1905,
      "thr": 1906,
      "##ersonics": 1907,
      "supersonics": 1908,
      "championships": 1909,
      "prev": 1910,
      "##ind": 1911,
      "wins": 1912,
      "gar": 1913,
      "tony": 1914,
      "##way": 1915,
      "being": 1916,
      "sum": 1917,
      "frank": 1918,
      "set": 1919,
      "fg": 1920,
      "blo": 1921,
      "1953": 1922,
      "##onz": 1923,
      "nr": 1924,
      "defensive": 1925,
      "##urray": 1926,
      "louisville": 1927,
      "wnba": 1928,
      "court": 1929,
      "##ual": 1930,
      "inv": 1931,
      "##incinn": 1932,
      "bri": 1933,
      "name": 1934,
      "penn": 1935,
      "white": 1936,
      "million": 1937,
      "##burg": 1938,
      "##til": 1939,
      "bry": 1940,
      "ppg": 1941,
      "tel": 1942,
      "went": 1943,
      "marc": 1944,
      "##ific": 1945,
      "add": 1946,
      "murray": 1947,
      "ron": 1948,
      "##atch": 1949,
      "quarterfinal": 1950,
      "ucla": 1951,
      "ke": 1952,
      "cincinn": 1953,
      "str": 1954,
      "1952": 1955,
      "fourth": 1956,
      "born": 1957,
      "mer": 1958,
      "rel": 1959,
      "||": 1960,
      "##lex": 1961,
      "until": 1962,
      "well": 1963,
      "foot": 1964,
      "cincinnati": 1965,
      "dom": 1966,
      "carl": 1967,
      "robinson": 1968,
      "fa": 1969,
      "##ve": 1970,
      "##time": 1971,
      "russell": 1972,
      "through": 1973,
      "sam": 1974,
      "tro": 1975,
      "##field": 1976,
      "100": 1977,
      "leg": 1978,
      "sw": 1979,
      "tul": 1980,
      "##right": 1981,
      "##sh": 1982,
      "including": 1983,
      "hill": 1984,
      "saint": 1985,
      "elite": 1986,
      "die": 1987,
      "##ene": 1988,
      "bullets": 1989,
      "just": 1990,
      "ny": 1991,
      "##ka": 1992,
      "##he": 1993,
      ")[": 1994,
      "garden": 1995,
      "##ada": 1996,
      "##itch": 1997,
      "1951": 1998,
      "##season": 1999,
      "##olis": 2000,
      "camp": 2001,
      "dis": 2002,
      "met": 2003,
      "##berts": 2004,
      "open": 2005,
      "blocks": 2006,
      "##kansas": 2007,
      "1949": 2008,
      "club": 2009,
      "title": 2010,
      "dar": 2011,
      "van": 2012,
      "2022": 2013,
      "consider": 2014,
      "##bi": 2015,
      "##anov": 2016,
      "sky": 2017,
      "del": 2018,
      "##onsin": 2019,
      "##isconsin": 2020,
      "pl": 2021,
      "adv": 2022,
      "waived": 2023,
      "ra": 2024,
      "##rist": 2025,
      "total": 2026,
      "previous": 2027,
      "rec": 2028,
      "announ": 2029,
      "##ought": 2030,
      "soph": 2031,
      "early": 2032,
      "along": 2033,
      "result": 2034,
      "wisconsin": 2035,
      "##pe": 2036,
      "dec": 2037,
      "fred": 2038,
      "coaches": 2039,
      "sophom": 2040,
      "started": 2041,
      "##boro": 2042,
      "sant": 2043,
      "##kins": 2044,
      "##utive": 2045,
      "arkansas": 2046,
      "dave": 2047,
      "blue": 2048,
      "sim": 2049,
      "190": 2050,
      "##ano": 2051,
      "##aga": 2052,
      "goal": 2053,
      "madison": 2054,
      "throw": 2055,
      "##ild": 2056,
      "diego": 2057,
      "awards": 2058,
      "runner": 2059,
      "sophomore": 2060,
      "due": 2061,
      "##ines": 2062,
      "ball": 2063,
      "##ai": 2064,
      "id": 2065,
      "miller": 2066,
      "amar": 2067,
      "tar": 2068,
      "rank": 2069,
      "##can": 2070,
      "neal": 2071,
      "bryant": 2072,
      "ot": 2073,
      "stan": 2074,
      "bradley": 2075,
      "found": 2076,
      "stoud": 2077,
      "doug": 2078,
      "##ander": 2079,
      "##apolis": 2080,
      "cre": 2081,
      "##sa": 2082,
      "leon": 2083,
      "times": 2084,
      "event": 2085,
      "fresh": 2086,
      "jose": 2087,
      "##gu": 2088,
      "stars": 2089,
      "curry": 2090,
      "ala": 2091,
      "held": 2092,
      "rpg": 2093,
      "sa": 2094,
      "than": 2095,
      "roster": 2096,
      "victory": 2097,
      "ii": 2098,
      "na": 2099,
      "##etown": 2100,
      "opp": 2101,
      "##ots": 2102,
      "##gers": 2103,
      "sport": 2104,
      "known": 2105,
      "fac": 2106,
      "##ann": 2107,
      "temp": 2108,
      "class": 2109,
      "du": 2110,
      "1946": 2111,
      "cro": 2112,
      "##ase": 2113,
      "mex": 2114,
      "##reak": 2115,
      "##cap": 2116,
      "compet": 2117,
      "colorado": 2118,
      "aust": 2119,
      "##icip": 2120,
      "##itz": 2121,
      "stra": 2122,
      "1947": 2123,
      "##ania": 2124,
      "aba": 2125,
      "##ert": 2126,
      "##icle": 2127,
      "christ": 2128,
      "|-": 2129,
      "##ction": 2130,
      "gl": 2131,
      "host": 2132,
      "pf": 2133,
      "##orm": 2134,
      "##die": 2135,
      "roberts": 2136,
      "##bron": 2137,
      "##bama": 2138,
      "mexico": 2139,
      "pur": 2140,
      "##zy": 2141,
      "##rid": 2142,
      "southeast": 2143,
      "earn": 2144,
      "gp": 2145,
      "ol": 2146,
      "bobcats": 2147,
      "low": 2148,
      "##aly": 2149,
      "she": 2150,
      "##err": 2151,
      "si": 2152,
      "##quar": 2153,
      "pop": 2154,
      "##emire": 2155,
      "domin": 2156,
      "stoudemire": 2157,
      "ri": 2158,
      "##ius": 2159,
      "##ee": 2160,
      "##mpson": 2161,
      "county": 2162,
      "av": 2163,
      "bord": 2164,
      "##ving": 2165,
      "lebron": 2166,
      "##enny": 2167,
      "gonz": 2168,
      "help": 2169,
      "##led": 2170,
      "agent": 2171,
      "article": 2172,
      "jam": 2173,
      "jason": 2174,
      "tig": 2175,
      "##xt": 2176,
      "overtime": 2177,
      "##und": 2178,
      "border": 2179,
      "apg": 2180,
      "fut": 2181,
      "offic": 2182,
      "remain": 2183,
      "alabama": 2184,
      "main": 2185,
      "greens": 2186,
      "wild": 2187,
      "assistant": 2188,
      "members": 2189,
      "bel": 2190,
      "dep": 2191,
      "gonzaga": 2192,
      "greensboro": 2193,
      "##ake": 2194,
      "bal": 2195,
      "squar": 2196,
      "lew": 2197,
      "future": 2198,
      "8th": 2199,
      "consec": 2200,
      "morris": 2201,
      "announced": 2202,
      "next": 2203,
      "black": 2204,
      "freshman": 2205,
      "temple": 2206,
      "3p": 2207,
      "##der": 2208,
      "brand": 2209,
      "injury": 2210,
      "alex": 2211,
      "##ils": 2212,
      "began": 2213,
      "richmond": 2214,
      "down": 2215,
      "##bo": 2216,
      "##but": 2217,
      "recap": 2218,
      "tigers": 2219,
      "square": 2220,
      "cla": 2221,
      "hol": 2222,
      "##ko": 2223,
      "carter": 2224,
      "tulsa": 2225,
      "##ased": 2226,
      "##aska": 2227,
      "position": 2228,
      "there": 2229,
      "harold": 2230,
      "old": 2231,
      "##oming": 2232,
      "pacific": 2233,
      "500": 2234,
      "ger": 2235,
      "tho": 2236,
      "louisiana": 2237,
      "oreg": 2238,
      "oregon": 2239,
      "cra": 2240,
      "bru": 2241,
      ".)": 2242,
      "der": 2243,
      "##ates": 2244,
      "carm": 2245,
      "##oster": 2246,
      "franc": 2247,
      "##int": 2248,
      "stand": 2249,
      "##phy": 2250,
      "about": 2251,
      "sur": 2252,
      "##19": 2253,
      "straight": 2254,
      "bow": 2255,
      "bpg": 2256,
      "turn": 2257,
      "##avier": 2258,
      "greg": 2259,
      "wake": 2260,
      "number": 2261,
      "mpg": 2262,
      "##atur": 2263,
      "spg": 2264,
      "##ling": 2265,
      "leading": 2266,
      "gs": 2267,
      "od": 2268,
      "pit": 2269,
      "rand": 2270,
      "prov": 2271,
      "wayne": 2272,
      "ham": 2273,
      "tie": 2274,
      "##jo": 2275,
      "forest": 2276,
      "maj": 2277,
      "##zew": 2278,
      "tied": 2279,
      "##emplate": 2280,
      "##ended": 2281,
      "bra": 2282,
      "them": 2283,
      "fort": 2284,
      "shar": 2285,
      "air": 2286,
      "tnt": 2287,
      "thompson": 2288,
      "\",": 2289,
      "date": 2290,
      "fam": 2291,
      "jay": 2292,
      "##ween": 2293,
      "##ubl": 2294,
      "steph": 2295,
      "intern": 2296,
      "duncan": 2297,
      "between": 2298,
      "log": 2299,
      "midwest": 2300,
      "riley": 2301,
      "vill": 2302,
      "##ingham": 2303,
      "wildcats": 2304,
      "##zewski": 2305,
      "cor": 2306,
      "foster": 2307,
      "xavier": 2308,
      "##ery": 2309,
      "krzy": 2310,
      "mount": 2311,
      "pol": 2312,
      "ant": 2313,
      "recorded": 2314,
      "memor": 2315,
      "hay": 2316,
      "##dy": 2317,
      "retired": 2318,
      "gen": 2319,
      "##nes": 2320,
      "##ica": 2321,
      "##issipp": 2322,
      "georgetown": 2323,
      "acqu": 2324,
      "postseason": 2325,
      "santa": 2326,
      "lewis": 2327,
      "wood": 2328,
      "valu": 2329,
      "sg": 2330,
      "##bc": 2331,
      "shot": 2332,
      "selection": 2333,
      "consecutive": 2334,
      "##co": 2335,
      "##elton": 2336,
      "starting": 2337,
      "krzyzewski": 2338,
      "pay": 2339,
      "##eg": 2340,
      "inst": 2341,
      "##thers": 2342,
      "00000000000000099": 2343,
      "0000000000000009900000": 2344,
      "wright": 2345,
      "104": 2346,
      "mississipp": 2347,
      "trip": 2348,
      "mississippi": 2349,
      "jr": 2350,
      "josh": 2351,
      "sing": 2352,
      "##won": 2353,
      "style": 2354,
      "took": 2355,
      "dean": 2356,
      "=\"": 2357,
      "perfor": 2358,
      "legend": 2359,
      "joseph": 2360,
      "er": 2361,
      "hor": 2362,
      "hard": 2363,
      "tur": 2364,
      "##bil": 2365,
      "cham": 2366,
      "reach": 2367,
      "deal": 2368,
      "ren": 2369,
      "##na": 2370,
      "coll": 2371,
      "succ": 2372,
      "leonard": 2373,
      "aud": 2374,
      "nash": 2375,
      "picks": 2376,
      "##itor": 2377,
      "sha": 2378,
      "mart": 2379,
      "##aking": 2380,
      "leads": 2381,
      "ir": 2382,
      "iv": 2383,
      "oh": 2384,
      "tx": 2385,
      "##aylor": 2386,
      "usa": 2387,
      "desp": 2388,
      "king": 2389,
      "durant": 2390,
      "exch": 2391,
      "eddie": 2392,
      "half": 2393,
      "ken": 2394,
      "mitch": 2395,
      "nick": 2396,
      "##oel": 2397,
      "##gie": 2398,
      "enter": 2399,
      "richard": 2400,
      "valuable": 2401,
      "success": 2402,
      "##uel": 2403,
      "sever": 2404,
      "##cast": 2405,
      "robert": 2406,
      "em": 2407,
      "manag": 2408,
      "##act": 2409,
      "##olph": 2410,
      "rounds": 2411,
      "charles": 2412,
      "baylor": 2413,
      "montana": 2414,
      "malone": 2415,
      "eric": 2416,
      "marqu": 2417,
      "exchange": 2418,
      "##gram": 2419,
      "fall": 2420,
      "ga": 2421,
      "gary": 2422,
      "same": 2423,
      "##uer": 2424,
      "##my": 2425,
      "##ju": 2426,
      "##ident": 2427,
      "##ending": 2428,
      "##ues": 2429,
      "##alo": 2430,
      "despite": 2431,
      "dre": 2432,
      "nik": 2433,
      "harris": 2434,
      "oppon": 2435,
      "taylor": 2436,
      "##any": 2437,
      "##ife": 2438,
      "jer": 2439,
      "mass": 2440,
      "contin": 2441,
      "northern": 2442,
      "winner": 2443,
      "davidson": 2444,
      "bur": 2445,
      "sil": 2446,
      "football": 2447,
      "##ys": 2448,
      "alb": 2449,
      "austin": 2450,
      "key": 2451,
      "oak": 2452,
      "sr": 2453,
      "tre": 2454,
      "wade": 2455,
      "##other": 2456,
      "##ja": 2457,
      "anderson": 2458,
      "##ily": 2459,
      "1941": 2460,
      "ended": 2461,
      "ho": 2462,
      "##ults": 2463,
      "##uss": 2464,
      "##usk": 2465,
      "results": 2466,
      "memorial": 2467,
      "##las": 2468,
      "week": 2469,
      "1942": 2470,
      "##aho": 2471,
      "winners": 2472,
      "##isco": 2473,
      "location": 2474,
      "colon": 2475,
      "##ublic": 2476,
      "##ense": 2477,
      "##idd": 2478,
      "##igned": 2479,
      "particip": 2480,
      "karl": 2481,
      "law": 2482,
      "form": 2483,
      "lee": 2484,
      "sixth": 2485,
      "##aa": 2486,
      "stephen": 2487,
      "##ized": 2488,
      "##ittle": 2489,
      "repla": 2490,
      "douglas": 2491,
      "li": 2492,
      "##uc": 2493,
      "unlv": 2494,
      "northeast": 2495,
      "brian": 2496,
      "gener": 2497,
      "ram": 2498,
      "##ez": 2499,
      "another": 2500,
      "##emy": 2501,
      "##ips": 2502,
      "many": 2503,
      "auditor": 2504,
      "auditorium": 2505,
      "far": 2506,
      "##giate": 2507,
      "##olds": 2508,
      "moved": 2509,
      "villanov": 2510,
      "ap": 2511,
      "do": 2512,
      "est": 2513,
      "hen": 2514,
      "pass": 2515,
      "still": 2516,
      "lake": 2517,
      "0000000000000001": 2518,
      "##ym": 2519,
      "##ually": 2520,
      "##lain": 2521,
      "##ided": 2522,
      "mel": 2523,
      "##nis": 2524,
      "##red": 2525,
      "##ita": 2526,
      "##tsburg": 2527,
      "nev": 2528,
      "##rie": 2529,
      "1939": 2530,
      "evans": 2531,
      "qual": 2532,
      "idaho": 2533,
      "##hou": 2534,
      "##ester": 2535,
      "beh": 2536,
      "1945": 2537,
      "statist": 2538,
      "program": 2539,
      "francisco": 2540,
      "fame": 2541,
      "land": 2542,
      "ru": 2543,
      "cha": 2544,
      "##ović": 2545,
      "villanova": 2546,
      "cit": 2547,
      "loy": 2548,
      "##iac": 2549,
      "##que": 2550,
      "##eth": 2551,
      "##eter": 2552,
      "103": 2553,
      "broad": 2554,
      "##ups": 2555,
      "days": 2556,
      "felton": 2557,
      "##ining": 2558,
      "##enc": 2559,
      "asian": 2560,
      "##tsburgh": 2561,
      "1944": 2562,
      "mountain": 2563,
      "0000000000000001000000": 2564,
      "lam": 2565,
      "dev": 2566,
      "##ikos": 2567,
      "techn": 2568,
      "used": 2569,
      "my": 2570,
      "wat": 2571,
      "##erd": 2572,
      "received": 2573,
      "southeastern": 2574,
      "earned": 2575,
      "fif": 2576,
      "teamm": 2577,
      "1943": 2578,
      "30pm": 2579,
      "1937": 2580,
      "impro": 2581,
      "il": 2582,
      "match": 2583,
      "pg": 2584,
      "##bro": 2585,
      "##ention": 2586,
      "##ugh": 2587,
      "dayton": 2588,
      "month": 2589,
      "metro": 2590,
      "considerations": 2591,
      "sf": 2592,
      "va": 2593,
      "##vis": 2594,
      "##mons": 2595,
      "##ances": 2596,
      "andre": 2597,
      "##ady": 2598,
      "spr": 2599,
      "billy": 2600,
      "opponent": 2601,
      "nevada": 2602,
      "make": 2603,
      "summer": 2604,
      "##nie": 2605,
      "island": 2606,
      "pointers": 2607,
      "several": 2608,
      "dw": 2609,
      "little": 2610,
      "person": 2611,
      "##rell": 2612,
      "105": 2613,
      "bud": 2614,
      "raymond": 2615,
      "aviv": 2616,
      "bc": 2617,
      "tal": 2618,
      "101": 2619,
      "##ave": 2620,
      "orig": 2621,
      "featur": 2622,
      "average": 2623,
      "ju": 2624,
      "##well": 2625,
      "##ries": 2626,
      "large": 2627,
      "triple": 2628,
      "lo": 2629,
      "##ters": 2630,
      "buff": 2631,
      "missed": 2632,
      "griff": 2633,
      "averaging": 2634,
      "major": 2635,
      "nine": 2636,
      "ou": 2637,
      "##ism": 2638,
      "great": 2639,
      "grand": 2640,
      "behind": 2641,
      "buffalo": 2642,
      "da": 2643,
      "mu": 2644,
      "pal": 2645,
      "marsh": 2646,
      "##cted": 2647,
      "##abb": 2648,
      "good": 2649,
      "trans": 2650,
      "charter": 2651,
      "returned": 2652,
      "rival": 2653,
      "loyola": 2654,
      "matt": 2655,
      "##alth": 2656,
      "##etts": 2657,
      "##pped": 2658,
      "1940": 2659,
      "marcus": 2660,
      "pittsburgh": 2661,
      "acquired": 2662,
      "102": 2663,
      "grant": 2664,
      "international": 2665,
      "chamber": 2666,
      "ell": 2667,
      "gym": 2668,
      "##nett": 2669,
      "beat": 2670,
      "records": 2671,
      "midd": 2672,
      "performan": 2673,
      "dak": 2674,
      "gian": 2675,
      "life": 2676,
      "sus": 2677,
      "##due": 2678,
      "##inaikos": 2679,
      "clem": 2680,
      "1928": 2681,
      "##athinaikos": 2682,
      "appeared": 2683,
      "panathinaikos": 2684,
      "fans": 2685,
      "line": 2686,
      "wes": 2687,
      "road": 2688,
      "bench": 2689,
      "honors": 2690,
      "quarterfinals": 2691,
      "odom": 2692,
      "chamberlain": 2693,
      ",\"": 2694,
      "came": 2695,
      "dame": 2696,
      "kob": 2697,
      "any": 2698,
      "106": 2699,
      "##iew": 2700,
      "##udy": 2701,
      "barry": 2702,
      "pav": 2703,
      "##no": 2704,
      "rest": 2705,
      "notre": 2706,
      "walter": 2707,
      "titles": 2708,
      "currently": 2709,
      "hun": 2710,
      "right": 2711,
      "##ially": 2712,
      "sean": 2713,
      "unc": 2714,
      "events": 2715,
      "haw": 2716,
      "walker": 2717,
      "##house": 2718,
      "kidd": 2719,
      "##za": 2720,
      "##eapolis": 2721,
      "##ark": 2722,
      "cost": 2723,
      "##ility": 2724,
      "111": 2725,
      "drafted": 2726,
      "president": 2727,
      "abd": 2728,
      "##stra": 2729,
      "ford": 2730,
      "barnes": 2731,
      "mcd": 2732,
      "appearance": 2733,
      "provid": 2734,
      "single": 2735,
      "ref": 2736,
      "reggie": 2737,
      "##ode": 2738,
      "seeded": 2739,
      "##oughtry": 2740,
      "qualif": 2741,
      "fur": 2742,
      "vander": 2743,
      "##ience": 2744,
      "##though": 2745,
      "spain": 2746,
      "although": 2747,
      "parker": 2748,
      "##ather": 2749,
      "stanford": 2750,
      "mitchell": 2751,
      "marquette": 2752,
      "dakota": 2753,
      "##ately": 2754,
      "109": 2755,
      "##oney": 2756,
      "addition": 2757,
      "call": 2758,
      "tall": 2759,
      "##med": 2760,
      "##sy": 2761,
      "##atemplate": 2762,
      "##unn": 2763,
      "buck": 2764,
      "1933": 2765,
      "such": 2766,
      "purdue": 2767,
      "late": 2768,
      "ow": 2769,
      "##ni": 2770,
      "##ti": 2771,
      "##ffer": 2772,
      "##usetts": 2773,
      "##achusetts": 2774,
      "coaching": 2775,
      "##brook": 2776,
      "##day": 2777,
      "1936": 2778,
      "weber": 2779,
      "##ground": 2780,
      "honor": 2781,
      "bol": 2782,
      "sub": 2783,
      "##imin": 2784,
      "short": 2785,
      "mccoughtry": 2786,
      "##ridge": 2787,
      "susp": 2788,
      ",[": 2789,
      "could": 2790,
      "full": 2791,
      "mur": 2792,
      "son": 2793,
      "terry": 2794,
      "##fa": 2795,
      "debut": 2796,
      "##ement": 2797,
      "resp": 2798,
      "royals": 2799,
      "act": 2800,
      "jar": 2801,
      "ky": 2802,
      "public": 2803,
      "var": 2804,
      "##ms": 2805,
      "##lace": 2806,
      "child": 2807,
      "##iving": 2808,
      "##cabi": 2809,
      "##ichael": 2810,
      "1924": 2811,
      "minneapolis": 2812,
      "##oga": 2813,
      "##icted": 2814,
      "owner": 2815,
      "europe": 2816,
      "maccabi": 2817,
      "christian": 2818,
      "broadcast": 2819,
      "marshall": 2820,
      "gro": 2821,
      "lsu": 2822,
      "##sel": 2823,
      "##ani": 2824,
      "##ele": 2825,
      "chang": 2826,
      "##ilton": 2827,
      "martin": 2828,
      "fifth": 2829,
      "kobe": 2830,
      "md": 2831,
      "pba": 2832,
      "pier": 2833,
      "##lin": 2834,
      "##iff": 2835,
      "##atic": 2836,
      "113": 2837,
      "##quille": 2838,
      "background": 2839,
      "oper": 2840,
      "attendance": 2841,
      "##head": 2842,
      "said": 2843,
      "derrick": 2844,
      "massachusetts": 2845,
      "general": 2846,
      "ber": 2847,
      "##wood": 2848,
      "##hawks": 2849,
      "inc": 2850,
      "##adow": 2851,
      "northwest": 2852,
      "##pres": 2853,
      "invit": 2854,
      "sid": 2855,
      "tv": 2856,
      "vot": 2857,
      "repres": 2858,
      "cond": 2859,
      "##ovich": 2860,
      "##braska": 2861,
      "abc": 2862,
      "even": 2863,
      "wallace": 2864,
      "partiz": 2865,
      "statistics": 2866,
      "era": 2867,
      "mason": 2868,
      "##leston": 2869,
      "##ute": 2870,
      "##utom": 2871,
      "##temp": 2872,
      "semi": 2873,
      "##timore": 2874,
      "appearances": 2875,
      "merc": 2876,
      "baltimore": 2877,
      "pri": 2878,
      "least": 2879,
      "nebraska": 2880,
      "unif": 2881,
      "block": 2882,
      "##march": 2883,
      "silver": 2884,
      "##ese": 2885,
      "##thy": 2886,
      "##iled": 2887,
      "11th": 2888,
      "##avy": 2889,
      "indep": 2890,
      "brack": 2891,
      "park": 2892,
      "luc": 2893,
      "abdul": 2894,
      "providence": 2895,
      "independ": 2896,
      "(.": 2897,
      "az": 2898,
      "earl": 2899,
      "ry": 2900,
      "##bb": 2901,
      "##oul": 2902,
      "##elo": 2903,
      "attemp": 2904,
      "beach": 2905,
      "union": 2906,
      "note": 2907,
      "mck": 2908,
      "wol": 2909,
      "##cu": 2910,
      "##bia": 2911,
      "##eded": 2912,
      "medal": 2913,
      "uniform": 2914,
      "eag": 2915,
      "making": 2916,
      "##ini": 2917,
      "##ighton": 2918,
      "coached": 2919,
      "##ques": 2920,
      "1926": 2921,
      "olympic": 2922,
      "##stricted": 2923,
      "ranked": 2924,
      "shaquille": 2925,
      "nikola": 2926,
      "aub": 2927,
      "##wing": 2928,
      "##iven": 2929,
      "arm": 2930,
      "westbrook": 2931,
      "gray": 2932,
      "rodney": 2933,
      "capit": 2934,
      "duques": 2935,
      "craw": 2936,
      "duquesne": 2937,
      "work": 2938,
      "real": 2939,
      "buc": 2940,
      "##awhi": 2941,
      "greason": 2942,
      "1938": 2943,
      "colum": 2944,
      "aff": 2945,
      "away": 2946,
      "fell": 2947,
      "ha": 2948,
      "jon": 2949,
      "mig": 2950,
      "pct": 2951,
      "some": 2952,
      "sta": 2953,
      "##etok": 2954,
      "##allen": 2955,
      "acad": 2956,
      "super": 2957,
      "clemson": 2958,
      "jabb": 2959,
      "lyn": 2960,
      "sol": 2961,
      "##mpo": 2962,
      "##ounmpo": 2963,
      "1930": 2964,
      "ent": 2965,
      "monro": 2966,
      "##lvania": 2967,
      "antetok": 2968,
      "technical": 2969,
      "jabbar": 2970,
      "antetokounmpo": 2971,
      "cas": 2972,
      "gil": 2973,
      "lin": 2974,
      "##ible": 2975,
      "##vers": 2976,
      "##ilion": 2977,
      "108": 2978,
      "##quent": 2979,
      "adam": 2980,
      "mcg": 2981,
      "stew": 2982,
      "trophy": 2983,
      "nickn": 2984,
      "9th": 2985,
      "hu": 2986,
      "rose": 2987,
      "##irk": 2988,
      "seconds": 2989,
      "knight": 2990,
      "##ission": 2991,
      "goals": 2992,
      "injured": 2993,
      "disp": 2994,
      "creighton": 2995,
      "popovich": 2996,
      "##den": 2997,
      "streak": 2998,
      "shadow": 2999,
      "knee": 3000,
      "iii": 3001,
      "griffin": 3002,
      "auburn": 3003,
      "monroe": 3004,
      "drew": 3005,
      "os": 3006,
      "going": 3007,
      "que": 3008,
      "stud": 3009,
      "##cause": 3010,
      "because": 3011,
      "1927": 3012,
      "elimin": 3013,
      "cross": 3014,
      "performance": 3015,
      "ewing": 3016,
      "ros": 3017,
      "##lar": 3018,
      "##nas": 3019,
      "##mike": 3020,
      "##anc": 3021,
      "##elson": 3022,
      "mikemike": 3023,
      "having": 3024,
      "nowitz": 3025,
      "pavilion": 3026,
      "independent": 3027,
      "nowitzki": 3028,
      "im": 3029,
      "occ": 3030,
      "ta": 3031,
      "veter": 3032,
      "yes": 3033,
      "##kan": 3034,
      "##ged": 3035,
      "##atest": 3036,
      "##andler": 3037,
      "shots": 3038,
      "norm": 3039,
      "##ove": 3040,
      "greatest": 3041,
      "##ennis": 3042,
      "##kić": 3043,
      "become": 3044,
      "##form": 3045,
      "charleston": 3046,
      "pennsy": 3047,
      "instit": 3048,
      "kenn": 3049,
      "kawhi": 3050,
      "##ef": 3051,
      "##fl": 3052,
      "##be": 3053,
      "##wards": 3054,
      "1932": 3055,
      "text": 3056,
      "##second": 3057,
      "crawford": 3058,
      "pennsylvania": 3059,
      "hap": 3060,
      "las": 3061,
      "nelson": 3062,
      "107": 3063,
      "##berg": 3064,
      "120": 3065,
      "indian": 3066,
      "##weet": 3067,
      "leader": 3068,
      "brandon": 3069,
      "kyle": 3070,
      "##lish": 3071,
      "##čić": 3072,
      "##ét": 3073,
      "##itional": 3074,
      "##chester": 3075,
      "dem": 3076,
      "uns": 3077,
      "##iah": 3078,
      "comb": 3079,
      "1935": 3080,
      "commission": 3081,
      "ext": 3082,
      "phog": 3083,
      "bobby": 3084,
      "payton": 3085,
      "devils": 3086,
      "prior": 3087,
      "rudy": 3088,
      "##men": 3089,
      "##pa": 3090,
      "110": 3091,
      "unre": 3092,
      "##awn": 3093,
      "file": 3094,
      "moore": 3095,
      "opening": 3096,
      "official": 3097,
      "##bilt": 3098,
      "hapoel": 3099,
      "hamp": 3100,
      "via": 3101,
      "##oz": 3102,
      "##ty": 3103,
      "##acity": 3104,
      "112": 3105,
      "1934": 3106,
      "charlie": 3107,
      "slo": 3108,
      "logo": 3109,
      "libert": 3110,
      "vanderbilt": 3111,
      "pierce": 3112,
      "eagles": 3113,
      "hoc": 3114,
      "ven": 3115,
      "##ru": 3116,
      "##eton": 3117,
      "##cept": 3118,
      "##ovan": 3119,
      "1925": 3120,
      "helped": 3121,
      "hockey": 3122,
      "-?": 3123,
      "css": 3124,
      "dro": 3125,
      "##ren": 3126,
      "##erg": 3127,
      "chandler": 3128,
      "##otes": 3129,
      "finishing": 3130,
      "among": 3131,
      "classic": 3132,
      "giannis": 3133,
      "dam": 3134,
      "grad": 3135,
      "pel": 3136,
      "rul": 3137,
      "vo": 3138,
      "int": 3139,
      "once": 3140,
      "114": 3141,
      "devel": 3142,
      "##tep": 3143,
      "afric": 3144,
      "billups": 3145,
      "brooks": 3146,
      "ryan": 3147,
      "miguel": 3148,
      "sloan": 3149,
      "fil": 3150,
      "gas": 3151,
      "gard": 3152,
      "hel": 3153,
      "kerr": 3154,
      "ola": 3155,
      "rivers": 3156,
      "##de": 3157,
      "##per": 3158,
      "##oup": 3159,
      "compl": 3160,
      "##ury": 3161,
      "##ively": 3162,
      "clin": 3163,
      "gund": 3164,
      "becoming": 3165,
      "eachasts": 3166,
      "dist": 3167,
      "ele": 3168,
      "nj": 3169,
      "rale": 3170,
      "##ress": 3171,
      "##ink": 3172,
      "inform": 3173,
      "cook": 3174,
      "1931": 3175,
      "danny": 3176,
      "every": 3177,
      "garnett": 3178,
      "roundsweet": 3179,
      "indianapolis": 3180,
      "gasol": 3181,
      "raleigh": 3182,
      "belt": 3183,
      "eff": 3184,
      "fre": 3185,
      "gra": 3186,
      "mn": 3187,
      "##ful": 3188,
      "##anced": 3189,
      "##cey": 3190,
      "10asts": 3191,
      "##anding": 3192,
      "role": 3193,
      "finalist": 3194,
      "robertson": 3195,
      "carmelo": 3196,
      "wooden": 3197,
      "oakland": 3198,
      "spring": 3199,
      "coug": 3200,
      "rh": 3201,
      "##asc": 3202,
      "##its": 3203,
      "chatt": 3204,
      "##osed": 3205,
      "roundsecond": 3206,
      "tournaments": 3207,
      "defending": 3208,
      "house": 3209,
      "contest": 3210,
      "wilk": 3211,
      "salle": 3212,
      "##areem": 3213,
      "drex": 3214,
      "personal": 3215,
      "prom": 3216,
      "rash": 3217,
      "##ichita": 3218,
      "wilson": 3219,
      "patrick": 3220,
      "##anooga": 3221,
      "naism": 3222,
      "bruce": 3223,
      "hamilton": 3224,
      "##allenge": 3225,
      "chattanooga": 3226,
      "naismith": 3227,
      "\".": 3228,
      "rad": 3229,
      "take": 3230,
      "wichita": 3231,
      "##kley": 3232,
      "storm": 3233,
      "conc": 3234,
      "10th": 3235,
      "boise": 3236,
      "web": 3237,
      "runn": 3238,
      "peter": 3239,
      "listed": 3240,
      "siena": 3241,
      "called": 3242,
      "unrestricted": 3243,
      "ach": 3244,
      "harden": 3245,
      "##jer": 3246,
      "chuck": 3247,
      "asia": 3248,
      "##ime": 3249,
      "press": 3250,
      "itatemplate": 3251,
      "barkley": 3252,
      "suffer": 3253,
      "russ": 3254,
      "manager": 3255,
      "teammate": 3256,
      "bir": 3257,
      "len": 3258,
      "nb": 3259,
      "page": 3260,
      "##az": 3261,
      "##more": 3262,
      "##gest": 3263,
      "bell": 3264,
      "spart": 3265,
      "jokić": 3266,
      "clara": 3267,
      "tyler": 3268,
      "drag": 3269,
      "rele": 3270,
      "troy": 3271,
      "randolph": 3272,
      "irving": 3273,
      "capt": 3274,
      "kk": 3275,
      "kareem": 3276,
      "mult": 3277,
      "oce": 3278,
      "ral": 3279,
      "##enas": 3280,
      "##ants": 3281,
      "cole": 3282,
      "##illard": 3283,
      "near": 3284,
      "highest": 3285,
      "1929": 3286,
      "eng": 3287,
      "mccar": 3288,
      "reached": 3289,
      "##uskies": 3290,
      "liberty": 3291,
      "break": 3292,
      "dennis": 3293,
      "rut": 3294,
      "rub": 3295,
      "wy": 3296,
      "wac": 3297,
      "##onald": 3298,
      "bub": 3299,
      "##sey": 3300,
      "notable": 3301,
      "ups": 3302,
      "donovan": 3303,
      "keith": 3304,
      "hosted": 3305,
      "wesley": 3306,
      "tallinn": 3307,
      "bracket": 3308,
      "if": 3309,
      "115": 3310,
      "included": 3311,
      "campus": 3312,
      "depart": 3313,
      "alexander": 3314,
      "##juwon": 3315,
      "replaced": 3316,
      "stewart": 3317,
      "olajuwon": 3318,
      "hand": 3319,
      "##ented": 3320,
      "never": 3321,
      "boy": 3322,
      "arch": 3323,
      "region": 3324,
      "fieldhouse": 3325,
      "walton": 3326,
      "eventually": 3327,
      "faced": 3328,
      "owens": 3329,
      "suspended": 3330,
      "bern": 3331,
      "bold": 3332,
      "om": 3333,
      "past": 3334,
      "##ox": 3335,
      "##gen": 3336,
      "##şti": 3337,
      "##acy": 3338,
      "cow": 3339,
      "##league": 3340,
      "##ayette": 3341,
      "mean": 3342,
      "##oyd": 3343,
      "located": 3344,
      "remaining": 3345,
      "continu": 3346,
      "lamar": 3347,
      "qualify": 3348,
      "information": 3349,
      "hired": 3350,
      "nate": 3351,
      "pipp": 3352,
      "saw": 3353,
      "wi": 3354,
      "##du": 3355,
      "##dog": 3356,
      "##edy": 3357,
      "##ities": 3358,
      "princ": 3359,
      "science": 3360,
      "media": 3361,
      "previously": 3362,
      "founded": 3363,
      "henson": 3364,
      "complet": 3365,
      "gundy": 3366,
      "cougars": 3367,
      "ak": 3368,
      "jpg": 3369,
      "##zier": 3370,
      "##ari": 3371,
      "##anch": 3372,
      "##ised": 3373,
      "stock": 3374,
      "reyn": 3375,
      "##tern": 3376,
      "capacity": 3377,
      "colonels": 3378,
      "pelic": 3379,
      "fav": 3380,
      "hit": 3381,
      "lig": 3382,
      "scorer": 3383,
      "agre": 3384,
      "pepp": 3385,
      "advanced": 3386,
      "iverson": 3387,
      "richardson": 3388,
      "ralph": 3389,
      "pelicans": 3390,
      "##basket": 3391,
      "build": 3392,
      "centre": 3393,
      "area": 3394,
      "posted": 3395,
      "move": 3396,
      "collins": 3397,
      "albany": 3398,
      "pippen": 3399,
      "card": 3400,
      "di": 3401,
      "##ws": 3402,
      "##atv": 3403,
      "spec": 3404,
      "meet": 3405,
      "brun": 3406,
      "barc": 3407,
      "leaders": 3408,
      "larrylar": 3409,
      "jefferson": 3410,
      "braves": 3411,
      "larrylarry": 3412,
      "cous": 3413,
      "hart": 3414,
      "like": 3415,
      "squ": 3416,
      "##je": 3417,
      "##the": 3418,
      "##ivic": 3419,
      "118": 3420,
      "johnny": 3421,
      "bron": 3422,
      "durham": 3423,
      "swept": 3424,
      "fresno": 3425,
      "bowling": 3426,
      "rivalry": 3427,
      "crow": 3428,
      "huskies": 3429,
      "ric": 3430,
      "site": 3431,
      "##side": 3432,
      "##ared": 3433,
      "##amo": 3434,
      "##ala": 3435,
      "level": 3436,
      "rodman": 3437,
      "owners": 3438,
      "expans": 3439,
      "summ": 3440,
      "telev": 3441,
      "recru": 3442,
      "falls": 3443,
      "furman": 3444,
      "lillard": 3445,
      "nbl": 3446,
      "und": 3447,
      "##ma": 3448,
      "##ga": 3449,
      "##ences": 3450,
      "##atum": 3451,
      "plays": 3452,
      "##enders": 3453,
      "come": 3454,
      "mcm": 3455,
      "jacksonville": 3456,
      "dani": 3457,
      "seventh": 3458,
      "canada": 3459,
      "report": 3460,
      "espn2": 3461,
      "olympics": 3462,
      "fair": 3463,
      "lucas": 3464,
      "cbs": 3465,
      "fra": 3466,
      "put": 3467,
      "pitt": 3468,
      "##onn": 3469,
      "these": 3470,
      "conv": 3471,
      "##core": 3472,
      "arenas": 3473,
      "collegiate": 3474,
      "retire": 3475,
      "defeating": 3476,
      "numbers": 3477,
      "seton": 3478,
      "fri": 3479,
      "mull": 3480,
      "##ón": 3481,
      "##lav": 3482,
      "##iver": 3483,
      "##uncey": 3484,
      "perio": 3485,
      "milano": 3486,
      "edwards": 3487,
      "olympiac": 3488,
      "brien": 3489,
      "bruins": 3490,
      "improved": 3491,
      "##self": 3492,
      "continued": 3493,
      "expansion": 3494,
      "period": 3495,
      "olympiacos": 3496,
      "civic": 3497,
      "ks": 3498,
      "tak": 3499,
      "##uz": 3500,
      "heels": 3501,
      "##ogna": 3502,
      "wilt": 3503,
      "victor": 3504,
      "competition": 3505,
      "original": 3506,
      "bologna": 3507,
      "hampton": 3508,
      "gree": 3509,
      "##ex": 3510,
      "##ained": 3511,
      "price": 3512,
      "defense": 3513,
      "pete": 3514,
      "euroleague": 3515,
      "considered": 3516,
      "decided": 3517,
      "throws": 3518,
      "family": 3519,
      "rutgers": 3520,
      "tallinna": 3521,
      "reynolds": 3522,
      "tir": 3523,
      "vic": 3524,
      "veg": 3525,
      "##eers": 3526,
      "##score": 3527,
      "##her": 3528,
      "##back": 3529,
      "##standing": 3530,
      "shock": 3531,
      "spons": 3532,
      "alaska": 3533,
      "nationality": 3534,
      "group": 3535,
      "mills": 3536,
      "boxscore": 3537,
      "landry": 3538,
      "chauncey": 3539,
      "much": 3540,
      "middle": 3541,
      "mcdonald": 3542,
      "affil": 3543,
      "got": 3544,
      "##aron": 3545,
      "##alen": 3546,
      "##atas": 3547,
      "##inger": 3548,
      "##aples": 3549,
      "atlét": 3550,
      "himself": 3551,
      "injuries": 3552,
      "maine": 3553,
      "carmichael": 3554,
      "commissioner": 3555,
      "##dogs": 3556,
      "kh": 3557,
      "kal": 3558,
      "nipp": 3559,
      "ter": 3560,
      "†,": 3561,
      "##car": 3562,
      "##bra": 3563,
      "##ators": 3564,
      "beg": 3565,
      "##ahl": 3566,
      "italy": 3567,
      "energ": 3568,
      "0000000000000002": 3569,
      "stevens": 3570,
      "jimmy": 3571,
      "throughout": 3572,
      "randy": 3573,
      "princeton": 3574,
      "nippon": 3575,
      "age": 3576,
      "autom": 3577,
      "given": 3578,
      "les": 3579,
      "ni": 3580,
      "net": 3581,
      "night": 3582,
      "zach": 3583,
      "##brad": 3584,
      "toled": 3585,
      "andrew": 3586,
      "schools": 3587,
      "1922": 3588,
      "usc": 3589,
      "claim": 3590,
      "##erdine": 3591,
      "suffered": 3592,
      "pepperdine": 3593,
      "mos": 3594,
      "##ted": 3595,
      "##hl": 3596,
      "##pat": 3597,
      "##jan": 3598,
      "forum": 3599,
      "conf": 3600,
      "joining": 3601,
      "##sequent": 3602,
      "##ipers": 3603,
      "bucure": 3604,
      "kenny": 3605,
      "ted": 3606,
      "utep": 3607,
      "##mi": 3608,
      "##ative": 3609,
      "##ites": 3610,
      "staples": 3611,
      "challenge": 3612,
      "122": 3613,
      "rogers": 3614,
      "book": 3615,
      "spect": 3616,
      "byu": 3617,
      "what": 3618,
      "albert": 3619,
      "##izon": 3620,
      "mcgu": 3621,
      "awarded": 3622,
      "dunk": 3623,
      "river": 3624,
      "dominion": 3625,
      "toledo": 3626,
      "based": 3627,
      "fitz": 3628,
      "love": 3629,
      "sn": 3630,
      "reed": 3631,
      "117": 3632,
      "allow": 3633,
      "phill": 3634,
      "france": 3635,
      "harry": 3636,
      "##etting": 3637,
      "gross": 3638,
      "nbatv": 3639,
      "wyoming": 3640,
      "mcguire": 3641,
      "dif": 3642,
      "et": 3643,
      "foul": 3644,
      "opt": 3645,
      "refer": 3646,
      "##agues": 3647,
      "116": 3648,
      "leagues": 3649,
      "decl": 3650,
      "##ush": 3651,
      "##aker": 3652,
      "adri": 3653,
      "glen": 3654,
      "holy": 3655,
      "standings": 3656,
      "##colle": 3657,
      "differ": 3658,
      "lot": 3659,
      "##ness": 3660,
      "##arena": 3661,
      "##arks": 3662,
      "##eland": 3663,
      "##olm": 3664,
      "bog": 3665,
      "common": 3666,
      "denotes": 3667,
      "respect": 3668,
      "kennedy": 3669,
      "vegas": 3670,
      "0000000000000002000000": 3671,
      "automatic": 3672,
      "doc": 3673,
      "dome": 3674,
      "dire": 3675,
      "live": 3676,
      "mack": 3677,
      "rice": 3678,
      "##aul": 3679,
      "##da": 3680,
      "##utch": 3681,
      "##bury": 3682,
      "added": 3683,
      "surp": 3684,
      "subsequent": 3685,
      "mus": 3686,
      "pack": 3687,
      "##of": 3688,
      "##bill": 3689,
      "##ator": 3690,
      "##lay": 3691,
      "##iday": 3692,
      "11asts": 3693,
      "without": 3694,
      "jody": 3695,
      "##away": 3696,
      "worst": 3697,
      "gregg": 3698,
      "##john": 3699,
      "released": 3700,
      "benn": 3701,
      "father": 3702,
      "hold": 3703,
      "kell": 3704,
      "##ivid": 3705,
      "beating": 3706,
      "organ": 3707,
      "individ": 3708,
      "brothers": 3709,
      "outstanding": 3710,
      "1921": 3711,
      "slam": 3712,
      "sporting": 3713,
      "featured": 3714,
      "favor": 3715,
      "cardinal": 3716,
      "bucureşti": 3717,
      "bad": 3718,
      "fish": 3719,
      "ll": 3720,
      "nation": 3721,
      "sent": 3722,
      "vers": 3723,
      "zie": 3724,
      "##ucted": 3725,
      "##mouth": 3726,
      "##chris": 3727,
      "##osa": 3728,
      "125": 3729,
      "clark": 3730,
      "slov": 3731,
      "intercolle": 3732,
      "salt": 3733,
      "##gery": 3734,
      "invol": 3735,
      "evansville": 3736,
      "northwestern": 3737,
      "achie": 3738,
      "ziegen": 3739,
      "intercollegiate": 3740,
      "batt": 3741,
      "din": 3742,
      "lock": 3743,
      "mun": 3744,
      "##gins": 3745,
      "##fuss": 3746,
      "though": 3747,
      "##alc": 3748,
      "deand": 3749,
      "bears": 3750,
      "exec": 3751,
      "barb": 3752,
      "mvc": 3753,
      "chrischris": 3754,
      "uconn": 3755,
      "surgery": 3756,
      "nashville": 3757,
      "keyarena": 3758,
      "waters": 3759,
      "stockton": 3760,
      "tirana": 3761,
      "ziegenfuss": 3762,
      "fight": 3763,
      "holl": 3764,
      "mod": 3765,
      "por": 3766,
      "pir": 3767,
      "vcu": 3768,
      "##lost": 3769,
      "##yane": 3770,
      "##over": 3771,
      "##ław": 3772,
      "conrad": 3773,
      "12asts": 3774,
      "align": 3775,
      "southland": 3776,
      "front": 3777,
      "laf": 3778,
      "athens": 3779,
      "skip": 3780,
      "foundation": 3781,
      "harding": 3782,
      "nickname": 3783,
      "clinch": 3784,
      "cunn": 3785,
      "holds": 3786,
      "vac": 3787,
      "##nell": 3788,
      "##sen": 3789,
      "##ids": 3790,
      "##ister": 3791,
      "rochester": 3792,
      "spoel": 3793,
      "sched": 3794,
      "twice": 3795,
      "1923": 3796,
      "mccr": 3797,
      "strugg": 3798,
      "##aila": 3799,
      "berth": 3800,
      "conditional": 3801,
      "partizan": 3802,
      "conradt": 3803,
      "spoelstra": 3804,
      ":#": 3805,
      "bank": 3806,
      "baa": 3807,
      "hugh": 3808,
      "mat": 3809,
      "rio": 3810,
      "tatum": 3811,
      "neil": 3812,
      "##ondo": 3813,
      "worth": 3814,
      "opened": 3815,
      "venue": 3816,
      "helms": 3817,
      "brunson": 3818,
      "cunningham": 3819,
      "fc": 3820,
      "mot": 3821,
      "tart": 3822,
      "##lines": 3823,
      "##dd": 3824,
      "cover": 3825,
      "##aine": 3826,
      "250": 3827,
      "##phil": 3828,
      "julius": 3829,
      "##leton": 3830,
      "attended": 3831,
      "philipp": 3832,
      "philphil": 3833,
      "reloc": 3834,
      "advance": 3835,
      "entire": 3836,
      "wilkens": 3837,
      "kalev": 3838,
      "(#": 3839,
      "2k": 3840,
      "cly": 3841,
      "gall": 3842,
      "gord": 3843,
      "gine": 3844,
      "lions": 3845,
      "rap": 3846,
      "vik": 3847,
      "view": 3848,
      "##los": 3849,
      "##ile": 3850,
      "##rett": 3851,
      "##wright": 3852,
      "##eed": 3853,
      "##gom": 3854,
      "##por": 3855,
      "##roll": 3856,
      "##iang": 3857,
      "##eyer": 3858,
      "orange": 3859,
      "maur": 3860,
      "763": 3861,
      "bulldogs": 3862,
      "peterson": 3863,
      "strong": 3864,
      "depaul": 3865,
      "craig": 3866,
      "turner": 3867,
      "hayes": 3868,
      "invitational": 3869,
      "lynx": 3870,
      "bubas": 3871,
      "retirement": 3872,
      "direct": 3873,
      "sloven": 3874,
      "ginebra": 3875,
      "corn": 3876,
      "gin": 3877,
      "gene": 3878,
      "lim": 3879,
      "row": 3880,
      "rondo": 3881,
      "##mon": 3882,
      "##ten": 3883,
      "##tain": 3884,
      "##ablish": 3885,
      "branch": 3886,
      "333": 3887,
      "jayhawks": 3888,
      "successful": 3889,
      "establish": 3890,
      "dwyane": 3891,
      "television": 3892,
      "hughes": 3893,
      "400": 3894,
      "9asts": 3895,
      "ay": 3896,
      "ast": 3897,
      "get": 3898,
      "gave": 3899,
      "hend": 3900,
      "kor": 3901,
      "masc": 3902,
      "##less": 3903,
      "##mont": 3904,
      "##ges": 3905,
      "##iso": 3906,
      "##ersal": 3907,
      "poll": 3908,
      "fired": 3909,
      "##ribut": 3910,
      "##emic": 3911,
      "fields": 3912,
      "athletics": 3913,
      "philips": 3914,
      "lowry": 3915,
      "northeastern": 3916,
      "rupp": 3917,
      "dispersal": 3918,
      "oceania": 3919,
      "reported": 3920,
      "different": 3921,
      "**": 3922,
      "gb": 3923,
      "ku": 3924,
      "ul": 3925,
      "yug": 3926,
      "##line": 3927,
      "##lik": 3928,
      "##eks": 3929,
      "##199": 3930,
      "##para": 3931,
      "##ario": 3932,
      "recent": 3933,
      "##inning": 3934,
      "##inney": 3935,
      "##eve": 3936,
      "notes": 3937,
      "supp": 3938,
      "quick": 3939,
      "carlos": 3940,
      "garden19": 3941,
      "simmons": 3942,
      "jeremy": 3943,
      "murphy": 3944,
      "springfield": 3945,
      "bernard": 3946,
      "lafayette": 3947,
      "bre": 3948,
      "dal": 3949,
      "daly": 3950,
      "fed": 3951,
      "fla": 3952,
      "hans": 3953,
      "vis": 3954,
      "##zar": 3955,
      "##ump": 3956,
      "##mingham": 3957,
      "##boy": 3958,
      "init": 3959,
      "##rest": 3960,
      "##vern": 3961,
      "119": 3962,
      "121": 3963,
      "##aha": 3964,
      "highl": 3965,
      "totals": 3966,
      "naia": 3967,
      "airlines": 3968,
      "birmingham": 3969,
      "mccarthy": 3970,
      "akron": 3971,
      "recruit": 3972,
      "gordon": 3973,
      "jenn": 3974,
      "toney": 3975,
      "##lo": 3976,
      "##ken": 3977,
      "##rence": 3978,
      "##jon": 3979,
      "##ateg": 3980,
      "##ured": 3981,
      "123": 3982,
      "around": 3983,
      "##ender": 3984,
      "close": 3985,
      "##aware": 3986,
      "nationals": 3987,
      "except": 3988,
      "1920": 3989,
      "webs": 3990,
      "ending": 3991,
      "poss": 3992,
      "##iatemplate": 3993,
      "jamal": 3994,
      "format": 3995,
      "adams": 3996,
      "beginning": 3997,
      "tartu": 3998,
      "navy": 3999,
      "##lit": 4000,
      "##opm": 4001,
      "##ha": 4002,
      "##gro": 4003,
      "##ental": 4004,
      "##illo": 4005,
      "pointer": 4006,
      "13asts": 4007,
      "sparks": 4008,
      "clu": 4009,
      "##orns": 4010,
      "antoni": 4011,
      "madrid": 4012,
      "harper": 4013,
      "largest": 4014,
      "weight": 4015,
      "montgom": 4016,
      "import": 4017,
      "eventual": 4018,
      "look": 4019,
      "combined": 4020,
      "gradu": 4021,
      "developm": 4022,
      "webber": 4023,
      "upset": 4024,
      "website": 4025,
      "montgomery": 4026,
      "dale": 4027,
      "lat": 4028,
      "sat": 4029,
      "wr": 4030,
      "##ique": 4031,
      "##cing": 4032,
      "##tis": 4033,
      "##get": 4034,
      "##ceeded": 4035,
      "height": 4036,
      "span": 4037,
      "laur": 4038,
      "hills": 4039,
      "delaware": 4040,
      "rhode": 4041,
      "runners": 4042,
      "fisher": 4043,
      "executive": 4044,
      "dahl": 4045,
      "lady": 4046,
      "sau": 4047,
      "##hen": 4048,
      "toy": 4049,
      "12th": 4050,
      "##ected": 4051,
      "cliff": 4052,
      "priv": 4053,
      "240": 4054,
      "scot": 4055,
      "mcado": 4056,
      "defeat": 4057,
      "1919": 4058,
      "annual": 4059,
      "burke": 4060,
      "dropped": 4061,
      "summit": 4062,
      "maurice": 4063,
      "mcadoo": 4064,
      "bapt": 4065,
      "tacy": 4066,
      "vince": 4067,
      "##dale": 4068,
      "##oke": 4069,
      "##cus": 4070,
      "##ting": 4071,
      "##hm": 4072,
      "##__": 4073,
      "those": 4074,
      "tow": 4075,
      "see": 4076,
      "##rov": 4077,
      "##ural": 4078,
      "##raft": 4079,
      "joel": 4080,
      "##erek": 4081,
      "govern": 4082,
      "valpara": 4083,
      "self": 4084,
      "dončić": 4085,
      "ranking": 4086,
      "dream": 4087,
      "jump": 4088,
      "sidney": 4089,
      "oscar": 4090,
      "institut": 4091,
      "gardner": 4092,
      "wesleyan": 4093,
      "cousy": 4094,
      "mascot": 4095,
      "valparaiso": 4096,
      "dix": 4097,
      "es": 4098,
      "hop": 4099,
      "##ians": 4100,
      "##uth": 4101,
      "##mers": 4102,
      "##fr": 4103,
      "##ps": 4104,
      "##bach": 4105,
      "##bles": 4106,
      "stre": 4107,
      "##eta": 4108,
      "##elite": 4109,
      "##achi": 4110,
      "news": 4111,
      "knights": 4112,
      "broke": 4113,
      "patri": 4114,
      "patpat": 4115,
      "morgan": 4116,
      "##ermaine": 4117,
      "##icipal": 4118,
      "changed": 4119,
      "capital": 4120,
      "omaha": 4121,
      "individual": 4122,
      "municipal": 4123,
      "baptist": 4124,
      "):": 4125,
      "bosh": 4126,
      "cum": 4127,
      "terr": 4128,
      "uab": 4129,
      "##ij": 4130,
      "##imp": 4131,
      "##hatt": 4132,
      "##arch": 4133,
      "##aney": 4134,
      "##ste": 4135,
      "##ives": 4136,
      "##eman": 4137,
      "offseason": 4138,
      "reser": 4139,
      "able": 4140,
      "pargo": 4141,
      "1915": 4142,
      "includes": 4143,
      "floor": 4144,
      "luka": 4145,
      "staff": 4146,
      "meanwell": 4147,
      "bi": 4148,
      "ban": 4149,
      "ced": 4150,
      "eigh": 4151,
      "mourn": 4152,
      "rou": 4153,
      "ur": 4154,
      "um": 4155,
      "vin": 4156,
      "##zo": 4157,
      "##oon": 4158,
      "##hol": 4159,
      "##ened": 4160,
      "##lee": 4161,
      "##ardo": 4162,
      "hem": 4163,
      "johnjohn": 4164,
      "determ": 4165,
      "smart": 4166,
      "missing": 4167,
      "extern": 4168,
      "contro": 4169,
      "elig": 4170,
      "walt": 4171,
      "sixteenelite": 4172,
      "|-|": 4173,
      "entered": 4174,
      "hof": 4175,
      "lawrence": 4176,
      "rams": 4177,
      "outs": 4178,
      "operations": 4179,
      "mckinney": 4180,
      "unsigned": 4181,
      "captain": 4182,
      "building": 4183,
      "daniels": 4184,
      "affiliate": 4185,
      "mourning": 4186,
      "external": 4187,
      "auer": 4188,
      "bon": 4189,
      "fly": 4190,
      "others": 4191,
      "rat": 4192,
      "sou": 4193,
      "sold": 4194,
      "tb": 4195,
      "##zel": 4196,
      "##rum": 4197,
      "##rated": 4198,
      "##jerry": 4199,
      "##elman": 4200,
      "byron": 4201,
      "##used": 4202,
      "arg": 4203,
      "ald": 4204,
      "americans": 4205,
      "willie": 4206,
      "##ody": 4207,
      "manhatt": 4208,
      "marked": 4209,
      "jerryjerry": 4210,
      "ricky": 4211,
      "malc": 4212,
      "exper": 4213,
      "better": 4214,
      "horizon": 4215,
      "origin": 4216,
      "grande": 4217,
      "hawai": 4218,
      "european": 4219,
      "eliminated": 4220,
      "dragons": 4221,
      "development": 4222,
      "auerbach": 4223,
      "dirk": 4224,
      "hom": 4225,
      "lbs": 4226,
      "living": 4227,
      "non": 4228,
      "vol": 4229,
      "##greg": 4230,
      "##ban": 4231,
      "##nders": 4232,
      "##elona": 4233,
      "china": 4234,
      "requ": 4235,
      "##iders": 4236,
      "##anda": 4237,
      "129": 4238,
      "126": 4239,
      "124": 4240,
      "roundmarch": 4241,
      "northridge": 4242,
      "blair": 4243,
      "enke": 4244,
      "sop": 4245,
      "1918": 4246,
      "losses": 4247,
      "salem": 4248,
      "local": 4249,
      "pennant": 4250,
      "tulane": 4251,
      "austral": 4252,
      "olimp": 4253,
      "officially": 4254,
      "german": 4255,
      "entertain": 4256,
      "sponsor": 4257,
      "energy": 4258,
      "henderson": 4259,
      "private": 4260,
      "malcolm": 4261,
      "categ": 4262,
      "eri": 4263,
      "lon": 4264,
      "rider": 4265,
      "samp": 4266,
      "want": 4267,
      "##sn": 4268,
      "##janov": 4269,
      "thorn": 4270,
      "##anes": 4271,
      "##roy": 4272,
      "roll": 4273,
      "##iece": 4274,
      "buzz": 4275,
      "rebounding": 4276,
      "wilkins": 4277,
      "longer": 4278,
      "tenure": 4279,
      "##strong": 4280,
      "plum": 4281,
      "olson": 4282,
      "turkey": 4283,
      "gymnas": 4284,
      "blocked": 4285,
      "armstrong": 4286,
      "columbia": 4287,
      "distr": 4288,
      "spartans": 4289,
      "crowd": 4290,
      "clyde": 4291,
      "tbd": 4292,
      "gymnasium": 4293,
      "lor": 4294,
      "tour": 4295,
      "##uction": 4296,
      "##ments": 4297,
      "##jack": 4298,
      "##aro": 4299,
      "##ersen": 4300,
      "copp": 4301,
      "##lem": 4302,
      "rev": 4303,
      "few": 4304,
      "##quer": 4305,
      "##wealth": 4306,
      "offense": 4307,
      "southwestern": 4308,
      "holiday": 4309,
      "dwight": 4310,
      "hartford": 4311,
      "commonwealth": 4312,
      "*,": 4313,
      "bor": 4314,
      "##rich": 4315,
      "##mund": 4316,
      "##orth": 4317,
      "sto": 4318,
      "offer": 4319,
      "##rop": 4320,
      "reun": 4321,
      "force": 4322,
      "##iak": 4323,
      "split": 4324,
      "join": 4325,
      "14asts": 4326,
      "isiah": 4327,
      "serbia": 4328,
      "mcne": 4329,
      "finally": 4330,
      "steven": 4331,
      "formerly": 4332,
      "##oper": 4333,
      "##ideo": 4334,
      "##onzo": 4335,
      "justin": 4336,
      "talk": 4337,
      "palace": 4338,
      "links": 4339,
      "subsequently": 4340,
      "toyota": 4341,
      "manhattan": 4342,
      "sampson": 4343,
      "ba": 4344,
      "bos": 4345,
      "lue": 4346,
      "luke": 4347,
      "nat": 4348,
      "trac": 4349,
      "##uct": 4350,
      "##com": 4351,
      "##va": 4352,
      "##bell": 4353,
      "##ów": 4354,
      "##stem": 4355,
      "##rey": 4356,
      "##ilt": 4357,
      "##anded": 4358,
      "lose": 4359,
      "order": 4360,
      "inducted": 4361,
      "210": 4362,
      "feat": 4363,
      "gobert": 4364,
      "blake": 4365,
      "contribut": 4366,
      "crum": 4367,
      "franklin": 4368,
      "quarterfinalist": 4369,
      "belmont": 4370,
      "##akeem": 4371,
      "erving": 4372,
      "reno": 4373,
      "##ether": 4374,
      "uniforms": 4375,
      "veteran": 4376,
      "veterans": 4377,
      "##inkle": 4378,
      "barcelona": 4379,
      "undraft": 4380,
      "convention": 4381,
      "undrafted": 4382,
      "bus": 4383,
      "bib": 4384,
      "base": 4385,
      "gill": 4386,
      "mott": 4387,
      "song": 4388,
      "very": 4389,
      "you": 4390,
      "##alachi": 4391,
      "##ede": 4392,
      "conley": 4393,
      "devin": 4394,
      "##tery": 4395,
      "coming": 4396,
      "##ished": 4397,
      "trades": 4398,
      "##press": 4399,
      "appalachi": 4400,
      "athlete": 4401,
      "associated": 4402,
      "1917": 4403,
      "##athan": 4404,
      "panthers": 4405,
      "courtney": 4406,
      "darius": 4407,
      "citiz": 4408,
      "ellis": 4409,
      "mercury": 4410,
      "squad": 4411,
      "phillips": 4412,
      "established": 4413,
      "clubs": 4414,
      "eighth": 4415,
      "appalachian": 4416,
      "aau": 4417,
      "dor": 4418,
      "denny": 4419,
      "germ": 4420,
      "hick": 4421,
      "ice": 4422,
      "kel": 4423,
      "pot": 4424,
      "##aign": 4425,
      "##zer": 4426,
      "##iet": 4427,
      "##ials": 4428,
      "##20": 4429,
      "##ead": 4430,
      "health": 4431,
      "demar": 4432,
      "needed": 4433,
      "##ried": 4434,
      "shaw": 4435,
      "alvin": 4436,
      "##ova": 4437,
      "served": 4438,
      "produ": 4439,
      "willis": 4440,
      "##ucker": 4441,
      "1980s": 4442,
      "suc": 4443,
      "selections": 4444,
      "soon": 4445,
      "1910": 4446,
      "alongside": 4447,
      "deroz": 4448,
      "renamed": 4449,
      "##uerto": 4450,
      "henry": 4451,
      "fuller": 4452,
      "childress": 4453,
      "grabb": 4454,
      "multip": 4455,
      "meeting": 4456,
      "kelly": 4457,
      "derozan": 4458,
      "gerry": 4459,
      "hud": 4460,
      "iba": 4461,
      "iona": 4462,
      "puerto": 4463,
      "##ran": 4464,
      "##will": 4465,
      "##work": 4466,
      "##hon": 4467,
      "##port": 4468,
      "##jev": 4469,
      "andersen": 4470,
      "change": 4471,
      "constr": 4472,
      "##esteve": 4473,
      "should": 4474,
      "bye": 4475,
      "arth": 4476,
      "##ape": 4477,
      "fever": 4478,
      "stevesteve": 4479,
      "tomjanov": 4480,
      "consist": 4481,
      "cruz": 4482,
      "owned": 4483,
      "summar": 4484,
      "hayward": 4485,
      "passed": 4486,
      "partizani": 4487,
      "academic": 4488,
      "immed": 4489,
      "claimed": 4490,
      "porter": 4491,
      "saunders": 4492,
      "tomjanovich": 4493,
      "action": 4494,
      "bones": 4495,
      "gal": 4496,
      "gain": 4497,
      "hakeem": 4498,
      "igu": 4499,
      "let": 4500,
      "rain": 4501,
      "verm": 4502,
      "vmi": 4503,
      "##mount": 4504,
      "##bed": 4505,
      "##aton": 4506,
      "sell": 4507,
      "##iring": 4508,
      "chap": 4509,
      "##ilar": 4510,
      "##lley": 4511,
      "americas": 4512,
      "phys": 4513,
      "miles": 4514,
      "presley": 4515,
      "track": 4516,
      "acco": 4517,
      "##ronn": 4518,
      "purp": 4519,
      "sonny": 4520,
      "wolf": 4521,
      "occurr": 4522,
      "vacated": 4523,
      "argent": 4524,
      "originally": 4525,
      "district": 4526,
      "8asts": 4527,
      "aaron": 4528,
      "cut": 4529,
      "ef": 4530,
      "mir": 4531,
      "##court": 4532,
      "##ky": 4533,
      "##ūnas": 4534,
      "##stemplate": 4535,
      "##etemplate": 4536,
      "##ros": 4537,
      "rejo": 4538,
      "##che": 4539,
      "room": 4540,
      "marist": 4541,
      "sixers": 4542,
      "32rebs": 4543,
      "1990s": 4544,
      "weeks": 4545,
      "training": 4546,
      "marymount": 4547,
      "1912": 4548,
      "1914": 4549,
      "powell": 4550,
      "company": 4551,
      "doubles": 4552,
      "scottie": 4553,
      "target": 4554,
      "horford": 4555,
      "##bili": 4556,
      "teammates": 4557,
      "drexel": 4558,
      "\".\"": 4559,
      "spectrum": 4560,
      "respectively": 4561,
      "bennett": 4562,
      "fighting": 4563,
      "plumlee": 4564,
      "cc": 4565,
      "dy": 4566,
      "derek": 4567,
      "fan": 4568,
      "face": 4569,
      "ig": 4570,
      "jermaine": 4571,
      "kris": 4572,
      "kirk": 4573,
      "vipers": 4574,
      "##ls": 4575,
      "##lie": 4576,
      "##dome": 4577,
      "##gi": 4578,
      "##7referees": 4579,
      "##ises": 4580,
      "often": 4581,
      "##leod": 4582,
      "reid": 4583,
      "ash": 4584,
      "##aving": 4585,
      "spot": 4586,
      "##antage": 4587,
      "##acken": 4588,
      "175": 4589,
      "agg": 4590,
      "##ension": 4591,
      "brit": 4592,
      "trent": 4593,
      "system": 4594,
      "rickrick": 4595,
      "curtis": 4596,
      "merger": 4597,
      "gerard": 4598,
      "standing": 4599,
      "sharman": 4600,
      "jerome": 4601,
      "weekend": 4602,
      "ruled": 4603,
      "drexler": 4604,
      "mccracken": 4605,
      "hofstra": 4606,
      "souza": 4607,
      "entertainment": 4608,
      "300": 4609,
      "duck": 4610,
      "nbc": 4611,
      "pure": 4612,
      "pett": 4613,
      "ran": 4614,
      "rico": 4615,
      "taking": 4616,
      "##ien": 4617,
      "##ija": 4618,
      "##ean": 4619,
      "##tt": 4620,
      "##isle": 4621,
      "##ential": 4622,
      "cho": 4623,
      "##ulf": 4624,
      "127": 4625,
      "beck": 4626,
      "beerm": 4627,
      "##avich": 4628,
      "marvin": 4629,
      "131": 4630,
      "alleg": 4631,
      "##akes": 4632,
      "##ondon": 4633,
      "loser": 4634,
      "feet": 4635,
      "brought": 4636,
      "##ogn": 4637,
      "667": 4638,
      "sweep": 4639,
      "franchises": 4640,
      "floyd": 4641,
      "crit": 4642,
      "tying": 4643,
      "##ways": 4644,
      "compete": 4645,
      "earning": 4646,
      "hardaway": 4647,
      "irv": 4648,
      "colonial": 4649,
      "esttemplate": 4650,
      "mercer": 4651,
      "qualifying": 4652,
      "booker": 4653,
      "reserve": 4654,
      "coppin": 4655,
      "beermen": 4656,
      "use": 4657,
      "ver": 4658,
      "##ao": 4659,
      "##app": 4660,
      "##rim": 4661,
      "town": 4662,
      "cooper": 4663,
      "##leavy": 4664,
      "##kew": 4665,
      "askew": 4666,
      "maravich": 4667,
      "180": 4668,
      "recording": 4669,
      "edition": 4670,
      "edmund": 4671,
      "dunleavy": 4672,
      "youngest": 4673,
      "carlisle": 4674,
      "campbell": 4675,
      "raiders": 4676,
      "watson": 4677,
      "lineup": 4678,
      "##nič": 4679,
      "voted": 4680,
      "academy": 4681,
      "solid": 4682,
      "coleman": 4683,
      "special": 4684,
      "cardinals": 4685,
      "rapids": 4686,
      "succeeded": 4687,
      "daw": 4688,
      "doll": 4689,
      "dob": 4690,
      "gak": 4691,
      "hann": 4692,
      "kur": 4693,
      "light": 4694,
      "lenny": 4695,
      "lute": 4696,
      "sand": 4697,
      "wo": 4698,
      "wall": 4699,
      "##win": 4700,
      "##fol": 4701,
      "##par": 4702,
      "##idge": 4703,
      "conferences": 4704,
      "##ppell": 4705,
      "tourney": 4706,
      "##apan": 4707,
      "perkins": 4708,
      "2023": 4709,
      "manu": 4710,
      "aces": 4711,
      "##oods": 4712,
      "glob": 4713,
      "chappell": 4714,
      "institute": 4715,
      "agreed": 4716,
      "mcmill": 4717,
      "music": 4718,
      "gregggreg": 4719,
      "street": 4720,
      "patriot": 4721,
      "hawaii": 4722,
      "livingston": 4723,
      "gregggregg": 4724,
      "gulf": 4725,
      "hines": 4726,
      "jac": 4727,
      "lay": 4728,
      "pull": 4729,
      "ud": 4730,
      "vi": 4731,
      "##ič": 4732,
      "##res": 4733,
      "##josh": 4734,
      "##80": 4735,
      "##eng": 4736,
      "stay": 4737,
      "##iaw": 4738,
      "mikan": 4739,
      "##ustrated": 4740,
      "##odala": 4741,
      "offensive": 4742,
      "##clus": 4743,
      "appro": 4744,
      "camby": 4745,
      "interim": 4746,
      "artest": 4747,
      "advantage": 4748,
      "1908": 4749,
      "facility": 4750,
      "joshjosh": 4751,
      "apiece": 4752,
      "incre": 4753,
      "network": 4754,
      "barbara": 4755,
      "struggled": 4756,
      "fullerton": 4757,
      "hudson": 4758,
      "summary": 4759,
      "iguodala": 4760,
      "brew": 4761,
      "gw": 4762,
      "hot": 4763,
      "hank": 4764,
      "ly": 4765,
      "lang": 4766,
      "lind": 4767,
      "rac": 4768,
      "##10": 4769,
      "##fect": 4770,
      "##án": 4771,
      "##enko": 4772,
      "##ising": 4773,
      "##elj": 4774,
      "seen": 4775,
      "andy": 4776,
      "##olation": 4777,
      "##ures": 4778,
      "128": 4779,
      "shawn": 4780,
      "135": 4781,
      "alm": 4782,
      "oral": 4783,
      "##rady": 4784,
      "adelman": 4785,
      "harr": 4786,
      "monarch": 4787,
      "averages": 4788,
      "##ople": 4789,
      "morehead": 4790,
      "people": 4791,
      "capers": 4792,
      "eurobasket": 4793,
      "rivals": 4794,
      "##wayne": 4795,
      "ronnie": 4796,
      "failed": 4797,
      "campaign": 4798,
      "amarillo": 4799,
      "popular": 4800,
      "belg": 4801,
      "fellow": 4802,
      "mcgrady": 4803,
      "occas": 4804,
      "africa": 4805,
      "##jeremy": 4806,
      "snow": 4807,
      "lockout": 4808,
      "vikings": 4809,
      "jeremyjeremy": 4810,
      "multiple": 4811,
      "physical": 4812,
      "aggies": 4813,
      "800": 4814,
      "cat": 4815,
      "fold": 4816,
      "gib": 4817,
      "zar": 4818,
      "##ule": 4819,
      "##cou": 4820,
      "##cott": 4821,
      "##rus": 4822,
      "##eason": 4823,
      "##town": 4824,
      "##foods": 4825,
      "##ically": 4826,
      "##iggins": 4827,
      "##ither": 4828,
      "##rael": 4829,
      "poor": 4830,
      "israel": 4831,
      "prim": 4832,
      "butch": 4833,
      "29rebs": 4834,
      "preseason": 4835,
      "signing": 4836,
      "sund": 4837,
      "66ers": 4838,
      "floridare": 4839,
      "##icek": 4840,
      "minor": 4841,
      "longest": 4842,
      "##amaal": 4843,
      "vancou": 4844,
      "1909": 4845,
      "francis": 4846,
      "sharks": 4847,
      "represent": 4848,
      "attempts": 4849,
      "ross": 4850,
      "unseld": 4851,
      "completed": 4852,
      "hometown": 4853,
      "rejoined": 4854,
      "purefoods": 4855,
      "floridareferees": 4856,
      "vancouver": 4857,
      "..": 4858,
      "cand": 4859,
      "give": 4860,
      "jud": 4861,
      "kend": 4862,
      "lan": 4863,
      "mall": 4864,
      "mch": 4865,
      "nin": 4866,
      "og": 4867,
      "side": 4868,
      "##af": 4869,
      "##ras": 4870,
      "##gov": 4871,
      "##ores": 4872,
      "##ales": 4873,
      "##ival": 4874,
      "##oslav": 4875,
      "##ithu": 4876,
      "deb": 4877,
      "withd": 4878,
      "##ationally": 4879,
      "built": 4880,
      "alonzo": 4881,
      "##ftime": 4882,
      "##ello": 4883,
      "max": 4884,
      "express": 4885,
      "goble": 4886,
      "##ize": 4887,
      "abl": 4888,
      "virt": 4889,
      "include": 4890,
      "redick": 4891,
      "halftime": 4892,
      "darrell": 4893,
      "remainder": 4894,
      "##box": 4895,
      "internationally": 4896,
      "hoos": 4897,
      "varese": 4898,
      "cowboy": 4899,
      "surpass": 4900,
      "ultim": 4901,
      "flag": 4902,
      "buzzer": 4903,
      "arthur": 4904,
      "vermont": 4905,
      "pettit": 4906,
      "monarchs": 4907,
      "ara": 4908,
      "abs": 4909,
      "ely": 4910,
      "kat": 4911,
      "ms": 4912,
      "##iately": 4913,
      "##oint": 4914,
      "##num": 4915,
      "##fred": 4916,
      "##once": 4917,
      "##orge": 4918,
      "##oux": 4919,
      "##law": 4920,
      "section": 4921,
      "130": 4922,
      "##ift": 4923,
      "guth": 4924,
      "241": 4925,
      "serv": 4926,
      "##ensus": 4927,
      "worthy": 4928,
      "##anger": 4929,
      "tarkan": 4930,
      "##uskas": 4931,
      "participant": 4932,
      "atlético": 4933,
      "lottery": 4934,
      "deandre": 4935,
      "highlights": 4936,
      "baseball": 4937,
      "immediately": 4938,
      "almost": 4939,
      "tarkanian": 4940,
      "cir": 4941,
      "delt": 4942,
      "diam": 4943,
      "fast": 4944,
      "gay": 4945,
      "meyer": 4946,
      "pra": 4947,
      "som": 4948,
      "till": 4949,
      "vand": 4950,
      "##ios": 4951,
      "##dong": 4952,
      "##{{": 4953,
      "thur": 4954,
      "##aming": 4955,
      "tog": 4956,
      "##acle": 4957,
      "##olog": 4958,
      "##otemplate": 4959,
      "##kevin": 4960,
      "##aymond": 4961,
      "margin": 4962,
      "aris": 4963,
      "215": 4964,
      "225": 4965,
      "brother": 4966,
      "fire": 4967,
      "pross": 4968,
      "adolph": 4969,
      "billbill": 4970,
      "cald": 4971,
      "pau": 4972,
      "illustrated": 4973,
      "mother": 4974,
      "ariza": 4975,
      "tommy": 4976,
      "##keyes": 4977,
      "peay": 4978,
      "##gerald": 4979,
      "dominic": 4980,
      "gerald": 4981,
      "instead": 4982,
      "##ency": 4983,
      "juan": 4984,
      "middleton": 4985,
      "hunter": 4986,
      "refn": 4987,
      "wolver": 4988,
      "damian": 4989,
      "promot": 4990,
      "greece": 4991,
      "dahlberg": 4992,
      "##frank": 4993,
      "australia": 4994,
      "category": 4995,
      "irvine": 4996,
      "prosser": 4997,
      "bas": 4998,
      "band": 4999,
      "cs": 5000,
      "hoy": 5001,
      "japan": 5002,
      "lithu": 5003,
      "must": 5004,
      "mutom": 5005,
      "nab": 5006,
      "say": 5007,
      "sav": 5008,
      "soc": 5009,
      "wolves": 5010,
      "yet": 5011,
      "yao": 5012,
      "##licek": 5013,
      "##zda": 5014,
      "##uitt": 5015,
      "##wan": 5016,
      "##ea": 5017,
      "##michael": 5018,
      "##tario": 5019,
      "##bob": 5020,
      "ina": 5021,
      "stamp": 5022,
      "chance": 5023,
      "##osing": 5024,
      "##ements": 5025,
      "##akim": 5026,
      "regard": 5027,
      "closed": 5028,
      "220": 5029,
      "guang": 5030,
      "stated": 5031,
      "bring": 5032,
      "guards": 5033,
      "ital": 5034,
      "upon": 5035,
      "resigned": 5036,
      "havlicek": 5037,
      "bids": 5038,
      "375": 5039,
      "1913": 5040,
      "donald": 5041,
      "complex": 5042,
      "market": 5043,
      "salary": 5044,
      "charge": 5045,
      "kemp": 5046,
      "claws": 5047,
      "jayson": 5048,
      "represented": 5049,
      "rules": 5050,
      "russia": 5051,
      "agreement": 5052,
      "fairfield": 5053,
      "frazier": 5054,
      "friend": 5055,
      "lloyd": 5056,
      "support": 5057,
      "##etails": 5058,
      "bibby": 5059,
      "construction": 5060,
      "gaines": 5061,
      "accompl": 5062,
      "harrington": 5063,
      "cowboys": 5064,
      "delta": 5065,
      "together": 5066,
      "mutombo": 5067,
      "guangdong": 5068,
      "600": 5069,
      "aek": 5070,
      "ct": 5071,
      "cast": 5072,
      "ep": 5073,
      "erick": 5074,
      "gators": 5075,
      "hinkle": 5076,
      "mes": 5077,
      "patt": 5078,
      "rom": 5079,
      "term": 5080,
      "wro": 5081,
      "yell": 5082,
      "##details": 5083,
      "##cow": 5084,
      "##cess": 5085,
      "##ás": 5086,
      "##amin": 5087,
      "##asley": 5088,
      "cox": 5089,
      "cop": 5090,
      "forced": 5091,
      "##ilo": 5092,
      "##unct": 5093,
      "spent": 5094,
      "167": 5095,
      "30rebs": 5096,
      "##elli": 5097,
      "##abe": 5098,
      "ade": 5099,
      "jackie": 5100,
      "##cement": 5101,
      "seeding": 5102,
      "athletes": 5103,
      "quinn": 5104,
      "followed": 5105,
      "##ibility": 5106,
      "opener": 5107,
      "poly": 5108,
      "months": 5109,
      "active": 5110,
      "broadcasters": 5111,
      "liga": 5112,
      "greek": 5113,
      "moscow": 5114,
      "schedule": 5115,
      "philippine": 5116,
      "jennings": 5117,
      "dixon": 5118,
      "gibson": 5119,
      "dig": 5120,
      "jess": 5121,
      "kim": 5122,
      "pi": 5123,
      "sites": 5124,
      "wid": 5125,
      "##aun": 5126,
      "##kle": 5127,
      "##ns": 5128,
      "##min": 5129,
      "##3referees": 5130,
      "##óbili": 5131,
      "stern": 5132,
      "##lays": 5133,
      "##ires": 5134,
      "##ross": 5135,
      "ontario": 5136,
      "heart": 5137,
      "spenc": 5138,
      "185": 5139,
      "guy": 5140,
      "pract": 5141,
      "##ccer": 5142,
      "maac": 5143,
      "noah": 5144,
      "soccer": 5145,
      "toros": 5146,
      "waivers": 5147,
      "preced": 5148,
      "##itted": 5149,
      "skill": 5150,
      "longh": 5151,
      "kevinkevin": 5152,
      "consensus": 5153,
      "petrov": 5154,
      "##bling": 5155,
      "tyson": 5156,
      "draymond": 5157,
      "invest": 5158,
      "recre": 5159,
      "similar": 5160,
      "fact": 5161,
      "purch": 5162,
      "olsen": 5163,
      "famous": 5164,
      "legends": 5165,
      "horry": 5166,
      "ivy": 5167,
      "emm": 5168,
      "attempted": 5169,
      "student": 5170,
      "african": 5171,
      "departure": 5172,
      "fitzgerald": 5173,
      "declared": 5174,
      "ginóbili": 5175,
      "controvers": 5176,
      "thornton": 5177,
      "argentina": 5178,
      "zarba": 5179,
      "mchale": 5180,
      "ultimately": 5181,
      "wolverines": 5182,
      "dyn": 5183,
      "hy": 5184,
      "setting": 5185,
      "video": 5186,
      "zve": 5187,
      "želj": 5188,
      "##yon": 5189,
      "##cle": 5190,
      "##kel": 5191,
      "##93": 5192,
      "##ret": 5193,
      "##vena": 5194,
      "##ito": 5195,
      "##itive": 5196,
      "todd": 5197,
      "143": 5198,
      "##aps": 5199,
      "harv": 5200,
      "0000000000000003": 5201,
      "morant": 5202,
      "crvena": 5203,
      "jeffje": 5204,
      "design": 5205,
      "herb": 5206,
      "keep": 5207,
      "croat": 5208,
      "oliver": 5209,
      "##alyst": 5210,
      "##unday": 5211,
      "remained": 5212,
      "braz": 5213,
      "changes": 5214,
      "superst": 5215,
      "nearly": 5216,
      "english": 5217,
      "option": 5218,
      "organiz": 5219,
      "relocated": 5220,
      "exception": 5221,
      "towson": 5222,
      "tracy": 5223,
      "hoosiers": 5224,
      "yellow": 5225,
      "zvezda": 5226,
      "jeffjeff": 5227,
      "battle": 5228,
      "cba": 5229,
      "case": 5230,
      "emer": 5231,
      "lop": 5232,
      "mav": 5233,
      "nhl": 5234,
      "ob": 5235,
      "send": 5236,
      "wv": 5237,
      "xe": 5238,
      "x80": 5239,
      "##oth": 5240,
      "##cri": 5241,
      "##ked": 5242,
      "##kow": 5243,
      "##200": 5244,
      "##jiang": 5245,
      "thir": 5246,
      "##icos": 5247,
      "##ickey": 5248,
      "stag": 5249,
      "##ols": 5250,
      "##olan": 5251,
      "placed": 5252,
      "analyst": 5253,
      "##andro": 5254,
      "##imm": 5255,
      "##unch": 5256,
      "leaving": 5257,
      "beasley": 5258,
      "132": 5259,
      "##ante": 5260,
      "##endan": 5261,
      "broken": 5262,
      "comment": 5263,
      "accord": 5264,
      "##incy": 5265,
      "michaelmichael": 5266,
      "returning": 5267,
      "rematch": 5268,
      "dickie": 5269,
      "decision": 5270,
      "sioux": 5271,
      "turtemplate": 5272,
      "trev": 5273,
      "kyrie": 5274,
      "invitation": 5275,
      "effect": 5276,
      "director": 5277,
      "wanted": 5278,
      "reunion": 5279,
      "inaug": 5280,
      "xe2": 5281,
      "000000": 5282,
      "disc": 5283,
      "fenders": 5284,
      "jos": 5285,
      "jamaal": 5286,
      "ko": 5287,
      "ming": 5288,
      "wed": 5289,
      "wing": 5290,
      "water": 5291,
      "##aba": 5292,
      "##dt": 5293,
      "##ray": 5294,
      "##worth": 5295,
      "##6referees": 5296,
      "##4referees": 5297,
      "##iters": 5298,
      "205": 5299,
      "reason": 5300,
      "##caster": 5301,
      "within": 5302,
      "carr": 5303,
      "carroll": 5304,
      "##rian": 5305,
      "13th": 5306,
      "spe": 5307,
      "alum": 5308,
      "##iversary": 5309,
      "calvin": 5310,
      "slotemplate": 5311,
      "anniversary": 5312,
      "republic": 5313,
      "macleod": 5314,
      "raised": 5315,
      "1907": 5316,
      "##198": 5317,
      "majer": 5318,
      "bucknell": 5319,
      "gilbert": 5320,
      "rosen": 5321,
      "intro": 5322,
      "filip": 5323,
      "allowed": 5324,
      "dinamo": 5325,
      "piratas": 5326,
      "matthe": 5327,
      "yugoslav": 5328,
      "governors": 5329,
      "hemric": 5330,
      "outside": 5331,
      "aldridge": 5332,
      "pennant199": 5333,
      "olimpija": 5334,
      "folded": 5335,
      "arab": 5336,
      "spencer": 5337,
      "according": 5338,
      ":[": 5339,
      "cris": 5340,
      "cele": 5341,
      "dwayne": 5342,
      "ia": 5343,
      "lack": 5344,
      "mis": 5345,
      "mah": 5346,
      "push": 5347,
      "rfa": 5348,
      "wł": 5349,
      "x93": 5350,
      "ülik": 5351,
      "##kin": 5352,
      "##kes": 5353,
      "##eal": 5354,
      "##xter": 5355,
      "##bus": 5356,
      "##asch": 5357,
      "##eline": 5358,
      "today": 5359,
      "##iles": 5360,
      "##icka": 5361,
      "death": 5362,
      "##ulation": 5363,
      "board": 5364,
      "##iaf": 5365,
      "##uez": 5366,
      "140": 5367,
      "wind": 5368,
      "winston": 5369,
      "pred": 5370,
      "##ocław": 5371,
      "colors": 5372,
      "educ": 5373,
      "novak": 5374,
      "750": 5375,
      "34rebs": 5376,
      "1916": 5377,
      "consolation": 5378,
      "##finals": 5379,
      "type": 5380,
      "##ikem": 5381,
      "beth": 5382,
      "simon": 5383,
      "stanley": 5384,
      "jamison": 5385,
      "bowen": 5386,
      "turned": 5387,
      "turiaf": 5388,
      "participate": 5389,
      "jared": 5390,
      "queens": 5391,
      "comeback": 5392,
      "atléticos": 5393,
      "achieved": 5394,
      "spanish": 5395,
      "institution": 5396,
      "sopot": 5397,
      "germán": 5398,
      "grabbed": 5399,
      "withdrew": 5400,
      "stampede": 5401,
      "celebr": 5402,
      "włocław": 5403,
      "ülikool": 5404,
      "włocławek": 5405,
      "bat": 5406,
      "either": 5407,
      "fern": 5408,
      "fox": 5409,
      "jalen": 5410,
      "ponce": 5411,
      "range": 5412,
      "sut": 5413,
      "sett": 5414,
      "sara": 5415,
      "ton": 5416,
      "##dar": 5417,
      "##ject": 5418,
      "##ël": 5419,
      "##iness": 5420,
      "##arm": 5421,
      "##icit": 5422,
      "##ela": 5423,
      "seat": 5424,
      "##iling": 5425,
      "roger": 5426,
      "buch": 5427,
      "bucc": 5428,
      "arr": 5429,
      "##pping": 5430,
      "16th": 5431,
      "24rebs": 5432,
      "##ahe": 5433,
      "commit": 5434,
      "##lahan": 5435,
      "callahan": 5436,
      "##etta": 5437,
      "##mark": 5438,
      "##span": 5439,
      "rush": 5440,
      "##gress": 5441,
      "canad": 5442,
      "peps": 5443,
      "attles": 5444,
      "garrett": 5445,
      "samford": 5446,
      "##ailey": 5447,
      "gervin": 5448,
      "haywood": 5449,
      "managed": 5450,
      "##action": 5451,
      "mountaineers": 5452,
      "daugh": 5453,
      "transfer": 5454,
      "costello": 5455,
      "bucky": 5456,
      "earlier": 5457,
      "develop": 5458,
      "film": 5459,
      "multi": 5460,
      "feder": 5461,
      "scotts": 5462,
      "germany": 5463,
      "loren": 5464,
      "business": 5465,
      "hickman": 5466,
      "hoyas": 5467,
      "preceded": 5468,
      "recreation": 5469,
      "brazil": 5470,
      "inaugural": 5471,
      "##ickaël": 5472,
      "pepsi": 5473,
      "1t": 5474,
      "bj": 5475,
      "fer": 5476,
      "gir": 5477,
      "mend": 5478,
      "mention": 5479,
      "pion": 5480,
      "tan": 5481,
      "tough": 5482,
      "##lington": 5483,
      "##ui": 5484,
      "##gs": 5485,
      "##gor": 5486,
      "##fe": 5487,
      "##stown": 5488,
      "stuar": 5489,
      "seating": 5490,
      "cov": 5491,
      "##robasket": 5492,
      "che": 5493,
      "##osen": 5494,
      "anahe": 5495,
      "leones": 5496,
      "boys": 5497,
      "sher": 5498,
      "##aka": 5499,
      "whalen": 5500,
      "gamesunday": 5501,
      "clar": 5502,
      "##rade": 5503,
      "comets": 5504,
      "230": 5505,
      "23rebs": 5506,
      "picked": 5507,
      "25rebs": 5508,
      "rebels": 5509,
      "26rebs": 5510,
      "##ably": 5511,
      "warrick": 5512,
      "mcge": 5513,
      "office": 5514,
      "bayam": 5515,
      "429": 5516,
      "1911": 5517,
      "monmouth": 5518,
      "montene": 5519,
      "attend": 5520,
      "##aua": 5521,
      "moving": 5522,
      "ronny": 5523,
      "recogn": 5524,
      "trevis": 5525,
      "features": 5526,
      "featuring": 5527,
      "represents": 5528,
      "taken": 5529,
      "involved": 5530,
      "slovenia": 5531,
      "initially": 5532,
      "recruiting": 5533,
      "vincent": 5534,
      "mcmillan": 5535,
      "nabc": 5536,
      "0000000000000003000000": 5537,
      "filipino": 5538,
      "stuart": 5539,
      "anaheim": 5540,
      "treviso": 5541,
      "cer": 5542,
      "dikem": 5543,
      "ec": 5544,
      "gott": 5545,
      "getting": 5546,
      "kry": 5547,
      "less": 5548,
      "lab": 5549,
      "ov": 5550,
      "ole": 5551,
      "pen": 5552,
      "pied": 5553,
      "sar": 5554,
      "tamp": 5555,
      "wals": 5556,
      "wik": 5557,
      "##lu": 5558,
      "##uff": 5559,
      "##vy": 5560,
      "##bird": 5561,
      "##brian": 5562,
      "##ür": 5563,
      "##ão": 5564,
      "##erts": 5565,
      "##ices": 5566,
      "##icated": 5567,
      "##eless": 5568,
      "copa": 5569,
      "ches": 5570,
      "chosen": 5571,
      "ankle": 5572,
      "##ounds": 5573,
      "##illas": 5574,
      "##hib": 5575,
      "sho": 5576,
      "whit": 5577,
      "222": 5578,
      "stats": 5579,
      "serge": 5580,
      "##evski": 5581,
      "##abo": 5582,
      "highs": 5583,
      "proved": 5584,
      "##oder": 5585,
      "barton": 5586,
      "steaua": 5587,
      "enough": 5588,
      "histor": 5589,
      "##nero": 5590,
      "mcclos": 5591,
      "flip": 5592,
      "continent": 5593,
      "fordham": 5594,
      "quebrad": 5595,
      "vogel": 5596,
      "gardens": 5597,
      "department": 5598,
      "archib": 5599,
      "barclays": 5600,
      "badgers": 5601,
      "battier": 5602,
      "quickly": 5603,
      "ninth": 5604,
      "guthrie": 5605,
      "##ology": 5606,
      "introdu": 5607,
      "canadian": 5608,
      "mccloskey": 5609,
      "quebradillas": 5610,
      "ale": 5611,
      "dio": 5612,
      "i̇": 5613,
      "kam": 5614,
      "mach": 5615,
      "naming": 5616,
      "sny": 5617,
      "vert": 5618,
      "wore": 5619,
      "##len": 5620,
      "##iott": 5621,
      "##kk": 5622,
      "##ning": 5623,
      "##eated": 5624,
      "##mington": 5625,
      "##gary": 5626,
      "##bly": 5627,
      "##stics": 5628,
      "##iser": 5629,
      "##acey": 5630,
      "##rot": 5631,
      "##uring": 5632,
      "##ours": 5633,
      "deg": 5634,
      "dead": 5635,
      "##george": 5636,
      "booz": 5637,
      "share": 5638,
      "shump": 5639,
      "marv": 5640,
      "scorers": 5641,
      "##endon": 5642,
      "##awa": 5643,
      "starter": 5644,
      "warren": 5645,
      "trading": 5646,
      "edit": 5647,
      "##iera": 5648,
      "elton": 5649,
      "##itting": 5650,
      "monte": 5651,
      "jeffries": 5652,
      "impress": 5653,
      "merged": 5654,
      "glenn": 5655,
      "brianbrian": 5656,
      "##beat": 5657,
      "volley": 5658,
      "rubio": 5659,
      "bronc": 5660,
      "eligible": 5661,
      "mcneese": 5662,
      "##jevo": 5663,
      "##folk": 5664,
      "copeland": 5665,
      "longhorns": 5666,
      "sarajevo": 5667,
      "bayamón": 5668,
      "archibald": 5669,
      "snyder": 5670,
      "boozer": 5671,
      "shumpert": 5672,
      "volleyball": 5673,
      "a1": 5674,
      "bingham": 5675,
      "cbi": 5676,
      "dum": 5677,
      "kane": 5678,
      "lia": 5679,
      "linc": 5680,
      "mr": 5681,
      "sain": 5682,
      "vars": 5683,
      "##cot": 5684,
      "##sim": 5685,
      "##gar": 5686,
      "##18": 5687,
      "##5referees": 5688,
      "thus": 5689,
      "##oran": 5690,
      "##stan": 5691,
      "##elf": 5692,
      "coca": 5693,
      "##agre": 5694,
      "leh": 5695,
      "##corn": 5696,
      "134": 5697,
      "141": 5698,
      "##ournament": 5699,
      "189": 5700,
      "##oka": 5701,
      "schol": 5702,
      "assigned": 5703,
      "mauer": 5704,
      "deficit": 5705,
      "exist": 5706,
      "colspan": 5707,
      "elgin": 5708,
      "georgegeorge": 5709,
      "avery": 5710,
      "wilmington": 5711,
      "jerseys": 5712,
      "trin": 5713,
      "interest": 5714,
      "##force": 5715,
      "cred": 5716,
      "krist": 5717,
      "descri": 5718,
      "frankfrank": 5719,
      "disapp": 5720,
      "plus": 5721,
      "sims": 5722,
      "christie": 5723,
      "hosts": 5724,
      "belie": 5725,
      "pitino": 5726,
      "ernie": 5727,
      "participated": 5728,
      "rule": 5729,
      "mystics": 5730,
      "matched": 5731,
      "vaquer": 5732,
      "further": 5733,
      "##aniel": 5734,
      "elimination": 5735,
      "mullin": 5736,
      "moses": 5737,
      "fitzsim": 5738,
      "route": 5739,
      "##apeake": 5740,
      "dawkins": 5741,
      "brewer": 5742,
      "organization": 5743,
      "montenegro": 5744,
      "chesapeake": 5745,
      "varsity": 5746,
      "disappoint": 5747,
      "vaqueros": 5748,
      "fitzsimmons": 5749,
      "equ": 5750,
      "fry": 5751,
      "hots": 5752,
      "tucker": 5753,
      "vad": 5754,
      "vinn": 5755,
      "vlad": 5756,
      "xbox": 5757,
      "##ient": 5758,
      "##vent": 5759,
      "##hots": 5760,
      "##12": 5761,
      "##fs": 5762,
      "##jim": 5763,
      "##inari": 5764,
      "sting": 5765,
      "##etch": 5766,
      "##throp": 5767,
      "##entin": 5768,
      "##rod": 5769,
      "##omin": 5770,
      "lester": 5771,
      "bear": 5772,
      "##ems": 5773,
      "whose": 5774,
      "alcorn": 5775,
      "norfolk": 5776,
      "orton": 5777,
      "##ereg": 5778,
      "agu": 5779,
      "##eville": 5780,
      "prop": 5781,
      "brendan": 5782,
      "pair": 5783,
      "coastal": 5784,
      "wilbur": 5785,
      "ucf": 5786,
      "posting": 5787,
      "espnu": 5788,
      "rodr": 5789,
      "lump": 5790,
      "riviera": 5791,
      "swac": 5792,
      "##annon": 5793,
      "##anned": 5794,
      "##eryl": 5795,
      "lamb": 5796,
      "matchup": 5797,
      "qualified": 5798,
      "worked": 5799,
      "columbus": 5800,
      "lynn": 5801,
      "casey": 5802,
      "involving": 5803,
      "visit": 5804,
      "belgrade": 5805,
      "sunday": 5806,
      "skills": 5807,
      "majerus": 5808,
      "rosenbl": 5809,
      "dikembe": 5810,
      "hotshots": 5811,
      "auth": 5812,
      "bakers": 5813,
      "ce": 5814,
      "dup": 5815,
      "deron": 5816,
      "eas": 5817,
      "fund": 5818,
      "gent": 5819,
      "lav": 5820,
      "lob": 5821,
      "lakes": 5822,
      "nav": 5823,
      "ps": 5824,
      "pom": 5825,
      "uic": 5826,
      "watch": 5827,
      "}}": 5828,
      "##uk": 5829,
      "##cie": 5830,
      "##vement": 5831,
      "##quarter": 5832,
      "##enary": 5833,
      "##etton": 5834,
      "chase": 5835,
      "##chere": 5836,
      "##bast": 5837,
      "##bage": 5838,
      "##iding": 5839,
      "dee": 5840,
      "##cker": 5841,
      "15th": 5842,
      "centenary": 5843,
      "##overs": 5844,
      "235": 5845,
      "proble": 5846,
      "defunct": 5847,
      "00000000000000": 5848,
      "##uban": 5849,
      "shows": 5850,
      "showtime": 5851,
      "signific": 5852,
      "gram": 5853,
      "acb": 5854,
      "quin": 5855,
      "benetton": 5856,
      "canton": 5857,
      "tyronn": 5858,
      "competed": 5859,
      "##erty": 5860,
      "bowl": 5861,
      "turnovers": 5862,
      "corpor": 5863,
      "falling": 5864,
      "##usschere": 5865,
      "children": 5866,
      "voting": 5867,
      "gilmore": 5868,
      "frequent": 5869,
      "england": 5870,
      "surpris": 5871,
      "gallinari": 5872,
      "cumm": 5873,
      "debusschere": 5874,
      "caldwell": 5875,
      "lithuania": 5876,
      "accomplish": 5877,
      "petrović": 5878,
      "josé": 5879,
      "lehigh": 5880,
      ".,": 5881,
      "damp": 5882,
      "hod": 5883,
      "mom": 5884,
      "mast": 5885,
      "sł": 5886,
      "vu": 5887,
      "##lich": 5888,
      "##uen": 5889,
      "##2referees": 5890,
      "##oning": 5891,
      "##enhol": 5892,
      "##ato": 5893,
      "##edo": 5894,
      "##outs": 5895,
      "inside": 5896,
      "##atell": 5897,
      "rein": 5898,
      "##chuck": 5899,
      "##agara": 5900,
      "##ando": 5901,
      "##une": 5902,
      "##usen": 5903,
      "arc": 5904,
      "##pper": 5905,
      "winter": 5906,
      "mix": 5907,
      "perry": 5908,
      "clock": 5909,
      "assign": 5910,
      "biggest": 5911,
      "feb": 5912,
      "meac": 5913,
      "exhib": 5914,
      "scout": 5915,
      "across": 5916,
      "556": 5917,
      "444": 5918,
      "##nyk": 5919,
      "caa": 5920,
      "luis": 5921,
      "numer": 5922,
      "##heit": 5923,
      "##biid": 5924,
      "rajon": 5925,
      "lower": 5926,
      "helping": 5927,
      "corey": 5928,
      "embiid": 5929,
      "melvin": 5930,
      "##upsk": 5931,
      "budenhol": 5932,
      "humph": 5933,
      "##ancy": 5934,
      "radio": 5935,
      "concerts": 5936,
      "chuckchuck": 5937,
      "##azem": 5938,
      "boyd": 5939,
      "ricardo": 5940,
      "ownership": 5941,
      "niagara": 5942,
      "organized": 5943,
      "##ailable": 5944,
      "korver": 5945,
      "songaila": 5946,
      "wooll": 5947,
      "lopez": 5948,
      "scottscott": 5949,
      "liaoning": 5950,
      "słupsk": 5951,
      "budenholzer": 5952,
      "cour": 5953,
      "died": 5954,
      "falc": 5955,
      "grow": 5956,
      "hs": 5957,
      "iron": 5958,
      "nen": 5959,
      "penders": 5960,
      "t1": 5961,
      "tick": 5962,
      "wife": 5963,
      "wrest": 5964,
      "##crie": 5965,
      "##ta": 5966,
      "##hill": 5967,
      "##fort": 5968,
      "##james": 5969,
      "##ben": 5970,
      "##onia": 5971,
      "##inu": 5972,
      "##iter": 5973,
      "##adel": 5974,
      "##oln": 5975,
      "asun": 5976,
      "dell": 5977,
      "negro": 5978,
      "##ria": 5979,
      "bynum": 5980,
      "whom": 5981,
      "alv": 5982,
      "altern": 5983,
      "guay": 5984,
      "prince": 5985,
      "245": 5986,
      "##eldon": 5987,
      "mec": 5988,
      "blow": 5989,
      "barron": 5990,
      "harrell": 5991,
      "steal": 5992,
      "deng": 5993,
      "##asha": 5994,
      "heath": 5995,
      "prep": 5996,
      "moncrie": 5997,
      "quentin": 5998,
      "augustus": 5999,
      "##eka": 6000,
      "canc": 6001,
      "##aneers": 6002,
      "##blue": 6003,
      "plan": 6004,
      "dominique": 6005,
      "downtown": 6006,
      "formed": 6007,
      "effort": 6008,
      "cowens": 6009,
      "complete": 6010,
      "victoria": 6011,
      "reference": 6012,
      "adrian": 6013,
      "schedul": 6014,
      "coverage": 6015,
      "recently": 6016,
      "##ttle": 6017,
      "croatia": 6018,
      "mavs": 6019,
      "buchheit": 6020,
      "buccaneers": 6021,
      "piedras": 6022,
      "grambling": 6023,
      "dampier": 6024,
      "exhibition": 6025,
      "falcons": 6026,
      "moncrief": 6027,
      "bailey": 6028,
      "coun": 6029,
      "cib": 6030,
      "dn": 6031,
      "dries": 6032,
      "erie": 6033,
      "felt": 6034,
      "gad": 6035,
      "hurr": 6036,
      "jav": 6037,
      "kir": 6038,
      "mt": 6039,
      "money": 6040,
      "ple": 6041,
      "rab": 6042,
      "rene": 6043,
      "tcu": 6044,
      "tiven": 6045,
      "uk": 6046,
      "word": 6047,
      "youth": 6048,
      "##aff": 6049,
      "##ičić": 6050,
      "##oph": 6051,
      "##ram": 6052,
      "##hood": 6053,
      "##pi": 6054,
      "##anim": 6055,
      "##edom": 6056,
      "##icular": 6057,
      "sebast": 6058,
      "##ready": 6059,
      "chi": 6060,
      "chad": 6061,
      "##tson": 6062,
      "##bah": 6063,
      "fore": 6064,
      "leave": 6065,
      "need": 6066,
      "begin": 6067,
      "##rier": 6068,
      "marion": 6069,
      "marbury": 6070,
      "job": 6071,
      "##umed": 6072,
      "already": 6073,
      "##ifa": 6074,
      "##artmouth": 6075,
      "isa": 6076,
      "22rebs": 6077,
      "johnston": 6078,
      "##embert": 6079,
      "brent": 6080,
      "starzz": 6081,
      "miličić": 6082,
      "goph": 6083,
      "##ursday": 6084,
      "williamson": 6085,
      "cavs": 6086,
      "360": 6087,
      ").[": 6088,
      "573": 6089,
      "parish": 6090,
      "quincy": 6091,
      "crus": 6092,
      "##kerik": 6093,
      "tyr": 6094,
      "invited": 6095,
      "##anović": 6096,
      "lowe": 6097,
      "officials": 6098,
      "midwestern": 6099,
      "##juan": 6100,
      "various": 6101,
      "buckeyes": 6102,
      "ocean": 6103,
      "bronx": 6104,
      "khris": 6105,
      "dalembert": 6106,
      "cedar": 6107,
      "flyers": 6108,
      "experience": 6109,
      "volun": 6110,
      "erikerik": 6111,
      "stevenson": 6112,
      "...": 6113,
      "malloy": 6114,
      "epis": 6115,
      "practice": 6116,
      "trevor": 6117,
      "vertical": 6118,
      "broncos": 6119,
      "binghamton": 6120,
      "trinity": 6121,
      "bakersfield": 6122,
      "pomona": 6123,
      "numerous": 6124,
      "cibona": 6125,
      "driesell": 6126,
      "hurric": 6127,
      "##animous": 6128,
      "-(": 6129,
      "aic": 6130,
      "bou": 6131,
      "bul": 6132,
      "dud": 6133,
      "dino": 6134,
      "fou": 6135,
      "gol": 6136,
      "gior": 6137,
      "hip": 6138,
      "jiang": 6139,
      "lum": 6140,
      "map": 6141,
      "nich": 6142,
      "nolan": 6143,
      "pipers": 6144,
      "try": 6145,
      "viv": 6146,
      "vern": 6147,
      "wool": 6148,
      "zagre": 6149,
      "##ae": 6150,
      "##yy": 6151,
      "##nado": 6152,
      "##vano": 6153,
      "##hor": 6154,
      "##frid": 6155,
      "##jason": 6156,
      "##jak": 6157,
      "##burn": 6158,
      "thor": 6159,
      "##inade": 6160,
      "##arily": 6161,
      "##aled": 6162,
      "inch": 6163,
      "infl": 6164,
      "##itan": 6165,
      "##ital": 6166,
      "stri": 6167,
      "##ently": 6168,
      "seats": 6169,
      "cot": 6170,
      "##cester": 6171,
      "##alled": 6172,
      "##ilities": 6173,
      "##ages": 6174,
      "hein": 6175,
      "lex": 6176,
      "roundwon": 6177,
      "##embly": 6178,
      "133": 6179,
      "##iej": 6180,
      "army": 6181,
      "150": 6182,
      "154": 6183,
      "##oved": 6184,
      "##arty": 6185,
      "issu": 6186,
      "##ession": 6187,
      "##elden": 6188,
      "##uster": 6189,
      "##rish": 6190,
      "noted": 6191,
      "adven": 6192,
      "countries": 6193,
      "valvano": 6194,
      "travis": 6195,
      "evan": 6196,
      "eightfinal": 6197,
      "mccarty": 6198,
      "earle": 6199,
      "danie": 6200,
      "patton": 6201,
      "tennis": 6202,
      "##ibb": 6203,
      "didn": 6204,
      "additional": 6205,
      "sharp": 6206,
      "chaminade": 6207,
      "entering": 6208,
      "marques": 6209,
      "melo": 6210,
      "dae": 6211,
      "performances": 6212,
      "breaking": 6213,
      "##thealth": 6214,
      "important": 6215,
      "##____": 6216,
      "##stein": 6217,
      "occurred": 6218,
      "towns": 6219,
      "dobson": 6220,
      "##clusion": 6221,
      "virtus": 6222,
      "service": 6223,
      "superstar": 6224,
      "significant": 6225,
      "cummings": 6226,
      "sebastian": 6227,
      "gophers": 6228,
      "jiangsu": 6229,
      "zagreb": 6230,
      "adventhealth": 6231,
      "(@": 6232,
      "ahm": 6233,
      "bazem": 6234,
      "cory": 6235,
      "gan": 6236,
      "jas": 6237,
      "lac": 6238,
      "mess": 6239,
      "rí": 6240,
      "rang": 6241,
      "sit": 6242,
      "sister": 6243,
      "td": 6244,
      "tam": 6245,
      "woff": 6246,
      "##come": 6247,
      "##ku": 6248,
      "##mins": 6249,
      "##just": 6250,
      "##anthony": 6251,
      "##elve": 6252,
      "20rebs": 6253,
      "chal": 6254,
      "chie": 6255,
      "conclusion": 6256,
      "anch": 6257,
      "##keith": 6258,
      "pod": 6259,
      "unanimous": 6260,
      "##achy": 6261,
      "142": 6262,
      "14th": 6263,
      "assembly": 6264,
      "##ugene": 6265,
      "grew": 6266,
      "##brough": 6267,
      "twelve": 6268,
      "prote": 6269,
      "texasattendance": 6270,
      "31rebs": 6271,
      "harp": 6272,
      "paid": 6273,
      "abe": 6274,
      "686": 6275,
      "mayan": 6276,
      "36rebs": 6277,
      "parents": 6278,
      "danilo": 6279,
      "##going": 6280,
      "californiaattendance": 6281,
      "expired": 6282,
      "garc": 6283,
      "rankings": 6284,
      "##anning": 6285,
      "simpson": 6286,
      "jasonjason": 6287,
      "airways": 6288,
      "famers": 6289,
      "farm": 6290,
      "citadel": 6291,
      "griffith": 6292,
      "elliott": 6293,
      "varnado": 6294,
      "##eleevski": 6295,
      "##paul": 6296,
      "eleven": 6297,
      "promin": 6298,
      "birth": 6299,
      "daniel": 6300,
      "fraher": 6301,
      "feature": 6302,
      "##william": 6303,
      "efes": 6304,
      "ducks": 6305,
      "critic": 6306,
      "pulled": 6307,
      "lyttle": 6308,
      "ogden": 6309,
      "regarded": 6310,
      "erickson": 6311,
      "widely": 6312,
      "matthews": 6313,
      "education": 6314,
      "mendeleevski": 6315,
      "saints": 6316,
      "problems": 6317,
      "crusad": 6318,
      "episode": 6319,
      "earlearl": 6320,
      "ahmad": 6321,
      "bazemore": 6322,
      "wofford": 6323,
      "mendeleevskiy": 6324,
      "csu": 6325,
      "fayette": 6326,
      "jaw": 6327,
      "jesse": 6328,
      "kra": 6329,
      "kost": 6330,
      "mw": 6331,
      "pens": 6332,
      "paint": 6333,
      "pils": 6334,
      "ring": 6335,
      "shi": 6336,
      "sour": 6337,
      "tba": 6338,
      "torn": 6339,
      "ve": 6340,
      "vas": 6341,
      "wings": 6342,
      "weldon": 6343,
      "##lb": 6344,
      "##lon": 6345,
      "##iated": 6346,
      "##dick": 6347,
      "##dock": 6348,
      "##uay": 6349,
      "##cup": 6350,
      "##kris": 6351,
      "##rs": 6352,
      "##rant": 6353,
      "##xson": 6354,
      "##joy": 6355,
      "##0referees": 6356,
      "##onis": 6357,
      "##state": 6358,
      "##asing": 6359,
      "ing": 6360,
      "##last": 6361,
      "told": 6362,
      "##acola": 6363,
      "chester": 6364,
      "##cher": 6365,
      "fortson": 6366,
      "##oss": 6367,
      "##andre": 6368,
      "##ays": 6369,
      "##omb": 6370,
      "##omon": 6371,
      "beard": 6372,
      "##ryl": 6373,
      "spir": 6374,
      "##antown": 6375,
      "15asts": 6376,
      "16asts": 6377,
      "##oki": 6378,
      "schen": 6379,
      "agency": 6380,
      "smu": 6381,
      "28rebs": 6382,
      "##iki": 6383,
      "jamesjames": 6384,
      "elmore": 6385,
      "sull": 6386,
      "shooter": 6387,
      "shooters": 6388,
      "fta": 6389,
      "greenville": 6390,
      "particular": 6391,
      "0000000000000004": 6392,
      "##sports": 6393,
      "387": 6394,
      "paulpaul": 6395,
      "eachrebs": 6396,
      "marko": 6397,
      "monty": 6398,
      "fga": 6399,
      "wells": 6400,
      "trop": 6401,
      "skyblue": 6402,
      "standard": 6403,
      "shared": 6404,
      "management": 6405,
      "silas": 6406,
      "##eznič": 6407,
      "##quez": 6408,
      "technology": 6409,
      "transaction": 6410,
      "hawkins": 6411,
      "owls": 6412,
      "shortly": 6413,
      "shortened": 6414,
      "##fair": 6415,
      "condition": 6416,
      "jonathan": 6417,
      "studio": 6418,
      "students": 6419,
      "clinton": 6420,
      "mnetemplate": 6421,
      "keithkeith": 6422,
      "leslie": 6423,
      "favorite": 6424,
      "determined": 6425,
      "##jacks": 6426,
      "citizen": 6427,
      "citizens": 6428,
      "kriskris": 6429,
      "kurt": 6430,
      "diamond": 6431,
      "cska": 6432,
      "socon": 6433,
      "patterson": 6434,
      "željeznič": 6435,
      "introduced": 6436,
      "machado": 6437,
      "vinny": 6438,
      "rodrig": 6439,
      "}}}": 6440,
      "aichi": 6441,
      "##friday": 6442,
      "danielle": 6443,
      "río": 6444,
      "##williams": 6445,
      "pensacola": 6446,
      "pilsen": 6447,
      "željezničar": 6448,
      "ahead": 6449,
      "bott": 6450,
      "cu": 6451,
      "cath": 6452,
      "cze": 6453,
      "cuban": 6454,
      "dp": 6455,
      "diff": 6456,
      "dartmouth": 6457,
      "empl": 6458,
      "eaton": 6459,
      "fab": 6460,
      "het": 6461,
      "hub": 6462,
      "kar": 6463,
      "mm": 6464,
      "pbc": 6465,
      "tür": 6466,
      "yoder": 6467,
      "##dav": 6468,
      "##cib": 6469,
      "##view": 6470,
      "##vements": 6471,
      "##mo": 6472,
      "##gir": 6473,
      "##gos": 6474,
      "##gio": 6475,
      "##break": 6476,
      "##6000000": 6477,
      "##ād": 6478,
      "##arr": 6479,
      "##isa": 6480,
      "##inge": 6481,
      "stank": 6482,
      "##ionally": 6483,
      "too": 6484,
      "##thal": 6485,
      "tear": 6486,
      "test": 6487,
      "##adar": 6488,
      "##bay": 6489,
      "##illa": 6490,
      "##illed": 6491,
      "leaf": 6492,
      "neg": 6493,
      "bever": 6494,
      "beij": 6495,
      "unable": 6496,
      "shir": 6497,
      "newark": 6498,
      "space": 6499,
      "##ueva": 6500,
      "147": 6501,
      "arlington": 6502,
      "winthrop": 6503,
      "183": 6504,
      "reggi": 6505,
      "##eye": 6506,
      "indust": 6507,
      "21rebs": 6508,
      "greer": 6509,
      "highly": 6510,
      "clear": 6511,
      "bobbob": 6512,
      "blues": 6513,
      "barang": 6514,
      "enjoy": 6515,
      "travel": 6516,
      "ability": 6517,
      "1970s": 6518,
      "dana": 6519,
      "daviddav": 6520,
      "semifinalswon": 6521,
      "donnie": 6522,
      "aminu": 6523,
      "attention": 6524,
      "eurocup": 6525,
      "##ects": 6526,
      "relations": 6527,
      "disb": 6528,
      "skyforce": 6529,
      "plat": 6530,
      "otis": 6531,
      "created": 6532,
      "competes": 6533,
      "morrison": 6534,
      "older": 6535,
      "renov": 6536,
      "cities": 6537,
      "honorable": 6538,
      "##ancing": 6539,
      "extension": 6540,
      "riverside": 6541,
      "rashād": 6542,
      "radford": 6543,
      "lamarcus": 6544,
      "nihon": 6545,
      "clinched": 6546,
      "limited": 6547,
      "##heny": 6548,
      "shawne": 6549,
      "shoulder": 6550,
      "letter": 6551,
      "asheville": 6552,
      "allegheny": 6553,
      "gakusen": 6554,
      "global": 6555,
      "viol": 6556,
      "yugoslavia": 6557,
      "cerem": 6558,
      "##birds": 6559,
      "impressive": 6560,
      "##ereggie": 6561,
      "humphries": 6562,
      "dudley": 6563,
      "lumber": 6564,
      "lexington": 6565,
      "anchor": 6566,
      "employ": 6567,
      "hetzel": 6568,
      "beijing": 6569,
      "reggiereggie": 6570,
      "barangay": 6571,
      "daviddavid": 6572,
      "[[": 6573,
      "]]": 6574,
      "bigh": 6575,
      "cy": 6576,
      "ces": 6577,
      "done": 6578,
      "dier": 6579,
      "dolph": 6580,
      "diaw": 6581,
      "foy": 6582,
      "god": 6583,
      "hask": 6584,
      "jol": 6585,
      "kw": 6586,
      "klay": 6587,
      "nm": 6588,
      "pad": 6589,
      "rnd": 6590,
      "tara": 6591,
      "vice": 6592,
      "wear": 6593,
      "welt": 6594,
      "##dc": 6595,
      "##con": 6596,
      "##cław": 6597,
      "##kent": 6598,
      "##wil": 6599,
      "##wise": 6600,
      "##sk": 6601,
      "##sso": 6602,
      "##bwa": 6603,
      "##erick": 6604,
      "##staff": 6605,
      "##isp": 6606,
      "stal": 6607,
      "station": 6608,
      "stalc": 6609,
      "toso": 6610,
      "separ": 6611,
      "##lement": 6612,
      "teague": 6613,
      "##oles": 6614,
      "anto": 6615,
      "##kell": 6616,
      "asked": 6617,
      "hec": 6618,
      "lev": 6619,
      "dement": 6620,
      "##raph": 6621,
      "##ampe": 6622,
      "##sons": 6623,
      "shy": 6624,
      "shane": 6625,
      "buy": 6626,
      "arn": 6627,
      "17th": 6628,
      "know": 6629,
      "prok": 6630,
      "starts": 6631,
      "wars": 6632,
      "step": 6633,
      "paok": 6634,
      "ftm": 6635,
      "usbwa": 6636,
      "illini": 6637,
      "paris": 6638,
      "##athers": 6639,
      "moz": 6640,
      "jew": 6641,
      "##arship": 6642,
      "fgm": 6643,
      "bloom": 6644,
      "stretch": 6645,
      "recover": 6646,
      "opposing": 6647,
      "available": 6648,
      "stands": 6649,
      "kingston": 6650,
      "opponents": 6651,
      "album": 6652,
      "passing": 6653,
      "metrop": 6654,
      "giants": 6655,
      "costas": 6656,
      "stauskas": 6657,
      "cassell": 6658,
      "elect": 6659,
      "graham": 6660,
      "rasheed": 6661,
      "liggins": 6662,
      "victories": 6663,
      "sponsors": 6664,
      "khim": 6665,
      "adrien": 6666,
      "holding": 6667,
      "version": 6668,
      "versus": 6669,
      "philippines": 6670,
      "hansley": 6671,
      "hansbrough": 6672,
      "eligibility": 6673,
      "ignis": 6674,
      "edmundson": 6675,
      "absence": 6676,
      "stags": 6677,
      "sutton": 6678,
      "lincoln": 6679,
      "scholarship": 6680,
      "volunte": 6681,
      "cotton": 6682,
      "haskins": 6683,
      "stalcup": 6684,
      "antoine": 6685,
      "700": 6686,
      "aired": 6687,
      "ainge": 6688,
      "bun": 6689,
      "bask": 6690,
      "bass": 6691,
      "cang": 6692,
      "dow": 6693,
      "dim": 6694,
      "dondon": 6695,
      "jen": 6696,
      "kos": 6697,
      "lion": 6698,
      "london": 6699,
      "might": 6700,
      "nar": 6701,
      "rim": 6702,
      "rum": 6703,
      "rik": 6704,
      "rising": 6705,
      "wiggins": 6706,
      "zgor": 6707,
      "##lan": 6708,
      "##aver": 6709,
      "##zur": 6710,
      "##ias": 6711,
      "##ila": 6712,
      "##ng": 6713,
      "##nor": 6714,
      "##ration": 6715,
      "##haw": 6716,
      "##gate": 6717,
      "##play": 6718,
      "##jans": 6719,
      "##ğlu": 6720,
      "##arn": 6721,
      "##oria": 6722,
      "##edso": 6723,
      "##isius": 6724,
      "stage": 6725,
      "##rejer": 6726,
      "coff": 6727,
      "##irie": 6728,
      "chose": 6729,
      "rex": 6730,
      "##urce": 6731,
      "##illes": 6732,
      "##imb": 6733,
      "##berland": 6734,
      "sham": 6735,
      "spra": 6736,
      "##ako": 6737,
      "149": 6738,
      "144": 6739,
      "182": 6740,
      "178": 6741,
      "commer": 6742,
      "higher": 6743,
      "bledso": 6744,
      "##ika": 6745,
      "##ollum": 6746,
      "mayo": 6747,
      "magaz": 6748,
      "arecib": 6749,
      "acie": 6750,
      "accept": 6751,
      "mccollum": 6752,
      "524": 6753,
      "montep": 6754,
      "##opol": 6755,
      "jimjim": 6756,
      "dickdick": 6757,
      "##atche": 6758,
      "swc": 6759,
      "decade": 6760,
      "santurce": 6761,
      "##anna": 6762,
      "kenyon": 6763,
      "hunters": 6764,
      "vote": 6765,
      "capitanes": 6766,
      "capitols": 6767,
      "##verse": 6768,
      "nicknamed": 6769,
      "grade": 6770,
      "concert": 6771,
      "nbatvsso": 6772,
      "hollins": 6773,
      "fedex": 6774,
      "cumberland": 6775,
      "##zelec": 6776,
      "offered": 6777,
      "ibaka": 6778,
      "purple": 6779,
      "purpose": 6780,
      "##kyo": 6781,
      "choice": 6782,
      "occasions": 6783,
      "prairie": 6784,
      "kemper": 6785,
      "##kowiak": 6786,
      "crispa": 6787,
      "##aschi": 6788,
      "frye": 6789,
      "chalmers": 6790,
      "0000000000000004000000": 6791,
      "citizenship": 6792,
      "lumberjacks": 6793,
      "mozgov": 6794,
      "cangrejer": 6795,
      "zgorzelec": 6796,
      "bledsoe": 6797,
      "arecibo": 6798,
      "montepaschi": 6799,
      "cangrejeros": 6800,
      "aw": 6801,
      "bam": 6802,
      "cb": 6803,
      "carden": 6804,
      "eld": 6805,
      "fen": 6806,
      "fash": 6807,
      "grac": 6808,
      "giving": 6809,
      "han": 6810,
      "hash": 6811,
      "kan": 6812,
      "lance": 6813,
      "sbc": 6814,
      "size": 6815,
      "tac": 6816,
      "uts": 6817,
      "wit": 6818,
      "wel": 6819,
      "wag": 6820,
      "ze": 6821,
      "zhe": 6822,
      "##cut": 6823,
      "##notes": 6824,
      "##veer": 6825,
      "##onte": 6826,
      "thre": 6827,
      "##eda": 6828,
      "##icult": 6829,
      "ins": 6830,
      "stacey": 6831,
      "##elvin": 6832,
      "##lacan": 6833,
      "##iga": 6834,
      "##ivan": 6835,
      "##andon": 6836,
      "##aye": 6837,
      "##estro": 6838,
      "cart": 6839,
      "carrier": 6840,
      "unve": 6841,
      "shelton": 6842,
      "newly": 6843,
      "colleges": 6844,
      "179": 6845,
      "247": 6846,
      "process": 6847,
      "27rebs": 6848,
      "divisions": 6849,
      "baron": 6850,
      "mcca": 6851,
      "mcwilliams": 6852,
      "stepped": 6853,
      "eddy": 6854,
      "find": 6855,
      "707": 6856,
      "parsons": 6857,
      "476": 6858,
      "slow": 6859,
      "sala": 6860,
      "anthonyanthony": 6861,
      "canisius": 6862,
      "malik": 6863,
      "everett": 6864,
      "ronald": 6865,
      "footnotes": 6866,
      "dism": 6867,
      "stanstan": 6868,
      "dominated": 6869,
      "conseco": 6870,
      "##board": 6871,
      "##atural": 6872,
      "##aturday": 6873,
      "provided": 6874,
      "jrue": 6875,
      "singler": 6876,
      "hoop": 6877,
      "pallacan": 6878,
      "vanderveer": 6879,
      "honored": 6880,
      "kyiv": 6881,
      "##efeated": 6882,
      "elected": 6883,
      "freedom": 6884,
      "rubini": 6885,
      "crowder": 6886,
      "undefeated": 6887,
      "bogd": 6888,
      "##ofey": 6889,
      "determine": 6890,
      "kelvin": 6891,
      "potential": 6892,
      "trenton": 6893,
      "ranks": 6894,
      "emerg": 6895,
      "sendek": 6896,
      "pioneers": 6897,
      "bearcats": 6898,
      "woollen": 6899,
      "wrestling": 6900,
      "gadzur": 6901,
      "foreign": 6902,
      "vivint": 6903,
      "crusaders": 6904,
      "fayetteville": 6905,
      "czech": 6906,
      "difficult": 6907,
      "disbanded": 6908,
      "cesare": 6909,
      "prokom": 6910,
      "cardenales": 6911,
      "fashion": 6912,
      "zhejiang": 6913,
      "pallacanestro": 6914,
      "gadzuric": 6915,
      "3x": 6916,
      "3f": 6917,
      "bbl": 6918,
      "dc": 6919,
      "eugene": 6920,
      "ff": 6921,
      "fit": 6922,
      "fig": 6923,
      "fitch": 6924,
      "gab": 6925,
      "goran": 6926,
      "iup": 6927,
      "jeter": 6928,
      "kore": 6929,
      "kual": 6930,
      "kampe": 6931,
      "maint": 6932,
      "mickaël": 6933,
      "pes": 6934,
      "pear": 6935,
      "rally": 6936,
      "yan": 6937,
      "##air": 6938,
      "##iu": 6939,
      "##don": 6940,
      "##kim": 6941,
      "##nik": 6942,
      "##mas": 6943,
      "##hod": 6944,
      "##px": 6945,
      "##jected": 6946,
      "##bank": 6947,
      "##ero": 6948,
      "##enz": 6949,
      "##sters": 6950,
      "##amer": 6951,
      "##edia": 6952,
      "##asse": 6953,
      "stack": 6954,
      "stint": 6955,
      "##enture": 6956,
      "##rev": 6957,
      "##rem": 6958,
      "##adi": 6959,
      "conclud": 6960,
      "ants": 6961,
      "##andal": 6962,
      "roundlost": 6963,
      "139": 6964,
      "136": 6965,
      "145": 6966,
      "164": 6967,
      "century": 6968,
      "18th": 6969,
      "##innis": 6970,
      "knock": 6971,
      "##ević": 6972,
      "rebu": 6973,
      "outlaw": 6974,
      "bridge": 6975,
      "committed": 6976,
      "##quet": 6977,
      "##ipped": 6978,
      "adm": 6979,
      "##izers": 6980,
      "bluff": 6981,
      "barea": 6982,
      "harlem": 6983,
      "trae": 6984,
      "granger": 6985,
      "##etti": 6986,
      "walk": 6987,
      "37rebs": 6988,
      "rookies": 6989,
      "moe": 6990,
      "itself": 6991,
      "benj": 6992,
      "benson": 6993,
      "paterson": 6994,
      "463": 6995,
      "underw": 6996,
      "dunn": 6997,
      "petron": 6998,
      "artis": 6999,
      "krka": 7000,
      "##aux": 7001,
      "garret": 7002,
      "struct": 7003,
      "trojans": 7004,
      "method": 7005,
      "simmen": 7006,
      "saba": 7007,
      "thanks": 7008,
      "below": 7009,
      "hammon": 7010,
      "antawn": 7011,
      "err": 7012,
      "harrison": 7013,
      "replace": 7014,
      "watts": 7015,
      "improvement": 7016,
      "murdock": 7017,
      "jonas": 7018,
      "##étrus": 7019,
      "bronze": 7020,
      "summers": 7021,
      "periods": 7022,
      "barbosa": 7023,
      "clinching": 7024,
      "motiej": 7025,
      "clifford": 7026,
      "urstemplate": 7027,
      "stojak": 7028,
      "contributed": 7029,
      "sooners": 7030,
      "promoted": 7031,
      "adebay": 7032,
      "piétrus": 7033,
      "purchased": 7034,
      "emmett": 7035,
      "transferred": 7036,
      "developed": 7037,
      "covid": 7038,
      "tampa": 7039,
      "isaiah": 7040,
      "tyrone": 7041,
      "stanković": 7042,
      "bighorns": 7043,
      "weltlich": 7044,
      "metropol": 7045,
      "magazine": 7046,
      "kuala": 7047,
      "simmenthal": 7048,
      "motiejūnas": 7049,
      "adebayo": 7050,
      "(*": 7051,
      "aaa": 7052,
      "bart": 7053,
      "cust": 7054,
      "cult": 7055,
      "cdt": 7056,
      "dickey": 7057,
      "fel": 7058,
      "fiser": 7059,
      "gun": 7060,
      "gained": 7061,
      "hob": 7062,
      "kerry": 7063,
      "lik": 7064,
      "nd": 7065,
      "ostr": 7066,
      "pict": 7067,
      "png": 7068,
      "rather": 7069,
      "sending": 7070,
      "slav": 7071,
      "upper": 7072,
      "wcc": 7073,
      "wide": 7074,
      "##vat": 7075,
      "##tom": 7076,
      "##han": 7077,
      "##pack": 7078,
      "##eroy": 7079,
      "##ination": 7080,
      "theis": 7081,
      "##itect": 7082,
      "##ateur": 7083,
      "##chal": 7084,
      "##tsville": 7085,
      "##utins": 7086,
      "##esta": 7087,
      "##ulated": 7088,
      "shine": 7089,
      "mario": 7090,
      "married": 7091,
      "##emen": 7092,
      "##emifinal": 7093,
      "138": 7094,
      "137": 7095,
      "spoon": 7096,
      "jovent": 7097,
      "yearly": 7098,
      "148": 7099,
      "alan": 7100,
      "##tez": 7101,
      "register": 7102,
      "##ectady": 7103,
      "fract": 7104,
      "perfect": 7105,
      "##cco": 7106,
      "##eller": 7107,
      "##manizers": 7108,
      "edward": 7109,
      "weems": 7110,
      "33rebs": 7111,
      "seeds": 7112,
      "greene": 7113,
      "starters": 7114,
      "563": 7115,
      "0000000000000005": 7116,
      "512": 7117,
      "beng": 7118,
      "tenants": 7119,
      "redmanizers": 7120,
      "minute": 7121,
      "luther": 7122,
      "amateur": 7123,
      "royal": 7124,
      "moves": 7125,
      "related": 7126,
      "swed": 7127,
      "swift": 7128,
      "darren": 7129,
      "rautins": 7130,
      "##koğlu": 7131,
      "themsel": 7132,
      "poland": 7133,
      "woods": 7134,
      "payne": 7135,
      "shaun": 7136,
      "replacement": 7137,
      "programs": 7138,
      "majority": 7139,
      "operator": 7140,
      "parking": 7141,
      "freeman": 7142,
      "boykins": 7143,
      "architect": 7144,
      "highlight": 7145,
      "possible": 7146,
      "graduated": 7147,
      "writers": 7148,
      "motta": 7149,
      "wolfpack": 7150,
      "ccny": 7151,
      "##lieb": 7152,
      "sanders": 7153,
      "layup": 7154,
      "katie": 7155,
      "saying": 7156,
      "castro": 7157,
      "alumni": 7158,
      "lorenzo": 7159,
      "deadline": 7160,
      "dumars": 7161,
      "lumpur": 7162,
      "harrellson": 7163,
      "golf": 7164,
      "rangers": 7165,
      "schenectady": 7166,
      "dieringer": 7167,
      "wagner": 7168,
      "methodist": 7169,
      "fiserv": 7170,
      "joventut": 7171,
      "themselves": 7172,
      "aiaw": 7173,
      "boun": 7174,
      "bab": 7175,
      "bald": 7176,
      "bible": 7177,
      "cable": 7178,
      "fant": 7179,
      "gm": 7180,
      "gidd": 7181,
      "hern": 7182,
      "ian": 7183,
      "irish": 7184,
      "lj": 7185,
      "nike": 7186,
      "oll": 7187,
      "pine": 7188,
      "roma": 7189,
      "sle": 7190,
      "sab": 7191,
      "siak": 7192,
      "tip": 7193,
      "wan": 7194,
      "|}": 7195,
      "##lock": 7196,
      "##lenny": 7197,
      "##ifer": 7198,
      "##cont": 7199,
      "##cind": 7200,
      "##kopol": 7201,
      "##21": 7202,
      "##rup": 7203,
      "##mith": 7204,
      "##san": 7205,
      "##tournament": 7206,
      "##htemplate": 7207,
      "##hai": 7208,
      "##ghe": 7209,
      "##15": 7210,
      "##inental": 7211,
      "##inelli": 7212,
      "theus": 7213,
      "##enburg": 7214,
      "##esa": 7215,
      "##eses": 7216,
      "##ouq": 7217,
      "##isl": 7218,
      "##ete": 7219,
      "##eled": 7220,
      "##elkopol": 7221,
      "##acional": 7222,
      "##cev": 7223,
      "##ades": 7224,
      "forrest": 7225,
      "##otw": 7226,
      "##andez": 7227,
      "##illing": 7228,
      "##imir": 7229,
      "##hie": 7230,
      "##unately": 7231,
      "##icker": 7232,
      "lemons": 7233,
      "leban": 7234,
      "marks": 7235,
      "always": 7236,
      "170": 7237,
      "clutch": 7238,
      "knox": 7239,
      "##ellini": 7240,
      "##ennial": 7241,
      "##essa": 7242,
      "##essions": 7243,
      "fiesta": 7244,
      "meij": 7245,
      "2000s": 7246,
      "smo": 7247,
      "##sohn": 7248,
      "colgate": 7249,
      "tradition": 7250,
      "selvy": 7251,
      "webb": 7252,
      "manchester": 7253,
      "elvin": 7254,
      "354": 7255,
      "uses": 7256,
      "mccl": 7257,
      "bayhawks": 7258,
      "##ittles": 7259,
      "truitt": 7260,
      "quest": 7261,
      "flames": 7262,
      "tomtom": 7263,
      "467": 7264,
      "tenth": 7265,
      "##ermott": 7266,
      "caattendance": 7267,
      "ways": 7268,
      "raycom": 7269,
      "panellini": 7270,
      "expected": 7271,
      "kept": 7272,
      "darryl": 7273,
      "resulted": 7274,
      "lowell": 7275,
      "membership": 7276,
      "oldest": 7277,
      "##195": 7278,
      "oden": 7279,
      "famer": 7280,
      "albe": 7281,
      "oaks": 7282,
      "trey": 7283,
      "ramon": 7284,
      "farouq": 7285,
      "does": 7286,
      "mcdermott": 7287,
      "attempt": 7288,
      "huge": 7289,
      "demol": 7290,
      "damon": 7291,
      "bubble": 7292,
      "wielkopol": 7293,
      "putting": 7294,
      "bogut": 7295,
      "nationally": 7296,
      "mccray": 7297,
      "bihtemplate": 7298,
      "banks": 7299,
      "cedric": 7300,
      "flying": 7301,
      "ratings": 7302,
      "request": 7303,
      "production": 7304,
      "##ienced": 7305,
      "##nički": 7306,
      "hannah": 7307,
      "lennylenny": 7308,
      "surpassing": 7309,
      "italian": 7310,
      "friends": 7311,
      "controversy": 7312,
      "clarence": 7313,
      "mcgee": 7314,
      "gottlieb": 7315,
      "ovc": 7316,
      "degree": 7317,
      "vadal": 7318,
      "assignment": 7319,
      "heinsohn": 7320,
      "türkoğlu": 7321,
      "ceremony": 7322,
      "kanter": 7323,
      "cartwright": 7324,
      "3fg": 7325,
      "pesaro": 7326,
      "yanke": 7327,
      "##assee": 7328,
      "underwent": 7329,
      "metropolitan": 7330,
      "ostrów": 7331,
      "siakam": 7332,
      "##continental": 7333,
      "meiji": 7334,
      "panellinios": 7335,
      "wielkopolski": 7336,
      "==": 7337,
      "bing": 7338,
      "baker": 7339,
      "fenn": 7340,
      "guar": 7341,
      "glad": 7342,
      "hin": 7343,
      "hang": 7344,
      "hedo": 7345,
      "lic": 7346,
      "mic": 7347,
      "mode": 7348,
      "nap": 7349,
      "nfl": 7350,
      "natural": 7351,
      "pasc": 7352,
      "quar": 7353,
      "sale": 7354,
      "tub": 7355,
      "vr": 7356,
      "wwe": 7357,
      "šir": 7358,
      "##door": 7359,
      "##oop": 7360,
      "##kl": 7361,
      "##nic": 7362,
      "##rill": 7363,
      "##wh": 7364,
      "##wal": 7365,
      "##ew": 7366,
      "##eat": 7367,
      "##eem": 7368,
      "##elle": 7369,
      "##mc": 7370,
      "##bec": 7371,
      "##edave": 7372,
      "##iting": 7373,
      "##elin": 7374,
      "##enty": 7375,
      "seaba": 7376,
      "cobb": 7377,
      "##roberts": 7378,
      "reh": 7379,
      "##challenge": 7380,
      "forb": 7381,
      "asean": 7382,
      "heav": 7383,
      "##imum": 7384,
      "##utral": 7385,
      "neill": 7386,
      "neutral": 7387,
      "beer": 7388,
      "rozier": 7389,
      "shav": 7390,
      "shell": 7391,
      "##ctor": 7392,
      "163": 7393,
      "160": 7394,
      "timofey": 7395,
      "214": 7396,
      "228": 7397,
      "pruitt": 7398,
      "##uger": 7399,
      "23rd": 7400,
      "25th": 7401,
      "project": 7402,
      "davedave": 7403,
      "##oda": 7404,
      "rebounder": 7405,
      "divac": 7406,
      "286": 7407,
      "hadd": 7408,
      "##lahassee": 7409,
      "texters": 7410,
      "blaine": 7411,
      "314": 7412,
      "mcn": 7413,
      "mcroberts": 7414,
      "larson": 7415,
      "financ": 7416,
      "midway": 7417,
      "625": 7418,
      "presented": 7419,
      "598": 7420,
      "mccutch": 7421,
      "backcourt": 7422,
      "receives": 7423,
      "prem": 7424,
      "prefect": 7425,
      "moon": 7426,
      "457": 7427,
      "39rebs": 7428,
      "lefty": 7429,
      "lasted": 7430,
      "kruger": 7431,
      "designed": 7432,
      "##ullen": 7433,
      "eurochallenge": 7434,
      "##borough": 7435,
      "dickinson": 7436,
      "garner": 7437,
      "adding": 7438,
      "ronron": 7439,
      "ident": 7440,
      "freshmen": 7441,
      "##gues": 7442,
      "facilities": 7443,
      "dukes": 7444,
      "jammers": 7445,
      "deport": 7446,
      "collison": 7447,
      "oakley": 7448,
      "lawson": 7449,
      "chair": 7450,
      "tallahassee": 7451,
      "happ": 7452,
      "imm": 7453,
      "venues": 7454,
      "efforts": 7455,
      "wilkes": 7456,
      "rashad": 7457,
      "squires": 7458,
      "pittman": 7459,
      "mullins": 7460,
      "referred": 7461,
      "cornell": 7462,
      "jennifer": 7463,
      "rouge": 7464,
      "ramsay": 7465,
      "sophia": 7466,
      "sponsored": 7467,
      "healthy": 7468,
      "produced": 7469,
      "british": 7470,
      "becky": 7471,
      "terms": 7472,
      "federation": 7473,
      "walseth": 7474,
      "diogu": 7475,
      "corporation": 7476,
      "growing": 7477,
      "giorgos": 7478,
      "protected": 7479,
      "rodriguez": 7480,
      "volunteers": 7481,
      "iupui": 7482,
      "stackhouse": 7483,
      "rebuild": 7484,
      "garretson": 7485,
      "stojaković": 7486,
      "baldwin": 7487,
      "lebanon": 7488,
      "široki": 7489,
      "mccutchen": 7490,
      "prefecture": 7491,
      "7asts": 7492,
      "bis": 7493,
      "dand": 7494,
      "dutch": 7495,
      "foc": 7496,
      "hp": 7497,
      "hilton": 7498,
      "journ": 7499,
      "lif": 7500,
      "lenn": 7501,
      "mets": 7502,
      "native": 7503,
      "pap": 7504,
      "sin": 7505,
      "tent": 7506,
      "tore": 7507,
      "tsn": 7508,
      "uzo": 7509,
      "vare": 7510,
      "wis": 7511,
      "zeller": 7512,
      "##zal": 7513,
      "##iant": 7514,
      "##yes": 7515,
      "##yman": 7516,
      "##ua": 7517,
      "##uć": 7518,
      "##uels": 7519,
      "##kyle": 7520,
      "##ncaa": 7521,
      "##nia": 7522,
      "##nost": 7523,
      "##rag": 7524,
      "##tz": 7525,
      "##fino": 7526,
      "##žen": 7527,
      "##eros": 7528,
      "thad": 7529,
      "##iner": 7530,
      "##ories": 7531,
      "##anč": 7532,
      "##itable": 7533,
      "##lled": 7534,
      "stone": 7535,
      "##thing": 7536,
      "##enton": 7537,
      "20th": 7538,
      "restricted": 7539,
      "##charl": 7540,
      "forte": 7541,
      "##ilerm": 7542,
      "##ardy": 7543,
      "##owski": 7544,
      "##unas": 7545,
      "leo": 7546,
      "leuer": 7547,
      "##aventure": 7548,
      "unfort": 7549,
      "boilerm": 7550,
      "shore": 7551,
      "shang": 7552,
      "marble": 7553,
      "newman": 7554,
      "##ieber": 7555,
      "speed": 7556,
      "allan": 7557,
      "##ffman": 7558,
      "winters": 7559,
      "##ified": 7560,
      "188": 7561,
      "regulation": 7562,
      "dražen": 7563,
      "255": 7564,
      "prosp": 7565,
      "universi": 7566,
      "starog": 7567,
      "##amika": 7568,
      "jackets": 7569,
      "31st": 7570,
      "larkin": 7571,
      "695": 7572,
      "lazar": 7573,
      "683": 7574,
      "mayes": 7575,
      "367": 7576,
      "366": 7577,
      "trailing": 7578,
      "402": 7579,
      "455": 7580,
      "438": 7581,
      "flo": 7582,
      "interview": 7583,
      "intercontinental": 7584,
      "sylv": 7585,
      "954": 7586,
      "##forum": 7587,
      "cramo": 7588,
      "profile": 7589,
      "caused": 7590,
      "positive": 7591,
      "rodgers": 7592,
      "##aldo": 7593,
      "lux": 7594,
      "olympia": 7595,
      "drum": 7596,
      "##zeg": 7597,
      "impact": 7598,
      "telfair": 7599,
      "samuel": 7600,
      "samuels": 7601,
      "advancing": 7602,
      "1906": 7603,
      "1905": 7604,
      "founding": 7605,
      "duff": 7606,
      "crown": 7607,
      "lowest": 7608,
      "belinelli": 7609,
      "bales": 7610,
      "surv": 7611,
      "antrim": 7612,
      "memorable": 7613,
      "severance": 7614,
      "gaud": 7615,
      "replacing": 7616,
      "farmar": 7617,
      "##encet": 7618,
      "budd": 7619,
      "buduć": 7620,
      "gooden": 7621,
      "hunt": 7622,
      "refused": 7623,
      "##unners": 7624,
      "staak": 7625,
      "##tyronn": 7626,
      "webster": 7627,
      "runnin": 7628,
      "dragić": 7629,
      "release": 7630,
      "mccarter": 7631,
      "omni": 7632,
      "ligament": 7633,
      "shockers": 7634,
      "opted": 7635,
      "possession": 7636,
      "lauren": 7637,
      "jumper": 7638,
      "dixie": 7639,
      "umass": 7640,
      "bonaventure": 7641,
      "required": 7642,
      "olimpia": 7643,
      "review": 7644,
      "bosna": 7645,
      "efn": 7646,
      "lindsey": 7647,
      "lancaster": 7648,
      "surpassed": 7649,
      "thurmond": 7650,
      "kryst": 7651,
      "described": 7652,
      "believed": 7653,
      "gentry": 7654,
      "tyronntyronn": 7655,
      "courts": 7656,
      "alternate": 7657,
      "issues": 7658,
      "sullivan": 7659,
      "beverley": 7660,
      "relationship": 7661,
      "arnold": 7662,
      "jenkins": 7663,
      "fedexforum": 7664,
      "grace": 7665,
      "unveiled": 7666,
      "error": 7667,
      "##emifinals": 7668,
      "bengals": 7669,
      "albeck": 7670,
      "hinrich": 7671,
      "uzoh": 7672,
      "unfortunately": 7673,
      "shanghai": 7674,
      "starogard": 7675,
      "budućnost": 7676,
      "%,": 7677,
      "3pm": 7678,
      "8t": 7679,
      "aut": 7680,
      "bav": 7681,
      "bought": 7682,
      "cant": 7683,
      "jets": 7684,
      "kit": 7685,
      "nass": 7686,
      "nancy": 7687,
      "our": 7688,
      "pin": 7689,
      "pab": 7690,
      "rj": 7691,
      "rav": 7692,
      "sov": 7693,
      "tier": 7694,
      "table": 7695,
      "uat": 7696,
      "yale": 7697,
      "zone": 7698,
      "św": 7699,
      "##lalo": 7700,
      "##zman": 7701,
      "##zawa": 7702,
      "##dr": 7703,
      "##duc": 7704,
      "##cy": 7705,
      "##nabo": 7706,
      "##ring": 7707,
      "##ming": 7708,
      "##xton": 7709,
      "##ji": 7710,
      "##jar": 7711,
      "##bow": 7712,
      "##bourn": 7713,
      "##ía": 7714,
      "things": 7715,
      "thib": 7716,
      "##orter": 7717,
      "##orio": 7718,
      "##alem": 7719,
      "##alik": 7720,
      "##etrot": 7721,
      "##ioni": 7722,
      "##leigh": 7723,
      "##iri": 7724,
      "chest": 7725,
      "reve": 7726,
      "##olic": 7727,
      "##urch": 7728,
      "##illie": 7729,
      "heights": 7730,
      "##ayes": 7731,
      "##ima": 7732,
      "leandro": 7733,
      "##ulia": 7734,
      "##ampions": 7735,
      "##igham": 7736,
      "champs": 7737,
      "bogues": 7738,
      "shown": 7739,
      "##iecie": 7740,
      "146": 7741,
      "arts": 7742,
      "alal": 7743,
      "alph": 7744,
      "nord": 7745,
      "153": 7746,
      "centers": 7747,
      "172": 7748,
      "friday": 7749,
      "schayes": 7750,
      "angelo": 7751,
      "21st": 7752,
      "30th": 7753,
      "prud": 7754,
      "265": 7755,
      "brigham": 7756,
      "celtic": 7757,
      "##ipe": 7758,
      "##ipedia": 7759,
      "##racts": 7760,
      "##ikan": 7761,
      "calder": 7762,
      "75th": 7763,
      "shootout": 7764,
      "noel": 7765,
      "worcester": 7766,
      "##berto": 7767,
      "mccants": 7768,
      "421": 7769,
      "powless": 7770,
      "528": 7771,
      "549": 7772,
      "412": 7773,
      "benben": 7774,
      "cruc": 7775,
      "dunks": 7776,
      "bradbrad": 7777,
      "##blers": 7778,
      "amway": 7779,
      "macon": 7780,
      "younger": 7781,
      "expect": 7782,
      "remember": 7783,
      "tried": 7784,
      "dark": 7785,
      "darnell": 7786,
      "deciding": 7787,
      "coloradoattendance": 7788,
      "simpl": 7789,
      "jamie": 7790,
      "3pa": 7791,
      "##197": 7792,
      "##196": 7793,
      "corb": 7794,
      "turk": 7795,
      "reaching": 7796,
      "garygary": 7797,
      "burbage": 7798,
      "ramat": 7799,
      "landover": 7800,
      "huntsville": 7801,
      "hawes": 7802,
      "##odeau": 7803,
      "buckner": 7804,
      "suspension": 7805,
      "##fafa": 7806,
      "jarvis": 7807,
      "sidel": 7808,
      "afflalo": 7809,
      "queen": 7810,
      "quebec": 7811,
      "tax": 7812,
      "taur": 7813,
      "##flip": 7814,
      "commissioners": 7815,
      "ruben": 7816,
      "leadership": 7817,
      "holyoke": 7818,
      "packers": 7819,
      "moda": 7820,
      "##losion": 7821,
      "ginás": 7822,
      "ayton": 7823,
      "pollard": 7824,
      "looked": 7825,
      "latter": 7826,
      "terrence": 7827,
      "stafford": 7828,
      "bias": 7829,
      "control": 7830,
      "bonner": 7831,
      "experienced": 7832,
      "bosnia": 7833,
      "dariusdar": 7834,
      "miracle": 7835,
      "verizon": 7836,
      "globetrot": 7837,
      "snowden": 7838,
      "primary": 7839,
      "kendall": 7840,
      "thirteen": 7841,
      "effective": 7842,
      "toni": 7843,
      "recognized": 7844,
      "ecac": 7845,
      "wikipedia": 7846,
      "flipflip": 7847,
      "credited": 7848,
      "disappointing": 7849,
      "author": 7850,
      "##quarterfinals": 7851,
      "hodges": 7852,
      "guaynabo": 7853,
      "blowout": 7854,
      "##ophone": 7855,
      "maple": 7856,
      "inches": 7857,
      "catholic": 7858,
      "negot": 7859,
      "warszawa": 7860,
      "koszal": 7861,
      "tacoma": 7862,
      "3x3": 7863,
      "benjamin": 7864,
      "0000000000000005000000": 7865,
      "ollie": 7866,
      "licens": 7867,
      "nassau": 7868,
      "świecie": 7869,
      "prudential": 7870,
      "calderón": 7871,
      "ginásio": 7872,
      "dariusdarius": 7873,
      "koszalin": 7874,
      "%)": 7875,
      ")(": 7876,
      "2px": 7877,
      "bach": 7878,
      "bann": 7879,
      "cul": 7880,
      "cage": 7881,
      "czar": 7882,
      "dant": 7883,
      "eg": 7884,
      "ferry": 7885,
      "fought": 7886,
      "gda": 7887,
      "hos": 7888,
      "hours": 7889,
      "ike": 7890,
      "kl": 7891,
      "kem": 7892,
      "kup": 7893,
      "lus": 7894,
      "mud": 7895,
      "nathan": 7896,
      "osh": 7897,
      "pont": 7898,
      "ris": 7899,
      "rated": 7900,
      "rud": 7901,
      "sla": 7902,
      "sag": 7903,
      "sue": 7904,
      "sud": 7905,
      "sso": 7906,
      "tand": 7907,
      "tun": 7908,
      "tamika": 7909,
      "xue": 7910,
      "zoll": 7911,
      "zadar": 7912,
      "##aur": 7913,
      "##zen": 7914,
      "##iūnas": 7915,
      "##year": 7916,
      "##obr": 7917,
      "##claw": 7918,
      "##nest": 7919,
      "##rina": 7920,
      "##runners": 7921,
      "##witt": 7922,
      "##mans": 7923,
      "##tor": 7924,
      "##11": 7925,
      "##14": 7926,
      "##bu": 7927,
      "##bian": 7928,
      "##bek": 7929,
      "##łobr": 7930,
      "##ński": 7931,
      "##era": 7932,
      "##ered": 7933,
      "##onse": 7934,
      "19rebs": 7935,
      "##stant": 7936,
      "##atin": 7937,
      "##eder": 7938,
      "##asi": 7939,
      "inf": 7940,
      "##itis": 7941,
      "##iterr": 7942,
      "##isition": 7943,
      "##ingly": 7944,
      "tol": 7945,
      "203referees": 7946,
      "cofield": 7947,
      "teach": 7948,
      "##ira": 7949,
      "##ading": 7950,
      "chip": 7951,
      "chines": 7952,
      "cheryl": 7953,
      "reven": 7954,
      "##iger": 7955,
      "##ilor": 7956,
      "##ilenko": 7957,
      "anwil": 7958,
      "##ounding": 7959,
      "##imes": 7960,
      "dexter": 7961,
      "##astemplate": 7962,
      "##tony": 7963,
      "bey": 7964,
      "unl": 7965,
      "shannon": 7966,
      "marie": 7967,
      "spok": 7968,
      "byers": 7969,
      "##ums": 7970,
      "##aining": 7971,
      "alfred": 7972,
      "151": 7973,
      "centrobasket": 7974,
      "##ovic": 7975,
      "17asts": 7976,
      "westhead": 7977,
      "##okas": 7978,
      "scheyer": 7979,
      "226": 7980,
      "agents": 7981,
      "geoff": 7982,
      "##brine": 7983,
      "##essed": 7984,
      "twenty": 7985,
      "268": 7986,
      "prob": 7987,
      "##zzi": 7988,
      "##amire": 7989,
      "exclus": 7990,
      "oklahomaattendance": 7991,
      "antonioattendance": 7992,
      "contracts": 7993,
      "jannero": 7994,
      "valanč": 7995,
      "scre": 7996,
      "scala": 7997,
      "scandal": 7998,
      "ens": 7999,
      "enroll": 8000,
      "whole": 8001,
      "showed": 8002,
      "643": 8003,
      "353": 8004,
      "797referees": 8005,
      "soft": 8006,
      "mayor": 8007,
      "blazer": 8008,
      "usually": 8009,
      "671": 8010,
      "833": 8011,
      "trailed": 8012,
      "0000000000000006000000": 8013,
      "571": 8014,
      "423": 8015,
      "385": 8016,
      "trou": 8017,
      "537": 8018,
      "moody": 8019,
      "488": 8020,
      "flint": 8021,
      "espec": 8022,
      "otherwise": 8023,
      "cann": 8024,
      "##anean": 8025,
      "connie": 8026,
      "##lynn": 8027,
      "herze": 8028,
      "medical": 8029,
      "mediterr": 8030,
      "preva": 8031,
      "tonytony": 8032,
      "carlson": 8033,
      "fafafa": 8034,
      "planned": 8035,
      "recalled": 8036,
      "fredfred": 8037,
      "stoudamire": 8038,
      "create": 8039,
      "creative": 8040,
      "nazar": 8041,
      "opport": 8042,
      "facing": 8043,
      "competitive": 8044,
      "claver": 8045,
      "bowie": 8046,
      "braun": 8047,
      "logan": 8048,
      "acquisition": 8049,
      "dealt": 8050,
      "collier": 8051,
      "participating": 8052,
      "##aaa": 8053,
      "improve": 8054,
      "andrea": 8055,
      "talent": 8056,
      "activ": 8057,
      "normal": 8058,
      "kylekyle": 8059,
      "combes": 8060,
      "achilles": 8061,
      "hands": 8062,
      "regionals": 8063,
      "richie": 8064,
      "televised": 8065,
      "fairleigh": 8066,
      "mullaney": 8067,
      "affili": 8068,
      "alberta": 8069,
      "fouls": 8070,
      "achievements": 8071,
      "holdsclaw": 8072,
      "##steph": 8073,
      "erik": 8074,
      "chapman": 8075,
      "##rosse": 8076,
      "hotel": 8077,
      "kendrick": 8078,
      "vandals": 8079,
      "dynast": 8080,
      "thirty": 8081,
      "kołobr": 8082,
      "pushed": 8083,
      "kaman": 8084,
      "##cote": 8085,
      "rosenblums": 8086,
      "easily": 8087,
      "frequently": 8088,
      "reinfor": 8089,
      "nenad": 8090,
      "heathcote": 8091,
      "scheduled": 8092,
      "kirilenko": 8093,
      "lacrosse": 8094,
      "kosta": 8095,
      "source": 8096,
      "tropang": 8097,
      "bottom": 8098,
      "##ispie": 8099,
      "aaaaaa": 8100,
      "yankees": 8101,
      "quarters": 8102,
      "universiade": 8103,
      "krystkowiak": 8104,
      "bavetta": 8105,
      "thibodeau": 8106,
      "simply": 8107,
      "globetrotters": 8108,
      "gdański": 8109,
      "kemba": 8110,
      "##manship": 8111,
      "chinese": 8112,
      "valančiūnas": 8113,
      "scalabrine": 8114,
      "especially": 8115,
      "herzegov": 8116,
      "mediterranean": 8117,
      "nazarene": 8118,
      "kołobrzeg": 8119,
      "].": 8120,
      "acl": 8121,
      "aven": 8122,
      "bcl": 8123,
      "bert": 8124,
      "cbc": 8125,
      "ded": 8126,
      "e1": 8127,
      "gel": 8128,
      "hund": 8129,
      "hakim": 8130,
      "hitting": 8131,
      "km": 8132,
      "kay": 8133,
      "kap": 8134,
      "mou": 8135,
      "nw": 8136,
      "nur": 8137,
      "nyn": 8138,
      "oj": 8139,
      "oberto": 8140,
      "py": 8141,
      "pas": 8142,
      "pond": 8143,
      "pimm": 8144,
      "ras": 8145,
      "rout": 8146,
      "sessions": 8147,
      "ts": 8148,
      "tendon": 8149,
      "ves": 8150,
      "ward": 8151,
      "xl": 8152,
      "ül": 8153,
      "##zor": 8154,
      "##zos": 8155,
      "##domin": 8156,
      "##uquer": 8157,
      "##oo": 8158,
      "##kers": 8159,
      "##kosh": 8160,
      "##hom": 8161,
      "##hous": 8162,
      "##gra": 8163,
      "##xi": 8164,
      "##petemplate": 8165,
      "##çe": 8166,
      "thought": 8167,
      "think": 8168,
      "##arro": 8169,
      "##ench": 8170,
      "insp": 8171,
      "ingram": 8172,
      "stet": 8173,
      "stuc": 8174,
      "##etz": 8175,
      "##eleye": 8176,
      "203": 8177,
      "##acter": 8178,
      "cooke": 8179,
      "##leet": 8180,
      "##rocan": 8181,
      "chee": 8182,
      "##urilor": 8183,
      "##chak": 8184,
      "##osition": 8185,
      "anne": 8186,
      "anjo": 8187,
      "##aged": 8188,
      "asiatemplate": 8189,
      "##oman": 8190,
      "dest": 8191,
      "##estra": 8192,
      "##rap": 8193,
      "##isters": 8194,
      "beş": 8195,
      "roth": 8196,
      "rosters": 8197,
      "##cory": 8198,
      "boost": 8199,
      "body": 8200,
      "##earch": 8201,
      "mari": 8202,
      "##usalem": 8203,
      "joey": 8204,
      "ali": 8205,
      "alcind": 8206,
      "norman": 8207,
      "157": 8208,
      "##ovia": 8209,
      "##tell": 8210,
      "secure": 8211,
      "oracle": 8212,
      "##ightly": 8213,
      "indians": 8214,
      "americup": 8215,
      "americastemplate": 8216,
      "212": 8217,
      "22nd": 8218,
      "status": 8219,
      "##bric": 8220,
      "serve": 8221,
      "serbian": 8222,
      "afrobasket": 8223,
      "afrocan": 8224,
      "##ocation": 8225,
      "##ensen": 8226,
      "outdoor": 8227,
      "##abale": 8228,
      "progress": 8229,
      "produc": 8230,
      "meg": 8231,
      "megan": 8232,
      "bullock": 8233,
      "fourteen": 8234,
      "##isha": 8235,
      "marchand": 8236,
      "##ube": 8237,
      "suny": 8238,
      "rockville": 8239,
      "upi": 8240,
      "barnett": 8241,
      "mcl": 8242,
      "engin": 8243,
      "selby": 8244,
      "mostly": 8245,
      "##acek": 8246,
      "mann": 8247,
      "julian": 8248,
      "laimb": 8249,
      "356": 8250,
      "sof": 8251,
      "##oya": 8252,
      "659": 8253,
      ").\"": 8254,
      "acrop": 8255,
      "610": 8256,
      "receiving": 8257,
      "trü": 8258,
      "trim": 8259,
      "hornacek": 8260,
      "395": 8261,
      "439": 8262,
      "483": 8263,
      "othertournament": 8264,
      "robin": 8265,
      "brady": 8266,
      "posey": 8267,
      "krst": 8268,
      "krzos": 8269,
      "europetemplate": 8270,
      "drive": 8271,
      "expanded": 8272,
      "removed": 8273,
      "1000": 8274,
      "swap": 8275,
      "switch": 8276,
      "bluej": 8277,
      "sporturilor": 8278,
      "gpac": 8279,
      "sheboy": 8280,
      "remains": 8281,
      "holzman": 8282,
      "brain": 8283,
      "corp": 8284,
      "woodson": 8285,
      "performed": 8286,
      "legendary": 8287,
      "marty": 8288,
      "jerusalem": 8289,
      "albuquer": 8290,
      "colonials": 8291,
      "lawal": 8292,
      "stephensteph": 8293,
      "ramblers": 8294,
      "statistical": 8295,
      "citation": 8296,
      "##ething": 8297,
      "billybill": 8298,
      "bcla": 8299,
      "roadrunners": 8300,
      "##ffery": 8301,
      "respond": 8302,
      "response": 8303,
      "sideline": 8304,
      "azs": 8305,
      "column": 8306,
      "taft": 8307,
      "africatemplate": 8308,
      "distin": 8309,
      "spartak": 8310,
      "waco": 8311,
      "convocation": 8312,
      "takoma": 8313,
      "millsap": 8314,
      "##patrick": 8315,
      "respective": 8316,
      "##dd99": 8317,
      "sloveniatemplate": 8318,
      "ayers": 8319,
      "dahlman": 8320,
      "institutions": 8321,
      "outscor": 8322,
      "dorsey": 8323,
      "sweeping": 8324,
      "udoka": 8325,
      "approved": 8326,
      "increased": 8327,
      "something": 8328,
      "dominicdomin": 8329,
      "bringing": 8330,
      "adecco": 8331,
      "investig": 8332,
      "wvu": 8333,
      "commentator": 8334,
      "historic": 8335,
      "aleks": 8336,
      "cocaba": 8337,
      "vlade": 8338,
      "navarro": 8339,
      "accomplishments": 8340,
      "moments": 8341,
      "dnr": 8342,
      "chih": 8343,
      "oceaniatemplate": 8344,
      "fouled": 8345,
      "corycory": 8346,
      "spirits": 8347,
      "joliet": 8348,
      "lionel": 8349,
      "bogdanović": 8350,
      "ffdd99": 8351,
      "korea": 8352,
      "pearl": 8353,
      "spooner": 8354,
      "lumpurtemplate": 8355,
      "forbes": 8356,
      "heavily": 8357,
      "financial": 8358,
      "premier": 8359,
      "##bourne": 8360,
      "taurasi": 8361,
      "lusophone": 8362,
      "oshkosh": 8363,
      "probation": 8364,
      "dynasty": 8365,
      "gelabale": 8366,
      "ojeleye": 8367,
      "stetson": 8368,
      "stuckey": 8369,
      "cheeks": 8370,
      "alcindor": 8371,
      "laimbeer": 8372,
      "acropolis": 8373,
      "othertournamentstemplate": 8374,
      "krzoska": 8375,
      "sheboygan": 8376,
      "albuquerque": 8377,
      "stephenstephen": 8378,
      "billybilly": 8379,
      "dominicdominic": 8380,
      "*^": 8381,
      "2t": 8382,
      "4t": 8383,
      "],": 8384,
      "buss": 8385,
      "batum": 8386,
      "cag": 8387,
      "cry": 8388,
      "cance": 8389,
      "dates": 8390,
      "fmp": 8391,
      "filed": 8392,
      "gba": 8393,
      "gort": 8394,
      "honey": 8395,
      "ira": 8396,
      "kol": 8397,
      "kong": 8398,
      "leroy": 8399,
      "ment": 8400,
      "purs": 8401,
      "rall": 8402,
      "rot": 8403,
      "sv": 8404,
      "sca": 8405,
      "sbl": 8406,
      "tsu": 8407,
      "tai": 8408,
      "tuz": 8409,
      "vt": 8410,
      "von": 8411,
      "vene": 8412,
      "wach": 8413,
      "##zi": 8414,
      "##uy": 8415,
      "##cat": 8416,
      "##kman": 8417,
      "##name": 8418,
      "##rudy": 8419,
      "##eñ": 8420,
      "##ewe": 8421,
      "##mes": 8422,
      "##sch": 8423,
      "##tion": 8424,
      "##hem": 8425,
      "##jos": 8426,
      "##bol": 8427,
      "##erc": 8428,
      "thabe": 8429,
      "##anian": 8430,
      "##station": 8431,
      "##aters": 8432,
      "##asova": 8433,
      "stor": 8434,
      "##eling": 8435,
      "##ados": 8436,
      "chen": 8437,
      "##olut": 8438,
      "##ura": 8439,
      "##chion": 8440,
      "##champions": 8441,
      "concord": 8442,
      "playstation": 8443,
      "##otnički": 8444,
      "wasn": 8445,
      "##ung": 8446,
      "dejan": 8447,
      "atene": 8448,
      "carn": 8449,
      "caron": 8450,
      "unp": 8451,
      "##rient": 8452,
      "shel": 8453,
      "shelden": 8454,
      "##lyasova": 8455,
      "##ains": 8456,
      "152": 8457,
      "158": 8458,
      "156": 8459,
      "155": 8460,
      "168": 8461,
      "181": 8462,
      "186": 8463,
      "171": 8464,
      "173": 8465,
      "perman": 8466,
      "clint": 8467,
      "orr": 8468,
      "indic": 8469,
      "227": 8470,
      "232": 8471,
      "##bride": 8472,
      "phase": 8473,
      "serving": 8474,
      "rebhol": 8475,
      "highland": 8476,
      "universities": 8477,
      "britt": 8478,
      "hous": 8479,
      "279": 8480,
      "commod": 8481,
      "content": 8482,
      "contention": 8483,
      "presence": 8484,
      "scale": 8485,
      "##ikta": 8486,
      "mcdy": 8487,
      "mcbride": 8488,
      ".\"[": 8489,
      "ennis": 8490,
      "resign": 8491,
      "weak": 8492,
      "357": 8493,
      "35rebs": 8494,
      "gran": 8495,
      "ground": 8496,
      "haven": 8497,
      "##new": 8498,
      "##leson": 8499,
      "mays": 8500,
      "using": 8501,
      "368": 8502,
      "mccre": 8503,
      "611": 8504,
      "407": 8505,
      "##spor": 8506,
      "backup": 8507,
      "581": 8508,
      "389": 8509,
      "522": 8510,
      "mob": 8511,
      "sportsmanship": 8512,
      "semifinalsmarch": 8513,
      "accident": 8514,
      "compiled": 8515,
      "arizin": 8516,
      "461": 8517,
      "longtime": 8518,
      "sales": 8519,
      "salley": 8520,
      "sacre": 8521,
      "montre": 8522,
      "olynyk": 8523,
      "professionally": 8524,
      "amund": 8525,
      "maloy": 8526,
      "herkim": 8527,
      "brief": 8528,
      "bryan": 8529,
      "keio": 8530,
      "delfino": 8531,
      "plans": 8532,
      "recip": 8533,
      "tarrant": 8534,
      "duhon": 8535,
      "##erta": 8536,
      "christmas": 8537,
      "mainly": 8538,
      "alexis": 8539,
      "provide": 8540,
      "famu": 8541,
      "turów": 8542,
      "emb": 8543,
      "continue": 8544,
      "continental": 8545,
      "participants": 8546,
      "lawlor": 8547,
      "formation": 8548,
      "##encia": 8549,
      "matches": 8550,
      "talented": 8551,
      "rivalries": 8552,
      "additionally": 8553,
      "debuted": 8554,
      "acting": 8555,
      "sides": 8556,
      "brackins": 8557,
      "huffman": 8558,
      "rudyrudy": 8559,
      "intent": 8560,
      "spartan": 8561,
      "diaye": 8562,
      "recruited": 8563,
      "##backs": 8564,
      "##jannero": 8565,
      "favored": 8566,
      "locker": 8567,
      "pirae": 8568,
      "corning": 8569,
      "reportedly": 8570,
      "looking": 8571,
      "##henry": 8572,
      "boris": 8573,
      "henryhenry": 8574,
      "occurrences": 8575,
      "gakuen": 8576,
      "vandewe": 8577,
      "jessica": 8578,
      "discuss": 8579,
      "committe": 8580,
      "rabotnički": 8581,
      "influ": 8582,
      "##kuba": 8583,
      "garcía": 8584,
      "criticized": 8585,
      "hubie": 8586,
      "foye": 8587,
      "##hawk": 8588,
      "accepted": 8589,
      "##cutt": 8590,
      "mccaffery": 8591,
      "custom": 8592,
      "highlighted": 8593,
      "sabonis": 8594,
      "pascal": 8595,
      "rebuilding": 8596,
      "bisons": 8597,
      "boilermakers": 8598,
      "sylvia": 8599,
      "luxury": 8600,
      "soviet": 8601,
      "licensed": 8602,
      "czarni": 8603,
      "kupchak": 8604,
      "pontiac": 8605,
      "jannerojannero": 8606,
      "beşikta": 8607,
      "tsukuba": 8608,
      "tuzla": 8609,
      "venez": 8610,
      "thabeet": 8611,
      "ateneo": 8612,
      "rebholz": 8613,
      "mcdyess": 8614,
      "amundson": 8615,
      "herkimer": 8616,
      "piraeus": 8617,
      "vandeweghe": 8618,
      "beşiktaş": 8619,
      "\"|": 8620,
      "aj": 8621,
      "emp": 8622,
      "fro": 8623,
      "ferd": 8624,
      "gus": 8625,
      "hur": 8626,
      "higgins": 8627,
      "hkk": 8628,
      "hibb": 8629,
      "jere": 8630,
      "jab": 8631,
      "jenny": 8632,
      "kear": 8633,
      "lap": 8634,
      "m2": 8635,
      "mol": 8636,
      "mcev": 8637,
      "nv": 8638,
      "nes": 8639,
      "nic": 8640,
      "nix": 8641,
      "nico": 8642,
      "pand": 8643,
      "rī": 8644,
      "rol": 8645,
      "surr": 8646,
      "sib": 8647,
      "sno": 8648,
      "sasha": 8649,
      "saturday": 8650,
      "tin": 8651,
      "ties": 8652,
      "tipp": 8653,
      "tins": 8654,
      "##lia": 8655,
      "##zies": 8656,
      "##iago": 8657,
      "##ds": 8658,
      "##dan": 8659,
      "##uals": 8660,
      "##umph": 8661,
      "##oots": 8662,
      "##carl": 8663,
      "##cop": 8664,
      "##coming": 8665,
      "##ril": 8666,
      "##water": 8667,
      "##van": 8668,
      "##video": 8669,
      "##say": 8670,
      "##gb": 8671,
      "##gold": 8672,
      "##gher": 8673,
      "##xim": 8674,
      "##13": 8675,
      "##fts": 8676,
      "##fica": 8677,
      "##feng": 8678,
      "##jão": 8679,
      "##bour": 8680,
      "##bock": 8681,
      "##şı": 8682,
      "##ça": 8683,
      "##ánd": 8684,
      "##erling": 8685,
      "##ono": 8686,
      "##oniki": 8687,
      "##inos": 8688,
      "##inand": 8689,
      "thess": 8690,
      "##enate": 8691,
      "##angel": 8692,
      "##anxi": 8693,
      "##stad": 8694,
      "##algir": 8695,
      "##aloniki": 8696,
      "stok": 8697,
      "stood": 8698,
      "sterling": 8699,
      "##elica": 8700,
      "tobi": 8701,
      "seem": 8702,
      "##cell": 8703,
      "##robert": 8704,
      "##adors": 8705,
      "chick": 8706,
      "church": 8707,
      "referees": 8708,
      "##olo": 8709,
      "forcing": 8710,
      "constant": 8711,
      "##ivo": 8712,
      "online": 8713,
      "##otts": 8714,
      "##idad": 8715,
      "##ande": 8716,
      "##verted": 8717,
      "ashe": 8718,
      "##ows": 8719,
      "##omm": 8720,
      "lever": 8721,
      "leop": 8722,
      "deep": 8723,
      "neck": 8724,
      "neigh": 8725,
      "rox": 8726,
      "roos": 8727,
      "roof": 8728,
      "boone": 8729,
      "bojan": 8730,
      "shen": 8731,
      "newcast": 8732,
      "alford": 8733,
      "177": 8734,
      "westph": 8735,
      "##orses": 8736,
      "211": 8737,
      "##ooling": 8738,
      "prime": 8739,
      "phot": 8740,
      "##enne": 8741,
      "serious": 8742,
      "sergio": 8743,
      "253": 8744,
      "williew": 8745,
      "bras": 8746,
      "milit": 8747,
      "examp": 8748,
      "utes": 8749,
      "rocky": 8750,
      "rockers": 8751,
      "contender": 8752,
      "louie": 8753,
      "313": 8754,
      "hark": 8755,
      "steel": 8756,
      "larger": 8757,
      "paxson": 8758,
      "research": 8759,
      "menzies": 8760,
      "elie": 8761,
      "338": 8762,
      "suff": 8763,
      "launch": 8764,
      "352": 8765,
      "35th": 8766,
      "347": 8767,
      "340": 8768,
      "34th": 8769,
      "714": 8770,
      "millikan": 8771,
      "blaze": 8772,
      "778": 8773,
      "607": 8774,
      "mccoy": 8775,
      "baynes": 8776,
      "associate": 8777,
      "408": 8778,
      "57th": 8779,
      "371": 8780,
      "378": 8781,
      "danield": 8782,
      "trues": 8783,
      "538": 8784,
      "skins": 8785,
      "417": 8786,
      "donatas": 8787,
      "compared": 8788,
      "benfica": 8789,
      "flash": 8790,
      "morrill": 8791,
      "salvat": 8792,
      "cru": 8793,
      "039": 8794,
      "##hammed": 8795,
      "douma": 8796,
      "reput": 8797,
      "attending": 8798,
      "capela": 8799,
      "##borg": 8800,
      "herro": 8801,
      "triumph": 8802,
      "halifa": 8803,
      "##eps": 8804,
      "frankie": 8805,
      "kelley": 8806,
      "sams": 8807,
      "legacy": 8808,
      "nyu": 8809,
      "raf": 8810,
      "razor": 8811,
      "cremins": 8812,
      "naib": 8813,
      "duane": 8814,
      "competing": 8815,
      "avo": 8816,
      "balkman": 8817,
      "corre": 8818,
      "polk": 8819,
      "0000000000000009900000s": 8820,
      "horton": 8821,
      "successor": 8822,
      "robertrobert": 8823,
      "nikos": 8824,
      "burleson": 8825,
      "ramsey": 8826,
      "fargo": 8827,
      "childhood": 8828,
      "broadcasts": 8829,
      "mdt": 8830,
      "votes": 8831,
      "mercy": 8832,
      "armory": 8833,
      "taj": 8834,
      "kenneth": 8835,
      "extended": 8836,
      "njcaa": 8837,
      "rashard": 8838,
      "running": 8839,
      "handed": 8840,
      "##exp": 8841,
      "adriatic": 8842,
      "bogans": 8843,
      "modern": 8844,
      "slovenian": 8845,
      "breen": 8846,
      "initial": 8847,
      "graduate": 8848,
      "scotia": 8849,
      "rollie": 8850,
      "natenate": 8851,
      "gillispie": 8852,
      "grabbing": 8853,
      "hannum": 8854,
      "lindsay": 8855,
      "popularity": 8856,
      "representing": 8857,
      "expression": 8858,
      "circus": 8859,
      "##{{{": 8860,
      "wrocław": 8861,
      "purchase": 8862,
      "controversial": 8863,
      "fernandez": 8864,
      "settles": 8865,
      "bjelica": 8866,
      "montevideo": 8867,
      "watched": 8868,
      "quinton": 8869,
      "##atello": 8870,
      "ironi": 8871,
      "ticket": 8872,
      "}}}|": 8873,
      "shirley": 8874,
      "jewels": 8875,
      "sponsorship": 8876,
      "dowd": 8877,
      "narrow": 8878,
      "eldon": 8879,
      "knoxville": 8880,
      "haddadi": 8881,
      "chairman": 8882,
      "varejão": 8883,
      "duffy": 8884,
      "cantù": 8885,
      "revealed": 8886,
      "corbin": 8887,
      "tanduay": 8888,
      "xuefeng": 8889,
      "unlike": 8890,
      "brainerd": 8891,
      "cancelled": 8892,
      "gortat": 8893,
      "rallied": 8894,
      "commodores": 8895,
      "spartanburg": 8896,
      "ferdinand": 8897,
      "hibbing": 8898,
      "mcevoy": 8899,
      "tinsley": 8900,
      "##golden": 8901,
      "##ández": 8902,
      "thessaloniki": 8903,
      "##algiris": 8904,
      "newcastle": 8905,
      "westphal": 8906,
      "williewillie": 8907,
      "danieldaniel": 8908,
      "truesdale": 8909,
      "salvatore": 8910,
      "halifax": 8911,
      "3t": 8912,
      "bond": 8913,
      "burn": 8914,
      "bender": 8915,
      "cj": 8916,
      "cind": 8917,
      "dut": 8918,
      "diana": 8919,
      "ey": 8920,
      "fest": 8921,
      "fourn": 8922,
      "hoff": 8923,
      "jak": 8924,
      "jian": 8925,
      "kou": 8926,
      "kid": 8927,
      "lov": 8928,
      "lane": 8929,
      "laker": 8930,
      "niger": 8931,
      "pach": 8932,
      "pain": 8933,
      "publ": 8934,
      "ridge": 8935,
      "t2": 8936,
      "t3": 8937,
      "ue": 8938,
      "vard": 8939,
      "wend": 8940,
      "witt": 8941,
      "wave": 8942,
      "xin": 8943,
      "yi": 8944,
      "za": 8945,
      "##lian": 8946,
      "##down": 8947,
      "##oie": 8948,
      "##obs": 8949,
      "##cil": 8950,
      "##king": 8951,
      "##nc": 8952,
      "##net": 8953,
      "##eon": 8954,
      "##eandre": 8955,
      "##vol": 8956,
      "##vall": 8957,
      "##mid": 8958,
      "##si": 8959,
      "##shi": 8960,
      "##tay": 8961,
      "##har": 8962,
      "##hawn": 8963,
      "##haps": 8964,
      "##gette": 8965,
      "##poon": 8966,
      "##buster": 8967,
      "##čević": 8968,
      "##_name": 8969,
      "##orlando": 8970,
      "##ams": 8971,
      "inel": 8972,
      "strom": 8973,
      "stahl": 8974,
      "##thursday": 8975,
      "209": 8976,
      "##lest": 8977,
      "##ceed": 8978,
      "##iro": 8979,
      "channing": 8980,
      "reign": 8981,
      "##igible": 8982,
      "##oli": 8983,
      "##oloff": 8984,
      "congo": 8985,
      "##ivel": 8986,
      "##idents": 8987,
      "##aves": 8988,
      "bod": 8989,
      "##ryan": 8990,
      "##using": 8991,
      "##ument": 8992,
      "whe": 8993,
      "finale": 8994,
      "##ffield": 8995,
      "165": 8996,
      "18asts": 8997,
      "174": 8998,
      "##oku": 8999,
      "french": 9000,
      "perhaps": 9001,
      "##awu": 9002,
      "218": 9003,
      "306": 9004,
      "statue": 9005,
      "gee": 9006,
      "deta": 9007,
      "267": 9008,
      "fewest": 9009,
      "##zzie": 9010,
      "##quan": 9011,
      "michelle": 9012,
      "exel": 9013,
      "admin": 9014,
      "forwards": 9015,
      "blatche": 9016,
      "barg": 9017,
      "value": 9018,
      "valencia": 9019,
      "329": 9020,
      "325": 9021,
      "32nd": 9022,
      "harsh": 9023,
      "harstad": 9024,
      "##therford": 9025,
      "manila": 9026,
      "eliz": 9027,
      "laud": 9028,
      "341": 9029,
      "71w": 9030,
      "##nee": 9031,
      "62w": 9032,
      "624": 9033,
      "364": 9034,
      "maglo": 9035,
      "floridaattendance": 9036,
      "560": 9037,
      "bayi": 9038,
      "381": 9039,
      "380": 9040,
      "camden": 9041,
      "451": 9042,
      "benef": 9043,
      "appearing": 9044,
      "redd": 9045,
      "1960s": 9046,
      "stadium_name": 9047,
      "peat": 9048,
      "peace": 9049,
      "peele": 9050,
      "olympians": 9051,
      "locations": 9052,
      "medals": 9053,
      "##ification": 9054,
      "swoop": 9055,
      "##sher": 9056,
      "skydome": 9057,
      "freddie": 9058,
      "##gued": 9059,
      "sheffield": 9060,
      "##boston": 9061,
      "##koč": 9062,
      "surf": 9063,
      "gregory": 9064,
      "chambers": 9065,
      "gail": 9066,
      "hook": 9067,
      "dozier": 9068,
      "melchion": 9069,
      "##redeandre": 9070,
      "quality": 9071,
      "rutherford": 9072,
      "citing": 9073,
      "fifteen": 9074,
      "andreas": 9075,
      "springs": 9076,
      "goodyear": 9077,
      "matta": 9078,
      "ellen": 9079,
      "actually": 9080,
      "jarrett": 9081,
      "mckale": 9082,
      "mcginnis": 9083,
      "extensive": 9084,
      "extrem": 9085,
      "russian": 9086,
      "bernie": 9087,
      "meetings": 9088,
      "mcmullen": 9089,
      "terrap": 9090,
      "phillip": 9091,
      "deandredeandre": 9092,
      "pirates": 9093,
      "motiv": 9094,
      "vikes": 9095,
      "directly": 9096,
      "kukoč": 9097,
      "yugtemplate": 9098,
      "##loo": 9099,
      "##hmet": 9100,
      "lonborg": 9101,
      "justinjust": 9102,
      "##comb": 9103,
      "galla": 9104,
      "chaparr": 9105,
      "dye": 9106,
      "kirkland": 9107,
      "duckworth": 9108,
      "jacobs": 9109,
      "primarily": 9110,
      "services": 9111,
      "dominican": 9112,
      "basis": 9113,
      "harvey": 9114,
      "waterloo": 9115,
      "daughter": 9116,
      "hurricane": 9117,
      "hipsher": 9118,
      "woolridge": 9119,
      "thorpe": 9120,
      "podoloff": 9121,
      "particularly": 9122,
      "khimki": 9123,
      "coffee": 9124,
      "hoops": 9125,
      "registered": 9126,
      "giddens": 9127,
      "guarant": 9128,
      "naturalized": 9129,
      "drummond": 9130,
      "gaudio": 9131,
      "zollner": 9132,
      "herzegovina": 9133,
      "##homish": 9134,
      "sofia": 9135,
      "krstić": 9136,
      "aleksand": 9137,
      "scavol": 9138,
      "concordia": 9139,
      "committee": 9140,
      "snohomish": 9141,
      "tippy": 9142,
      "tobias": 9143,
      "military": 9144,
      "razorbacks": 9145,
      "jianlian": 9146,
      "pachulia": 9147,
      "xinjiang": 9148,
      "ineligible": 9149,
      "administ": 9150,
      "magloire": 9151,
      "melchionni": 9152,
      "terrapins": 9153,
      "justinjustin": 9154,
      "chaparrals": 9155,
      "scavolini": 9156,
      "2ot": 9157,
      "ah": 9158,
      "bag": 9159,
      "baton": 9160,
      "cf": 9161,
      "coup": 9162,
      "dd": 9163,
      "dri": 9164,
      "darl": 9165,
      "dub": 9166,
      "fs": 9167,
      "ful": 9168,
      "fog": 9169,
      "fsn": 9170,
      "hat": 9171,
      "hicks": 9172,
      "hull": 9173,
      "kle": 9174,
      "kittles": 9175,
      "mul": 9176,
      "nut": 9177,
      "ox": 9178,
      "omar": 9179,
      "sz": 9180,
      "sound": 9181,
      "t4": 9182,
      "tpi": 9183,
      "wise": 9184,
      "yyy": 9185,
      "##lou": 9186,
      "##lers": 9187,
      "##liff": 9188,
      "##aic": 9189,
      "##ault": 9190,
      "##afor": 9191,
      "##dor": 9192,
      "##doc": 9193,
      "##dox": 9194,
      "##yom": 9195,
      "##ole": 9196,
      "##oley": 9197,
      "##opt": 9198,
      "##cas": 9199,
      "##ković": 9200,
      "##wl": 9201,
      "##wick": 9202,
      "##ece": 9203,
      "##makers": 9204,
      "##tas": 9205,
      "##hav": 9206,
      "##foots": 9207,
      "##pes": 9208,
      "##pert": 9209,
      "##jam": 9210,
      "##eric": 9211,
      "##erman": 9212,
      "##erbah": 9213,
      "##onnie": 9214,
      "thursday": 9215,
      "##oral": 9216,
      "##anie": 9217,
      "##alid": 9218,
      "sty": 9219,
      "store": 9220,
      "story": 9221,
      "stotts": 9222,
      "##elor": 9223,
      "seah": 9224,
      "covers": 9225,
      "##ador": 9226,
      "##aded": 9227,
      "chaney": 9228,
      "##olas": 9229,
      "plaza": 9230,
      "##ivis": 9231,
      "hewitt": 9232,
      "##imo": 9233,
      "##imino": 9234,
      "##aster": 9235,
      "gameplay": 9236,
      "##isted": 9237,
      "beal": 9238,
      "beav": 9239,
      "beater": 9240,
      "##ava": 9241,
      "unless": 9242,
      "shak": 9243,
      "##emor": 9244,
      "##emiah": 9245,
      "newton": 9246,
      "arrow": 9247,
      "187": 9248,
      "184": 9249,
      "18rebs": 9250,
      "clos": 9251,
      "finalswon": 9252,
      "finalslost": 9253,
      "guest": 9254,
      "305": 9255,
      "##ughn": 9256,
      "##inner": 9257,
      "26th": 9258,
      "##abeth": 9259,
      "prot": 9260,
      "willard": 9261,
      "brid": 9262,
      "defender": 9263,
      "starred": 9264,
      "fours": 9265,
      "okafor": 9266,
      "cleared": 9267,
      "2024": 9268,
      "adopt": 9269,
      "292": 9270,
      "utattendance": 9271,
      "utica": 9272,
      "maddox": 9273,
      "colo": 9274,
      "upd": 9275,
      "blatt": 9276,
      "enc": 9277,
      "ensu": 9278,
      "edu": 9279,
      "edt": 9280,
      "##ograph": 9281,
      "abb": 9282,
      "above": 9283,
      "696": 9284,
      "358": 9285,
      "grun": 9286,
      "midland": 9287,
      "727": 9288,
      "732": 9289,
      "##olls": 9290,
      "503": 9291,
      "maya": 9292,
      "maynor": 9293,
      "000th": 9294,
      "386": 9295,
      "##athy": 9296,
      "mohe": 9297,
      "mohammed": 9298,
      "45th": 9299,
      "414": 9300,
      "434": 9301,
      "441": 9302,
      "445": 9303,
      "accur": 9304,
      "thunderbirds": 9305,
      "481": 9306,
      "morton": 9307,
      "marking": 9308,
      "underhill": 9309,
      "roberson": 9310,
      "reporter": 9311,
      "##byron": 9312,
      "##osha": 9313,
      "drug": 9314,
      "mackey": 9315,
      "dickau": 9316,
      "garland": 9317,
      "seth": 9318,
      "marco": 9319,
      "streng": 9320,
      "darko": 9321,
      "ploie": 9322,
      "idea": 9323,
      "duo": 9324,
      "crozier": 9325,
      "glass": 9326,
      "##errence": 9327,
      "logos": 9328,
      "##nesday": 9329,
      "acquiring": 9330,
      "erin": 9331,
      "renaldo": 9332,
      "martí": 9333,
      "ivan": 9334,
      "massimino": 9335,
      "passaic": 9336,
      "broadcaster": 9337,
      "budivel": 9338,
      "juwan": 9339,
      "goodrich": 9340,
      "changing": 9341,
      "uniondale": 9342,
      "jonjon": 9343,
      "hubert": 9344,
      "meaning": 9345,
[...]
